<pad>	0
<unk>	0
<s>	0
</s>	0
<0x00>	0
<0x01>	0
<0x02>	0
<0x03>	0
<0x04>	0
<0x05>	0
<0x06>	0
<0x07>	0
<0x08>	0
<0x09>	0
<0x0A>	0
<0x0B>	0
<0x0C>	0
<0x0D>	0
<0x0E>	0
<0x0F>	0
<0x10>	0
<0x11>	0
<0x12>	0
<0x13>	0
<0x14>	0
<0x15>	0
<0x16>	0
<0x17>	0
<0x18>	0
<0x19>	0
<0x1A>	0
<0x1B>	0
<0x1C>	0
<0x1D>	0
<0x1E>	0
<0x1F>	0
<0x20>	0
<0x21>	0
<0x22>	0
<0x23>	0
<0x24>	0
<0x25>	0
<0x26>	0
<0x27>	0
<0x28>	0
<0x29>	0
<0x2A>	0
<0x2B>	0
<0x2C>	0
<0x2D>	0
<0x2E>	0
<0x2F>	0
<0x30>	0
<0x31>	0
<0x32>	0
<0x33>	0
<0x34>	0
<0x35>	0
<0x36>	0
<0x37>	0
<0x38>	0
<0x39>	0
<0x3A>	0
<0x3B>	0
<0x3C>	0
<0x3D>	0
<0x3E>	0
<0x3F>	0
<0x40>	0
<0x41>	0
<0x42>	0
<0x43>	0
<0x44>	0
<0x45>	0
<0x46>	0
<0x47>	0
<0x48>	0
<0x49>	0
<0x4A>	0
<0x4B>	0
<0x4C>	0
<0x4D>	0
<0x4E>	0
<0x4F>	0
<0x50>	0
<0x51>	0
<0x52>	0
<0x53>	0
<0x54>	0
<0x55>	0
<0x56>	0
<0x57>	0
<0x58>	0
<0x59>	0
<0x5A>	0
<0x5B>	0
<0x5C>	0
<0x5D>	0
<0x5E>	0
<0x5F>	0
<0x60>	0
<0x61>	0
<0x62>	0
<0x63>	0
<0x64>	0
<0x65>	0
<0x66>	0
<0x67>	0
<0x68>	0
<0x69>	0
<0x6A>	0
<0x6B>	0
<0x6C>	0
<0x6D>	0
<0x6E>	0
<0x6F>	0
<0x70>	0
<0x71>	0
<0x72>	0
<0x73>	0
<0x74>	0
<0x75>	0
<0x76>	0
<0x77>	0
<0x78>	0
<0x79>	0
<0x7A>	0
<0x7B>	0
<0x7C>	0
<0x7D>	0
<0x7E>	0
<0x7F>	0
<0x80>	0
<0x81>	0
<0x82>	0
<0x83>	0
<0x84>	0
<0x85>	0
<0x86>	0
<0x87>	0
<0x88>	0
<0x89>	0
<0x8A>	0
<0x8B>	0
<0x8C>	0
<0x8D>	0
<0x8E>	0
<0x8F>	0
<0x90>	0
<0x91>	0
<0x92>	0
<0x93>	0
<0x94>	0
<0x95>	0
<0x96>	0
<0x97>	0
<0x98>	0
<0x99>	0
<0x9A>	0
<0x9B>	0
<0x9C>	0
<0x9D>	0
<0x9E>	0
<0x9F>	0
<0xA0>	0
<0xA1>	0
<0xA2>	0
<0xA3>	0
<0xA4>	0
<0xA5>	0
<0xA6>	0
<0xA7>	0
<0xA8>	0
<0xA9>	0
<0xAA>	0
<0xAB>	0
<0xAC>	0
<0xAD>	0
<0xAE>	0
<0xAF>	0
<0xB0>	0
<0xB1>	0
<0xB2>	0
<0xB3>	0
<0xB4>	0
<0xB5>	0
<0xB6>	0
<0xB7>	0
<0xB8>	0
<0xB9>	0
<0xBA>	0
<0xBB>	0
<0xBC>	0
<0xBD>	0
<0xBE>	0
<0xBF>	0
<0xC0>	0
<0xC1>	0
<0xC2>	0
<0xC3>	0
<0xC4>	0
<0xC5>	0
<0xC6>	0
<0xC7>	0
<0xC8>	0
<0xC9>	0
<0xCA>	0
<0xCB>	0
<0xCC>	0
<0xCD>	0
<0xCE>	0
<0xCF>	0
<0xD0>	0
<0xD1>	0
<0xD2>	0
<0xD3>	0
<0xD4>	0
<0xD5>	0
<0xD6>	0
<0xD7>	0
<0xD8>	0
<0xD9>	0
<0xDA>	0
<0xDB>	0
<0xDC>	0
<0xDD>	0
<0xDE>	0
<0xDF>	0
<0xE0>	0
<0xE1>	0
<0xE2>	0
<0xE3>	0
<0xE4>	0
<0xE5>	0
<0xE6>	0
<0xE7>	0
<0xE8>	0
<0xE9>	0
<0xEA>	0
<0xEB>	0
<0xEC>	0
<0xED>	0
<0xEE>	0
<0xEF>	0
<0xF0>	0
<0xF1>	0
<0xF2>	0
<0xF3>	0
<0xF4>	0
<0xF5>	0
<0xF6>	0
<0xF7>	0
<0xF8>	0
<0xF9>	0
<0xFA>	0
<0xFB>	0
<0xFC>	0
<0xFD>	0
<0xFE>	0
<0xFF>	0
।	-3.00771
,	-3.64183
▁	-4.54039
ের	-4.61505
▁ও	-4.79014
র	-4.80167
-	-4.93586
▁করে	-5.14116
:	-5.2266
▁(	-5.24949
▁থেকে	-5.29747
▁এ	-5.33066
)	-5.36174
▁করা	-5.41487
ে	-5.44307
▁এই	-5.45097
▁হয়	-5.50938
▁হয়েছে	-5.51109
0	-5.54042
কে	-5.59184
.	-5.5927
1	-5.59588
2	-5.61569
▁এবং	-5.66502
▁না	-5.66875
▁তিনি	-5.80069
▁হবে	-5.88441
▁জন্য	-5.90181
▁এক	-5.93468
ও	-5.95697
ই	-5.98048
▁তার	-5.98399
▁একটি	-6.0102
▁নিয়ে	-6.01703
▁:	-6.04898
▁করেন	-6.08895
▁বলেন	-6.09245
▁এর	-6.09793
▁করতে	-6.18549
▁-	-6.24065
▁সময়	-6.30369
▁মধ্যে	-6.36789
▁হয়ে	-6.40662
▁পর	-6.43444
▁আর	-6.43749
▁বলে	-6.43978
4	-6.44579
▁সঙ্গে	-6.46564
▁জানান	-6.48498
▁পুলিশ	-6.51439
▁জন	-6.54611
▁যায়	-6.55682
3	-6.55878
▁তাদের	-6.57644
▁,	-6.59403
▁হাজার	-6.61049
তে	-6.61454
▁বাংলাদেশ	-6.62007
▁করেছে	-6.62311
▁দিয়ে	-6.63854
▁যে	-6.63991
▁করেছেন	-6.6445
▁তবে	-6.64688
5	-6.64858
সহ	-6.69218
য়	-6.69796
▁শুরু	-6.72063
9	-6.72171
▁.	-6.73436
▁কথা	-6.74059
টি	-6.76893
8	-6.77519
▁গত	-6.78184
▁উপজেলা	-6.80769
▁করার	-6.80815
▁টাকা	-6.80869
▁রয়েছে	-6.80875
7	-6.81062
6	-6.83439
▁হচ্ছে	-6.83841
▁নতুন	-6.84362
▁ইসলাম	-6.84529
▁আজ	-6.84966
▁জেলা	-6.85026
▁ছিলেন	-6.85317
▁আগে	-6.8536
▁বিভিন্ন	-6.86634
▁বা	-6.87718
▁দুই	-6.88499
▁তারা	-6.88635
▁ওই	-6.89772
▁পর্যন্ত	-6.94574
দের	-6.9563
▁ঢাকা	-6.95732
ন	-6.96025
▁কাজ	-6.96462
▁সেই	-6.96891
▁২	-6.97596
▁তা	-6.98329
রা	-6.99056
▁সাথে	-6.99469
▁দিন	-6.99924
▁১	-7.00088
▁হিসেবে	-7.0046
▁কিন্তু	-7.00798
▁মো	-7.01915
▁গেছে	-7.02272
▁রহমান	-7.03452
▁প্রথম	-7.03508
▁হোসেন	-7.03517
▁বছর	-7.03609
▁সম্পাদক	-7.0409
▁আরও	-7.04166
▁পারে	-7.05381
▁আমরা	-7.06434
▁তাকে	-7.06436
▁আমাদের	-7.06591
▁দেখা	-7.07537
▁উপজেলার	-7.0786
▁৩	-7.0826
?	-7.09482
▁প্রধান	-7.0958
▁ছিল	-7.10059
া	-7.10199
▁জানা	-7.10234
স	-7.10539
▁১০	-7.1083
▁খবর	-7.11277
!	-7.12299
▁সব	-7.12736
▁জাতীয়	-7.13099
▁৫	-7.13325
▁হতে	-7.14008
▁পরে	-7.14314
ি	-7.1444
▁কিছু	-7.15954
▁কোনো	-7.15964
▁এখন	-7.16913
▁তথ্য	-7.16931
▁দিকে	-7.17374
▁করোনা	-7.17962
▁দেশের	-7.18263
▁শেষ	-7.19111
▁আমি	-7.19417
▁।	-7.20102
▁সভাপতি	-7.2117
▁সে	-7.22552
▁২০১৯	-7.2344
▁৪	-7.23768
▁বিরুদ্ধে	-7.24827
▁কাছে	-7.25119
▁শেখ	-7.25347
▁সাধারণ	-7.2599
▁মাধ্যমে	-7.26664
▁র	-7.27178
▁দেওয়া	-7.27536
▁উদ্ধার	-7.27773
▁বেশি	-7.28095
▁সদস্য	-7.2853
▁আমার	-7.29111
▁লাখ	-7.30184
▁উপস্থিত	-7.3133
▁সরকার	-7.31487
▁করুন	-7.31888
▁অনেক	-7.33023
▁কর্মকর্তা	-7.33547
▁কোন	-7.34922
▁সংবাদ	-7.3573
▁নেই	-7.35751
▁আছে	-7.36119
▁অনুষ্ঠিত	-7.3653
▁বুধবার	-7.37714
▁হাসপাতালে	-7.37798
▁নাম	-7.38612
▁প্রকাশ	-7.38619
▁নয়	-7.38811
▁প্রধানমন্ত্রী	-7.38948
▁যাবে	-7.39047
▁সোমবার	-7.39152
▁কি	-7.3917
▁৬	-7.39353
▁চেয়ারম্যান	-7.40369
▁বৃহস্পতিবার	-7.40522
▁ছেলে	-7.40589
▁নিহত	-7.41144
▁এলাকায়	-7.41362
▁অভিযোগ	-7.41398
▁মঙ্গলবার	-7.41413
ী	-7.42953
▁টি	-7.4299
▁তাই	-7.43012
▁মে	-7.43082
▁এবার	-7.43247
▁এমন	-7.44113
▁কারণে	-7.44194
ক	-7.44461
▁আটক	-7.44478
▁আরো	-7.45754
▁প্রায়	-7.45832
▁হলে	-7.46099
▁শনিবার	-7.46579
▁দেন	-7.46959
▁বড়	-7.47665
▁ডেস্ক	-7.48897
▁মৃত্যু	-7.49157
▁হয়েছেন	-7.49159
▁জানিয়েছেন	-7.49679
▁যা	-7.50022
▁ছবি	-7.50199
▁প্রতি	-7.50468
▁আপনার	-7.50771
▁'	-7.50878
▁বিষয়ে	-7.51291
▁ঘোষণা	-7.51768
▁আগামী	-7.51838
▁বিশেষ	-7.51917
▁পাওয়া	-7.51939
▁খান	-7.5205
▁থানার	-7.52154
▁এতে	-7.52472
▁তিন	-7.52518
▁শুক্রবার	-7.52526
▁সকাল	-7.54154
▁১২	-7.54333
▁গ্রামের	-7.54409
▁আওয়ামী	-7.54455
▁বলা	-7.55168
▁নিশ্চিত	-7.55188
▁২০১৮	-7.55202
▁–	-7.55204
▁করছে	-7.55389
▁৭	-7.55401
▁দিতে	-7.55482
▁সহ	-7.55802
▁দল	-7.56636
▁বাংলাদেশের	-7.56669
▁ধরে	-7.56865
▁ঘটনা	-7.5747
▁৮	-7.5752
▁১১	-7.57659
▁দেশে	-7.57747
▁২৪	-7.57845
▁মানুষ	-7.57979
▁আক্রান্ত	-7.58127
▁২০২০	-7.58163
▁বন্ধ	-7.58742
▁বছরের	-7.5922
▁মার্চ	-7.59397
▁স্বাস্থ্য	-7.61629
▁২০	-7.61888
▁তাঁর	-7.6211
▁ব্যবহার	-7.62407
▁মতো	-7.62424
▁দেয়া	-7.62878
▁)	-7.62922
▁সদর	-7.63361
▁স্থানীয়	-7.63882
▁দলের	-7.63883
▁একজন	-7.642
▁মামলা	-7.64303
▁থাকে	-7.64862
▁সকালে	-7.64906
▁কে	-7.65307
▁তৈরি	-7.65486
▁কোটি	-7.66335
▁১৫	-7.66465
▁এটি	-7.66856
▁জুলাই	-7.66962
▁দাবি	-7.67872
▁ভালো	-7.68396
▁মানুষের	-7.68786
▁সালে	-7.68951
ঃ	-7.69381
▁আহত	-7.69894
▁ঘটনায়	-7.70304
▁মা	-7.70307
▁পড়ে	-7.71193
▁নামে	-7.717
▁হওয়ার	-7.71704
▁নিউজ	-7.71737
▁মোঃ	-7.7267
▁গিয়ে	-7.73319
▁৯	-7.73582
▁জুন	-7.7392
▁প্রকাশিত	-7.74638
ল	-7.74945
▁বেশ	-7.74996
▁রাতে	-7.75245
▁প্রতিনিধি	-7.75295
▁অংশ	-7.76377
▁মনে	-7.7659
▁আলী	-7.76841
▁সাবেক	-7.76852
▁এপ্রিল	-7.77186
▁শেষে	-7.78296
▁বিষয়টি	-7.78373
▁নিজের	-7.78657
▁যাচ্ছে	-7.78671
টা	-7.79497
▁শিক্ষা	-7.7958
▁করবেন	-7.79642
▁পরীক্ষা	-7.79944
▁পুলিশের	-7.80061
▁সেপ্টেম্বর	-7.80093
▁রাত	-7.80255
▁ভারতের	-7.80371
▁করছেন	-7.80407
▁এলাকার	-7.8045
▁আল	-7.805
▁আন্তর্জাতিক	-7.8053
▁সংখ্যা	-7.80678
▁সেখানে	-7.80852
▁ইউনিয়নের	-7.80863
▁সামনে	-7.81114
▁একই	-7.81379
▁গ্রেফতার	-7.81567
▁হক	-7.81742
▁আপনি	-7.81871
▁যদি	-7.82245
ত	-7.82299
▁বাড়ি	-7.82582
▁সরকারি	-7.82969
▁সালের	-7.83096
▁কম	-7.83163
▁করবে	-7.83192
▁জনের	-7.83342
▁এসব	-7.83368
▁অক্টোবর	-7.83503
ম	-7.83528
▁হলো	-7.83538
▁অনুষ্ঠানে	-7.83555
▁এম	-7.84407
▁হাসান	-7.84478
▁বিশ্ববিদ্যালয়	-7.85193
▁নভেম্বর	-7.8556
▁নির্বাচন	-7.85776
▁ব্যবস্থা	-7.85945
▁লীগের	-7.86003
▁দেশ	-7.86102
▁দেয়	-7.8626
▁দিয়েছে	-7.86487
▁নেতা	-7.8683
'	-7.87035
▁১৪	-7.87157
▁বাংলা	-7.87383
▁মোট	-7.87648
▁অভিযান	-7.87876
▁বলেছেন	-7.88428
▁দিয়েছেন	-7.88539
▁যান	-7.88796
▁দু	-7.89099
▁জানিয়েছে	-7.89122
এর	-7.89417
▁হয়েছিল	-7.89447
▁উত্তর	-7.89592
▁৩০	-7.89892
▁ফলে	-7.89914
▁নারী	-7.90188
▁সিদ্ধান্ত	-7.90396
▁থাকবে	-7.90711
▁থাকা	-7.91028
▁আলম	-7.91399
▁মারা	-7.9142
▁হন	-7.91803
▁পেয়ে	-7.92247
▁চেষ্টা	-7.92484
▁কলেজ	-7.92546
▁হাতে	-7.92665
▁আলোচনা	-7.92707
▁ভর্তি	-7.92943
▁এরপর	-7.93104
▁মোহাম্মদ	-7.93221
▁পরিবারের	-7.93383
▁তুলে	-7.93564
▁ঘটে	-7.93994
না	-7.9462
▁দ্বিতীয়	-7.94624
▁"	-7.94794
▁১৮	-7.9485
▁আ	-7.9485
▁ভিডিও	-7.95012
▁ডিসেম্বর	-7.95276
▁পারেন	-7.96316
▁১৯	-7.96337
▁এসময়	-7.96377
▁১৩	-7.97004
▁কারণ	-7.97032
▁চৌধুরী	-7.97433
এ	-7.98089
▁ওপর	-7.98123
▁সকল	-7.98258
▁থানায়	-7.98364
পুর	-7.98367
▁অবস্থায়	-7.98574
▁জেলার	-7.9863
▁খুব	-7.98834
▁১৬	-7.99196
▁কেউ	-7.99292
▁নিতে	-7.99361
▁অফিসার	-7.99374
▁উদ্দিন	-7.99566
▁সরকারের	-7.99763
▁বার	-7.99766
▁বক্তব্য	-8.00006
▁হল	-8.00348
▁পাশাপাশি	-8.00577
▁এছাড়া	-8.00955
▁পরিচালক	-8.01419
▁আহমেদ	-8.0157
▁সাড়ে	-8.02391
▁জানুয়ারি	-8.02483
▁আপডেট	-8.02574
▁ধরনের	-8.02577
▁ড	-8.02629
▁আগস্ট	-8.02654
▁চলছে	-8.03171
▁একটা	-8.03482
▁নির্বাহী	-8.04119
ার	-8.04164
গুলো	-8.04363
▁মাঝে	-8.04463
ো	-8.04782
▁অন্য	-8.04886
▁জানানো	-8.05402
▁ফেব্রুয়ারি	-8.05436
▁অনলাইন	-8.05465
▁দুপুরে	-8.05551
▁বিতরণ	-8.06026
▁গতকাল	-8.06137
▁ভারত	-8.06174
▁রোববার	-8.06846
▁দাম	-8.07154
▁এদিকে	-8.07618
▁বি	-8.07691
▁১৭	-8.07906
▁চার	-8.08444
▁শতাংশ	-8.08526
▁দক্ষিণ	-8.08563
▁রবিবার	-8.08696
▁বিভাগের	-8.08742
▁বিএনপি	-8.08904
▁উপর	-8.09489
▁জানায়	-8.09761
▁২৫	-8.1039
▁থানা	-8.11256
▁থেকেই	-8.11629
▁স্ত্রী	-8.11684
▁ভারতীয়	-8.11851
তা	-8.12071
▁শিক্ষক	-8.12276
ব	-8.1236
▁ক্রিকেট	-8.12406
▁জয়	-8.1241
▁অতিথি	-8.1267
▁আবার	-8.13181
▁অনুযায়ী	-8.13187
▁২১	-8.1339
▁ছাড়া	-8.13758
▁ইউনিয়ন	-8.13789
▁আব্দুল	-8.14453
▁আদালত	-8.14458
▁কমিটির	-8.14736
▁বাড়িতে	-8.14765
▁রেখে	-8.15366
▁এটা	-8.15433
▁শিশু	-8.1549
▁চলে	-8.1557
▁হয়নি	-8.15609
▁অন্যান্য	-8.15795
▁হওয়া	-8.16033
▁দেখে	-8.16124
▁পারবেন	-8.16141
▁রাখা	-8.16284
▁যেতে	-8.16329
▁আবেদন	-8.16487
▁বিএনপির	-8.16766
▁পালন	-8.16837
▁দেখতে	-8.17047
১	-8.1707
▁কেন্দ্রীয়	-8.17265
▁হত্যা	-8.17375
▁দুটি	-8.17577
▁ম্যাচ	-8.17604
▁মন্তব্য	-8.17808
▁২০১৭	-8.18353
▁ম্যাচে	-8.18828
▁কী	-8.18966
▁মার্কিন	-8.19122
▁প্রদান	-8.19182
▁ই	-8.19226
▁ডা	-8.19286
;	-8.19301
▁২২	-8.19476
▁করলে	-8.19616
▁সবচেয়ে	-8.1963
▁নেওয়া	-8.1989
▁এসে	-8.20398
ুল	-8.20642
▁সভায়	-8.20942
▁দিনের	-8.21387
▁রান	-8.21466
▁মিয়া	-8.21517
▁মৃত	-8.21602
▁তাহলে	-8.21689
▁করি	-8.21718
▁মোবাইল	-8.22129
▁সুযোগ	-8.22139
▁অতিরিক্ত	-8.22154
৷	-8.22161
▁মাদক	-8.22166
▁সময়ে	-8.22183
▁খেলা	-8.22292
▁মাস	-8.23014
▁বর্তমানে	-8.23134
▁উপলক্ষে	-8.23397
▁শুধু	-8.23712
▁ঘটনার	-8.24244
▁হলেন	-8.24397
▁অ	-8.2447
▁সম্প্রতি	-8.24607
▁পাশে	-8.24621
বি	-8.24634
১৯	-8.24827
▁মাঠে	-8.2513
▁বের	-8.25366
▁তো	-8.25483
▁সভা	-8.25722
▁কোনও	-8.2582
▁গ্রহণ	-8.25973
▁মেডিকেল	-8.26203
▁পরিষদের	-8.26301
▁দায়িত্ব	-8.26318
▁সমস্যা	-8.26373
▁পক্ষ	-8.2651
▁আয়োজন	-8.2709
▁রাজধানীর	-8.2753
(	-8.27586
▁নিজস্ব	-8.2759
▁সুপার	-8.27696
▁যাওয়ার	-8.27883
▁চট্টগ্রাম	-8.28029
▁আসে	-8.28126
▁অর্থ	-8.28247
▁যারা	-8.28248
▁আইন	-8.28265
নি	-8.28463
ভাবে	-8.28539
▁হাত	-8.28637
▁তখন	-8.28666
▁প্রেসিডেন্ট	-8.28746
▁থাকতে	-8.28801
▁সম্পর্কে	-8.28936
▁প্রাথমিক	-8.29872
▁পাঠানো	-8.29999
▁সড়ক	-8.30385
▁যার	-8.30454
▁সংসদ	-8.30531
▁সূত্রে	-8.30871
▁উপ	-8.31001
২	-8.31424
▁সিলেট	-8.31446
▁নানা	-8.31628
▁স	-8.31642
▁পাঁচ	-8.3166
▁সামাজিক	-8.31724
▁লাশ	-8.31752
▁এগিয়ে	-8.31837
▁বাবা	-8.31956
▁বিশ্ব	-8.32065
▁২৩	-8.32248
▁হাসিনা	-8.327
্	-8.32873
▁আছেন	-8.32978
),	-8.33138
▁যোগ	-8.33144
▁পরিচালনা	-8.33147
▁এস	-8.33334
▁বেগম	-8.33417
▁শেয়ার	-8.33454
জ	-8.33511
িং	-8.33595
▁জনপ্রিয়	-8.34778
▁ফোন	-8.34942
▁উচ্চ	-8.35509
▁নম্বর	-8.35584
▁ক্ষেত্রে	-8.3561
▁চিকিৎসা	-8.36012
▁দ্রুত	-8.36204
▁পানি	-8.36353
▁যোগাযোগ	-8.36376
▁মামলার	-8.36393
▁ভোট	-8.36451
▁চালিয়ে	-8.3681
▁মুক্তি	-8.36931
▁তদন্ত	-8.36948
▁সহকারী	-8.3735
▁বঙ্গবন্ধু	-8.37402
▁নিজ	-8.37429
▁নির্বাচনে	-8.37431
▁রাখেন	-8.37494
▁ছোট	-8.37573
▁লীগ	-8.37576
▁রায়	-8.3787
▁মাত্র	-8.37873
▁দেওয়ার	-8.37919
▁টাকার	-8.3815
▁বিয়ে	-8.3835
▁সচিব	-8.38405
▁যাওয়া	-8.38441
▁উন্নয়ন	-8.38489
▁পরিবার	-8.38492
▁অভিনয়	-8.38726
ৰ	-8.3898
▁প্রশ্ন	-8.3906
▁জানতে	-8.39147
▁ঠিক	-8.39348
▁নির্দেশ	-8.3946
▁রাখতে	-8.39805
▁বাজারে	-8.39887
▁উদ্বোধন	-8.39991
▁আদালতে	-8.40035
▁মামলায়	-8.40312
▁অবস্থান	-8.41149
▁৫০	-8.41186
▁ব্যাপারে	-8.41218
▁নিন	-8.41637
▁নেয়া	-8.41763
▁অব	-8.41951
▁শহরের	-8.42004
▁যখন	-8.421
▁স্কুল	-8.42356
▁বিপক্ষে	-8.42732
▁হলেও	-8.42955
▁খালেদা	-8.43025
▁জীবন	-8.43025
▁বিক্রি	-8.43075
▁সাংবাদিক	-8.43254
▁কুমার	-8.43631
▁প্রতিষ্ঠান	-8.43692
...	-8.43806
▁বাজার	-8.43818
▁মেয়ে	-8.44163
▁এলাকা	-8.4421
▁২৬	-8.4435
▁পরবর্তী	-8.44377
▁নামের	-8.44476
▁রয়েছেন	-8.44596
▁হামলা	-8.44612
▁কেন	-8.45061
শ	-8.45219
▁যেন	-8.45303
▁২০১৬	-8.4532
▁এসেছে	-8.45428
▁বিশ্বের	-8.45814
▁বাস	-8.45949
▁দায়ের	-8.45995
▁সংস্থা	-8.46064
▁২৮	-8.46073
▁সবাই	-8.46522
▁সর্বোচ্চ	-8.46753
▁গেলে	-8.46762
▁বাংলাদেশে	-8.47253
▁এখানে	-8.47261
▁পয়েন্ট	-8.47278
▁ভাই	-8.47533
▁মডেল	-8.47898
▁ভারপ্রাপ্ত	-8.48238
▁মহিলা	-8.48664
▁আশা	-8.48856
▁নিরাপত্তা	-8.4899
▁২৭	-8.4905
▁কয়েক	-8.49176
▁বিভাগ	-8.49216
▁আগুন	-8.49319
▁সেবা	-8.49569
▁ছাত্র	-8.49655
▁কেন্দ্র	-8.5003
ু	-8.50034
▁অধ্যাপক	-8.50089
▁গ্রামে	-8.50102
▁আসা	-8.50213
▁স্থানে	-8.50213
টির	-8.50322
▁ওসি	-8.50519
▁পরিষদ	-8.50634
▁দিবস	-8.50666
▁সৌদি	-8.50696
▁থাকার	-8.50704
২০	-8.50759
▁ঘরে	-8.50856
▁সভাপতিত্বে	-8.5088
▁প্রার্থী	-8.50892
▁ফেসবুক	-8.50935
▁ব্যাংক	-8.51058
▁আগের	-8.51088
▁সম্ভব	-8.51533
▁প্রমুখ	-8.52306
▁পোস্ট	-8.5236
▁গেছেন	-8.52493
▁বিষয়	-8.5253
▁তারিখ	-8.52541
প	-8.52768
▁মেয়র	-8.52798
▁চেয়ে	-8.52832
▁শনাক্ত	-8.52993
গ	-8.53026
▁বর্তমান	-8.53177
▁পথে	-8.53258
▁দিনে	-8.53266
▁আবু	-8.53298
▁সি	-8.53599
▁মন্ত্রী	-8.53699
▁এখনও	-8.53793
▁আসছে	-8.53802
▁মিনিটে	-8.53819
▁ফিরে	-8.54014
▁প্রতিবেদক	-8.5408
িক	-8.54334
মা	-8.54376
▁মাসের	-8.54735
▁জানিয়ে	-8.54749
▁বিকেলে	-8.55152
▁কমিটি	-8.55172
▁সূত্র	-8.55308
▁করোনায়	-8.55468
▁বাইরে	-8.56332
▁মাসে	-8.56472
▁নেন	-8.5687
▁কার্যক্রম	-8.57058
▁নিজেদের	-8.57159
▁ব্যক্তি	-8.57168
▁পরিস্থিতি	-8.57302
▁পরীক্ষার	-8.57485
▁মত	-8.57626
▁দেশটির	-8.57657
▁ভাবে	-8.57831
▁সুস্থ	-8.57911
▁পরিবর্তন	-8.58569
▁গান	-8.58593
▁ঢাকার	-8.58617
▁পেতে	-8.58826
▁চাই	-8.58881
▁গ্রেপ্তার	-8.5895
▁হার	-8.59369
▁সিটি	-8.59439
▁নিয়োগ	-8.59877
▁উল্লেখ্য	-8.59883
▁চালু	-8.59902
▁অভিনেত্রী	-8.59971
▁গেল	-8.60076
▁সারা	-8.60121
▁খাবার	-8.60139
িত	-8.60355
▁পা	-8.60495
▁মৃত্যুর	-8.60528
▁রিপোর্ট	-8.60652
▁বিমান	-8.60693
সি	-8.60733
▁প্রয়োজন	-8.60845
▁নি	-8.60883
▁পদে	-8.60955
▁সেরা	-8.61222
▁মিনিট	-8.61281
▁হারিয়ে	-8.61369
▁অপরাহ্ণ	-8.6142
▁তৃতীয়	-8.61596
▁আবুল	-8.61614
▁এছাড়াও	-8.61651
▁গাড়ি	-8.61665
▁কাজে	-8.61762
▁বেড়ে	-8.619
▁দৈনিক	-8.6259
৩	-8.62789
▁বিষয়ক	-8.62799
▁উল্লেখ	-8.6282
৫	-8.63063
▁মূল্য	-8.63389
▁চলতি	-8.63433
কা	-8.63496
▁ডি	-8.63783
▁জনকে	-8.63887
▁ধরা	-8.64041
▁ফল	-8.64052
▁দুপুর	-8.64054
▁মুখে	-8.64161
▁পান	-8.64352
▁চান	-8.64403
ড	-8.64747
দ	-8.64843
▁আগেই	-8.64854
▁করেছিলেন	-8.65086
ং	-8.65139
▁বাড়ির	-8.65164
▁স্বামী	-8.65635
▁প্রধানমন্ত্রীর	-8.66068
▁সৃষ্টি	-8.66249
▁করছি	-8.6651
▁পণ্য	-8.66694
৩০	-8.66727
▁ছবির	-8.67085
▁হাসপাতাল	-8.6716
▁গুরুত্বপূর্ণ	-8.67279
▁আহ্বান	-8.67339
▁উইকেট	-8.67409
▁বিশ্বাস	-8.67656
▁পক্ষে	-8.677
ট	-8.67708
▁গিয়েছে	-8.67805
▁কাদের	-8.67892
▁গুলি	-8.67984
▁পিএম	-8.68093
▁পড়া	-8.68164
▁২৯	-8.68215
লা	-8.68291
▁রাজশাহী	-8.68532
▁নিয়েছে	-8.68539
▁অভিযোগে	-8.68547
▁করলেন	-8.68551
▁রেকর্ড	-8.68591
▁হিসাবে	-8.6872
▁সাংবাদিকদের	-8.6883
▁হওয়ায়	-8.69086
▁মরদেহ	-8.69125
▁সবার	-8.6949
▁পৌর	-8.69581
▁গ্রাম	-8.69781
▁রাজনৈতিক	-8.69897
▁যায়নি	-8.69945
▁প্রযুক্তি	-8.70028
▁অন্যতম	-8.70241
▁পড়েছে	-8.70424
▁উদ্যোগে	-8.706
▁অফিস	-8.70628
▁কেজি	-8.70694
▁সর্বশেষ	-8.7072
▁মেনে	-8.70743
▁অবস্থা	-8.7089
ছে	-8.71082
▁ছড়িয়ে	-8.7134
▁ক	-8.71419
▁কর্তৃপক্ষ	-8.71514
▁৩১	-8.71519
▁বেলা	-8.71543
▁উপজেলায়	-8.71636
▁ব্যবসায়ী	-8.71703
▁অনুষ্ঠান	-8.71869
▁সংগ্রহ	-8.7194
▁কয়েকটি	-8.72044
▁করোনার	-8.72298
▁সম্পর্ক	-8.72351
▁কাছ	-8.72425
▁ভিত্তিতে	-8.72449
▁পুরস্কার	-8.72733
▁পরিকল্পনা	-8.72806
▁হাসপাতালের	-8.72852
▁অধিনায়ক	-8.72902
▁বিয়ের	-8.73065
▁ডেইলি	-8.73135
▁নির্বাচিত	-8.73202
▁চিকিৎসক	-8.7333
▁সিনিয়র	-8.7344
▁পাবেন	-8.73625
▁ভারতে	-8.73663
▁জারি	-8.73698
▁প্রস্তুতি	-8.74026
▁খাদ্য	-8.74094
▁কৃষি	-8.74197
সা	-8.74231
▁নেতৃত্বে	-8.74317
▁জেনারেল	-8.74506
▁ইউপি	-8.7474
▁শিক্ষার্থীদের	-8.74949
▁শিক্ষার্থী	-8.74994
▁ভাল	-8.74995
গুলি	-8.75059
বা	-8.75063
▁এখনো	-8.75185
▁শাহ	-8.75394
▁ম	-8.75523
▁সম্মেলনে	-8.75544
▁বলেও	-8.75662
▁বার্তা	-8.75834
▁পূর্ব	-8.75846
য়ে	-8.75901
▁টেস্ট	-8.75971
লি	-8.75998
▁গোল	-8.76032
▁নিয়মিত	-8.76099
িয়া	-8.7625
▁ছেড়ে	-8.76728
▁ঘণ্টায়	-8.76758
▁জন্ম	-8.76761
▁সেটা	-8.77262
▁কলেজের	-8.77269
▁মূল	-8.77329
▁মধ্য	-8.77638
১২	-8.7792
▁ঘটেছে	-8.77997
▁যেখানে	-8.78146
▁মুখ	-8.78337
▁::	-8.78337
▁আই	-8.78394
▁আক্তার	-8.78589
কম	-8.78827
▁উঠে	-8.78909
▁রহমানের	-8.79038
৪	-8.79052
১০	-8.79077
জি	-8.79107
▁পাওয়ার	-8.79164
▁মন্ত্রণালয়ের	-8.79322
▁দেয়ার	-8.79348
▁প্রতিদিন	-8.79478
▁আজকের	-8.79642
▁দীর্ঘ	-8.79674
▁আহমদ	-8.79944
▁সহায়তা	-8.79952
▁শিকার	-8.79967
▁ঢাকায়	-8.80066
▁দোয়া	-8.8044
▁বিক্ষোভ	-8.80648
▁প্রশাসন	-8.80716
▁৪০	-8.81
হ	-8.81081
"	-8.81555
ফ	-8.81755
▁নেমে	-8.81802
▁ঘণ্টা	-8.81974
▁পর্যায়ে	-8.8208
▁যুগ্ম	-8.82092
▁মাহমুদ	-8.82163
▁নিয়ন্ত্রণ	-8.8227
▁সুবিধা	-8.82277
▁কামাল	-8.82314
▁পাকিস্তান	-8.82394
▁কমিশনার	-8.82418
▁থাকলে	-8.82619
পাড়া	-8.82669
২৫	-8.82718
▁থাকেন	-8.82828
▁সদস্যরা	-8.82926
▁থাকায়	-8.82947
▁সাহায্য	-8.83283
▁শ্রমিক	-8.83301
▁অপরাহ্ন	-8.83423
▁বৃদ্ধি	-8.83741
▁যেমন	-8.83947
▁ছাত্রলীগের	-8.83956
▁চা	-8.84102
▁পুরো	-8.84161
▁শহীদ	-8.84227
▁অনেকেই	-8.8428
▁বল	-8.84334
▁লেখা	-8.84354
▁ছবিতে	-8.84722
▁পায়	-8.84739
▁যদিও	-8.84779
▁সু	-8.84786
▁মন্ত্রণালয়	-8.84807
▁প্রথমে	-8.84843
▁নেয়	-8.84862
▁হামলার	-8.8487
▁বলতে	-8.84992
▁যাতে	-8.8502
▁তাঁকে	-8.85143
▁মহানগর	-8.8519
▁সংক্রমণ	-8.85325
▁শীর্ষ	-8.85334
▁সাত	-8.85404
▁শুভ	-8.8556
▁লক্ষ্য	-8.85632
▁২০২১	-8.85769
১৮	-8.85816
▁আবদুল	-8.85866
▁প্রশাসক	-8.85924
▁যুক্ত	-8.85938
১১	-8.86073
▁করোনাভাইরাস	-8.86355
▁করেছি	-8.86432
▁গল্প	-8.86465
▁রাখার	-8.86665
▁বয়স	-8.86782
▁নমুনা	-8.86948
▁পেয়েছে	-8.86973
▁মুক্তিযোদ্ধা	-8.86995
লে	-8.87183
▁জেলায়	-8.87377
▁পেয়েছেন	-8.87618
▁বই	-8.87704
▁ফুটবল	-8.87876
▁ঘটনাস্থলে	-8.87997
▁ভুল	-8.88015
২৪	-8.88078
▁নির্মাণ	-8.8808
▁তিনটি	-8.88111
▁গড়ে	-8.88274
ুর	-8.88384
▁সম্পন্ন	-8.88406
▁সাকিব	-8.88457
▁সন্তান	-8.88595
▁এমপি	-8.88712
০০	-8.88727
▁লক্ষ	-8.88734
▁বিস্তারিত	-8.8888
▁প্রতিটি	-8.88936
▁বোর্ড	-8.88992
▁জমা	-8.88996
▁একাধিক	-8.89081
▁আমাকে	-8.89113
বে	-8.89154
▁পাকিস্তানের	-8.89466
▁সম্মেলন	-8.89537
▁ফেলে	-8.89547
▁ছয়	-8.89818
▁দেখুন	-8.8997
▁মালিক	-8.90024
▁হত্যার	-8.90063
▁সংগঠন	-8.90144
▁অন্তত	-8.90161
▁প্রেস	-8.90514
▁সন্ধ্যায়	-8.90542
▁কবির	-8.90695
▁ভাইরাস	-8.90728
▁তাঁদের	-8.90773
▁আয়োজিত	-8.90876
▁প্রতিবেদন	-8.90888
▁ধারণা	-8.91003
▁অথবা	-8.91121
▁যুক্তরাষ্ট্রের	-8.91203
কার	-8.9129
▁!	-8.91304
▁বাংলাদেশি	-8.91656
▁বিজ্ঞপ্তিতে	-8.91756
▁তারকা	-8.91883
▁লাল	-8.91894
▁কিংবা	-8.91925
▁;	-8.9194
▁জায়গায়	-8.9199
▁এদিন	-8.92012
▁সংগঠনের	-8.92163
▁বৈঠক	-8.9235
▁রাজ্য	-8.9235
▁ক্লিক	-8.9241
▁অভিনেতা	-8.92504
মি	-8.92633
ওসি	-8.92837
▁বসে	-8.92864
▁চিকিৎসাধীন	-8.92875
▁জি	-8.93104
বার	-8.93142
▁মন	-8.93158
▁গুরুতর	-8.93166
▁ঈদ	-8.93208
▁অ্যান্ড	-8.93242
▁সময়ের	-8.93363
▁একটু	-8.93439
▁ফের	-8.93485
▁পরিমাণ	-8.93646
▁আসামি	-8.93655
য়া	-8.94179
▁বিনোদন	-8.94185
▁আসতে	-8.94212
▁তালিকা	-8.94275
▁অন্যদিকে	-8.94282
২২	-8.94316
▁মাছ	-8.9443
▁তারপর	-8.9444
▁৷	-8.94673
্য	-8.94825
▁পারবে	-8.94829
▁চীন	-8.94846
▁তাতে	-8.95024
▁সংক্রান্ত	-8.95027
▁বিদ্যালয়ের	-8.95105
▁গোপন	-8.95207
▁নিয়েছেন	-8.95321
▁মুসলিম	-8.9547
▁টা	-8.955
▁পরিচয়	-8.95638
▁কর্মসূচি	-8.95732
▁লোকজন	-8.95756
▁দূর	-8.96015
▁বৈঠকে	-8.96195
▁জরিমানা	-8.96405
▁পরামর্শ	-8.96462
জন	-8.9647
▁সংশ্লিষ্ট	-8.96501
▁ফায়ার	-8.96726
▁ভাইস	-8.96755
▁বাকি	-8.96815
▁ইসলামের	-8.96843
▁জেনে	-8.96881
▁বিভাগে	-8.97137
▁দলীয়	-8.97613
▁পালিয়ে	-8.97674
▁আনা	-8.97759
▁সিনেমা	-8.97977
▁দিলেন	-8.98038
▁ধর্ম	-8.98053
তম	-8.98082
▁কার্যালয়ে	-8.98145
▁দীর্ঘদিন	-8.98291
▁অধিকার	-8.983
১৫	-8.98355
দা	-8.98487
▁জরুরি	-8.98525
▁জিয়া	-8.98695
▁শহর	-8.98742
▁উচিত	-8.98751
▁ব্যাপক	-8.98809
▁প্রাণ	-8.9882
▁দাবিতে	-8.98935
৬	-8.9896
▁দশমিক	-8.99036
▁ব্যাংকের	-8.99074
▁...	-8.99366
য়ের	-8.99389
▁গভীর	-8.99653
▁দেবে	-8.99745
▁প্রচার	-8.9975
▁যাত্রী	-8.99858
▁উঠেছে	-8.99867
▁দিক	-9.00004
▁গঠন	-9.00056
▁লাভ	-9.00248
▁চায়	-9.00251
১৭	-9.00335
▁আদালতের	-9.00414
▁বিকেল	-9.0048
▁স্বাভাবিক	-9.00541
০	-9.00559
▁আসার	-9.00606
▁চলাচল	-9.00619
▁স্থান	-9.00664
▁জায়গা	-9.00705
▁অস্ত্র	-9.00885
▁চালক	-9.00904
▁বিজেপি	-9.00972
▁অব্যাহত	-9.00976
▁আরব	-9.01055
▁দলে	-9.01295
▁কাজের	-9.013
▁স্টাফ	-9.0131
▁সংস্থার	-9.01321
▁শুভেচ্ছা	-9.01402
▁ঘর	-9.01516
▁বহু	-9.01627
▁আসলে	-9.01663
▁ভেঙে	-9.01722
▁বাসায়	-9.01834
▁মুখোমুখি	-9.0204
▁প্রবেশ	-9.0209
▁ডট	-9.02124
▁আয়	-9.02132
▁সমস্ত	-9.02474
▁চাল	-9.02849
১৪	-9.02975
ঁ	-9.03016
▁ম্যাচের	-9.0302
▁ডলার	-9.0305
▁ফুল	-9.03056
▁বাহিনীর	-9.03098
▁মধ্যেই	-9.03189
২৮	-9.03267
▁সিরিজ	-9.03297
২১	-9.033
▁বিজ্ঞান	-9.03353
েই	-9.03446
▁ডাউনলোড	-9.03461
▁চলেছে	-9.03512
▁নির্দেশনা	-9.03533
▁পবিত্র	-9.03552
▁অনেকে	-9.03604
ভ	-9.03619
▁মিডিয়া	-9.03631
▁খুবই	-9.03662
▁চাইলে	-9.03664
▁করায়	-9.0372
▁দুর্ঘটনা	-9.03844
▁তেল	-9.03866
▁পরিবহন	-9.03978
▁পড়ুন	-9.03993
▁টিকা	-9.04058
▁ইনচার্জ	-9.04098
▁সন্ধ্যা	-9.04323
ির	-9.04367
৮	-9.04696
▁সৈয়দ	-9.04698
▁মাথায়	-9.04758
▁লক্ষ্যে	-9.04796
▁নির্বাচনের	-9.04813
▁ধর্ষণ	-9.04839
▁কোম্পানি	-9.04926
▁সমিতির	-9.04944
▁নেওয়ার	-9.04997
▁বিচারপতি	-9.05055
▁স্থানীয়রা	-9.05159
▁অনুরোধ	-9.05194
▁রাজধানী	-9.052
▁সহযোগিতা	-9.05223
▁বিচার	-9.0531
▁বছরে	-9.05319
▁চলচ্চিত্র	-9.0542
▁আর্থিক	-9.0545
াল	-9.05559
▁সহজ	-9.05608
▁বিদ্যুৎ	-9.05612
▁রোগী	-9.05766
কারী	-9.05808
▁যুবক	-9.0581
▁আপনাদের	-9.05879
১৬	-9.05964
▁আইনজীবী	-9.0597
▁বিশ্বকাপ	-9.06084
▁জাতির	-9.06091
▁সোশ্যাল	-9.06213
▁প্রশাসনের	-9.06257
▁বৃষ্টি	-9.06313
▁পৌঁছে	-9.06358
▁জড়িত	-9.0645
▁লিখেছেন	-9.06481
▁প্রয়োজনীয়	-9.06534
▁১০০	-9.06581
▁খুলনা	-9.06585
▁রানের	-9.06632
▁ব্যবসা	-9.06702
▁অবৈধ	-9.06735
▁রিপোর্টার	-9.06819
▁বাহিনী	-9.06985
▁কমিশন	-9.07035
▁সবাইকে	-9.07074
▁তাঁরা	-9.07121
▁সার্ভিস	-9.07122
৭	-9.07252
▁সুন্দর	-9.07329
▁পদক্ষেপ	-9.07609
তার	-9.07646
▁যাচ্ছেন	-9.07696
▁মাধ্যমিক	-9.07704
▁লোক	-9.07879
▁প	-9.07961
▁পি	-9.0801
▁বয়সী	-9.08041
▁উপহার	-9.08047
▁বাতিল	-9.08142
▁ক্রীড়া	-9.08175
▁আয়োজনে	-9.08201
▁বিরোধী	-9.08222
▁বেসরকারি	-9.08327
▁বাসিন্দা	-9.08393
ণ	-9.08642
▁নাকি	-9.08719
▁শরীরে	-9.08908
▁দিলে	-9.08981
২৩	-9.08999
▁সরাসরি	-9.0909
৩৫	-9.09218
▁রোহিঙ্গা	-9.09227
▁জিয়ার	-9.09281
▁টিম	-9.09318
▁আসনের	-9.09378
ডি	-9.09415
▁?	-9.09435
▁কর্মী	-9.09468
▁২০১৫	-9.0949
▁পথ	-9.09501
▁পরীক্ষায়	-9.09601
▁কেটে	-9.09734
▁খেলতে	-9.09768
▁ছাড়াও	-9.09825
▁বাদ	-9.09839
জা	-9.10037
▁নজরুল	-9.10137
▁কাজী	-9.10162
▁জল	-9.10408
▁স্বপ্ন	-9.10483
▁হাসিনার	-9.10526
▁চন্দ্র	-9.11054
▁কলকাতা	-9.11111
লো	-9.1117
▁শোক	-9.11189
▁বিশ্ববিদ্যালয়ে	-9.11284
৪০	-9.11401
▁দোকান	-9.11407
▁ডিজিটাল	-9.11411
আর	-9.11447
▁শহরে	-9.11539
▁ঈদের	-9.11593
▁আপনাকে	-9.11662
▁প্রস্তাব	-9.1176
▁নিয়ম	-9.11778
▁পড়তে	-9.11794
▁প্রতিমন্ত্রী	-9.11803
▁ভূমিকা	-9.11844
▁সেনা	-9.11916
▁পৌরসভার	-9.1194
▁নং	-9.11998
▁পাবে	-9.12162
▁কমে	-9.12213
▁ভাইরাল	-9.1223
▁ট্রাম্প	-9.12348
▁আবহাওয়া	-9.12509
▁অর্জন	-9.12697
▁চলবে	-9.12699
▁বরিশাল	-9.12821
▁চুক্তি	-9.1288
▁সাংগঠনিক	-9.13009
টার	-9.13179
▁দ্য	-9.13192
▁পাতা	-9.13284
▁মহাসচিব	-9.13843
▁রোগ	-9.13981
▁মাস্ক	-9.13989
▁হাজির	-9.14101
▁সম্ভাবনা	-9.14118
রি	-9.14198
▁গোলাম	-9.14202
▁কিভাবে	-9.1423
▁চীনের	-9.14322
▁করেছিল	-9.14359
▁আসবে	-9.14418
২৬	-9.14556
▁অর্থাৎ	-9.14566
▁আদেশ	-9.14587
▁ইন	-9.14735
▁খুঁজে	-9.14736
▁আসেন	-9.14757
▁ক্ষমতা	-9.14771
▁প্রতিবেদনে	-9.15375
▁থাকলেও	-9.15397
▁র্যাব	-9.154
▁সদস্যদের	-9.15407
▁করিম	-9.15541
▁কামনা	-9.15617
▁প্রতিবাদ	-9.15663
▁অনুমতি	-9.15804
▁তালিকায়	-9.15891
▁নিরাপদ	-9.15983
▁খেলার	-9.16119
▁প্রকল্প	-9.16161
▁অভিযানে	-9.16335
▁সাল	-9.16417
▁সমাজ	-9.16521
▁পার	-9.16651
▁হঠাৎ	-9.16704
▁পিতা	-9.16715
▁আওতায়	-9.16749
▁দ্বারা	-9.17054
▁নিজেকে	-9.17132
আ	-9.17162
▁কিনা	-9.17168
▁শারীরিক	-9.1719
▁রানে	-9.17428
▁দিচ্ছে	-9.17431
▁বিদ্যালয়	-9.17531
▁কারাগারে	-9.17539
▁অবশ্যই	-9.17621
▁ধন্যবাদ	-9.17642
১৩	-9.17658
▁নিচে	-9.17658
▁ফারুক	-9.17725
▁আব্দুর	-9.17768
▁বন্ধু	-9.1777
▁ওবায়দুল	-9.17809
▁কোচ	-9.17812
▁বেড়েছে	-9.17924
▁হোম	-9.17937
▁নিহতের	-9.17947
নে	-9.17997
▁৬০	-9.181
▁কুমিল্লা	-9.18233
▁দাস	-9.18288
▁পশ্চিম	-9.18368
▁ক্লাব	-9.18388
▁কয়েকজন	-9.18406
▁সামরিক	-9.18459
▁প্র	-9.18539
▁পার্টির	-9.18595
▁তে	-9.18825
▁কেন্দ্রে	-9.18957
▁উদ্যোগ	-9.1899
▁ব	-9.19005
▁কোভিড	-9.19076
▁পুরুষ	-9.19117
▁লকডাউন	-9.19174
▁বলছেন	-9.19199
▁ভাগ	-9.19273
▁পোশাক	-9.19407
▁নুরুল	-9.19409
▁০৯	-9.19438
▁ক্যামেরা	-9.19457
ভি	-9.19514
২৭	-9.19604
▁অসুস্থ	-9.1963
▁হোক	-9.19686
▁বলছে	-9.19686
▁সামগ্রী	-9.19699
▁এত	-9.1983
▁গবেষণা	-9.20242
–	-9.20294
▁জামিন	-9.20336
▁ট্রাক	-9.20433
▁রক্ষা	-9.20534
▁বীর	-9.20536
▁শ্রদ্ধা	-9.20554
▁প্রিয়	-9.20562
▁খানের	-9.20568
▁মতে	-9.20593
▁ইয়াবা	-9.20702
▁অপরাধ	-9.20833
টিতে	-9.20847
▁শিল্প	-9.20864
▁প্রশিক্ষণ	-9.20968
▁সেটি	-9.20971
▁সম্পূর্ণ	-9.21361
▁বেতন	-9.21372
▁পরিদর্শন	-9.21396
▁আবারও	-9.21419
▁টানা	-9.21578
▁যুব	-9.21606
▁চালায়	-9.21645
▁সঠিক	-9.21654
▁মানুষকে	-9.2167
▁আনন্দ	-9.21708
▁অনুমোদন	-9.21756
▁যুক্তরাষ্ট্র	-9.21772
০১	-9.21779
▁উদ্দেশ্যে	-9.21787
চ	-9.21838
পা	-9.21939
▁গ্রুপ	-9.21977
▁মাওলানা	-9.22018
▁কিছুটা	-9.22133
পি	-9.22296
▁নিষেধাজ্ঞা	-9.22391
▁খরচ	-9.22405
▁শাখার	-9.22405
▁এবারের	-9.22495
▁টিভি	-9.22583
▁প্রতিষ্ঠানের	-9.22588
▁পরিবেশ	-9.22743
▁বাধা	-9.22818
▁হামলায়	-9.22877
▁অনুষ্ঠানের	-9.23051
▁ছাত্রলীগ	-9.23056
▁রাষ্ট্রপতি	-9.23061
▁চূড়ান্ত	-9.23119
▁গ্রুপের	-9.23139
▁ঘরের	-9.2337
▁ধর্ষণের	-9.23428
▁আন্দোলন	-9.23552
▁রাজনীতি	-9.2361
▁চলমান	-9.23613
▁ব্যাট	-9.23661
▁নাগরিক	-9.23816
▁স্বীকার	-9.23829
▁মিছিল	-9.23849
▁কণ্ঠ	-9.23868
▁চিকিৎসার	-9.23899
▁দি	-9.23996
গুলোর	-9.24035
তি	-9.24154
▁অবশ্য	-9.24197
৫০	-9.24307
▁সিং	-9.24344
▁উক্ত	-9.24475
▁সা	-9.24503
▁নিয়ন্ত্রণে	-9.24522
▁সফর	-9.24531
▁চাকরি	-9.24586
▁হোসেনের	-9.24639
▁কিলোমিটার	-9.24733
২৯	-9.24777
কি	-9.24781
▁আলীর	-9.24791
▁জমি	-9.2497
▁উৎসব	-9.25064
▁নারায়ণগঞ্জ	-9.25088
▁ব্যক্তির	-9.25302
▁আক্রান্তের	-9.25347
ছেন	-9.25355
▁খোলা	-9.25369
ছ	-9.25384
▁উন্নত	-9.25384
▁কঠোর	-9.25515
▁বিন	-9.25583
▁আট	-9.25597
▁শ	-9.25638
▁করোনাভাইরাসে	-9.25644
▁প্রশ্নের	-9.25701
সভাপতি	-9.25716
▁নেয়ার	-9.25768
▁বিকাল	-9.25808
▁ট্রেন	-9.26003
▁এমনকি	-9.26027
▁ছুটি	-9.26217
▁ছবিটি	-9.26233
▁মিয়ার	-9.26332
▁জীবনের	-9.26337
▁এরই	-9.26495
▁রকম	-9.26525
▁গোলে	-9.26539
▁ডটকম	-9.2656
▁বিজ্ঞপ্তি	-9.26589
▁ব্যক্তিগত	-9.26639
▁শিক্ষার্থীরা	-9.26643
▁ঘটনাটি	-9.26667
▁অভিযুক্ত	-9.26685
মূলক	-9.26698
▁আনোয়ার	-9.26749
▁ল	-9.26791
০৭	-9.26827
▁বিশিষ্ট	-9.26907
▁রংপুর	-9.26923
▁আম	-9.2696
▁আমিন	-9.27035
▁ইত্যাদি	-9.27187
কৃত	-9.27236
▁বোর্ডের	-9.27236
▁হুমকি	-9.27251
▁দুর্নীতি	-9.27335
▁স্বাধীনতা	-9.27589
▁পারি	-9.27618
▁মুজিবুর	-9.27634
ড়	-9.27679
▁করোনাভাইরাসের	-9.27735
▁আঘাত	-9.27736
▁ফেসবুকে	-9.27744
▁রাজ্যের	-9.27815
▁কার্ড	-9.279
▁ক্ষতি	-9.27905
▁ইকবাল	-9.27963
▁রাস্তায়	-9.28039
▁স্থগিত	-9.28039
▁যাদের	-9.28182
এম	-9.28197
▁মানববন্ধন	-9.28241
▁দেব	-9.28255
▁খেলে	-9.28266
▁অ্যাপ	-9.28275
▁জনগণের	-9.28343
▁কা	-9.28381
০২	-9.28436
▁লেনদেন	-9.28544
▁থাকবেন	-9.28636
৪৫	-9.28673
৯	-9.28719
▁কত	-9.28726
▁কর	-9.28852
▁প্রভাব	-9.28885
▁পূর্বাহ্ন	-9.28903
▁প্রবাসী	-9.2912
▁ইসলামী	-9.29137
▁উপায়	-9.29214
▁জব্দ	-9.29217
▁নির্ধারণ	-9.2933
▁দিল	-9.29343
▁সপ্তাহে	-9.29352
▁দুর্ঘটনায়	-9.29451
▁গরম	-9.29626
▁জীবনে	-9.29727
খ	-9.29832
▁সফরে	-9.29864
▁০১	-9.29908
▁ফলাফল	-9.29971
▁অপর	-9.29985
▁কার্যকর	-9.29986
▁ছিলো	-9.29993
▁৩৫	-9.30019
▁তৃণমূল	-9.30089
▁এসআই	-9.30284
▁অবস্থিত	-9.3037
▁বিজয়	-9.3037
▁হ	-9.30407
▁পারেনি	-9.30416
▁সফল	-9.30426
▁আলাদা	-9.30537
▁আগামীকাল	-9.30584
▁লা	-9.3062
▁বিবৃতিতে	-9.30639
▁০৮	-9.30707
▁মাথা	-9.30883
▁অসহায়	-9.30887
▁এদের	-9.30963
▁সকলের	-9.30966
▁শান্তি	-9.31034
কালে	-9.31036
▁নাটক	-9.31044
▁ঐ	-9.31087
সে	-9.31107
▁সপ্তাহ	-9.31123
▁অধিদপ্তরের	-9.31209
▁মুক্ত	-9.3128
▁যৌন	-9.31313
▁একাদশ	-9.31369
▁মসজিদ	-9.31425
▁বাড়ছে	-9.31496
▁খারাপ	-9.31518
স্থ	-9.31556
▁হিন্দু	-9.31572
▁খুলে	-9.31629
▁আইনে	-9.31773
▁গ	-9.31787
▁অংশগ্রহণ	-9.3181
▁গ্যাস	-9.3184
▁তাদেরকে	-9.31863
▁ভাড়া	-9.31865
▁পছন্দ	-9.31879
▁আলমগীর	-9.31948
▁কাউন্সিলর	-9.31972
▁রাজ	-9.32124
▁সংঘর্ষে	-9.32267
▁ওষুধ	-9.32283
▁গোটা	-9.32316
ছি	-9.32479
▁মায়ের	-9.3248
▁টাইমস	-9.32571
▁মুখ্যমন্ত্রী	-9.32777
▁তাপমাত্রা	-9.32867
▁পরিচিত	-9.32946
▁চাপ	-9.33032
▁এন	-9.33055
▁অনলাইনে	-9.33113
▁প্রসঙ্গে	-9.33146
▁বাদী	-9.33382
▁ইন্টারনেট	-9.33395
▁প্রসঙ্গত	-9.33615
তেই	-9.33712
▁পদ	-9.33716
▁হা	-9.33732
▁পালিত	-9.338
▁ইমরান	-9.33992
▁মির্জা	-9.33998
▁গাজীপুর	-9.34042
▁কীভাবে	-9.3407
▁অধ্যক্ষ	-9.34106
▁কম্পিউটার	-9.34205
▁নদী	-9.34514
▁আত্মহত্যা	-9.34531
▁সিরিজের	-9.34536
▁নিখোঁজ	-9.34613
▁ত	-9.34684
▁করল	-9.34691
▁কক্সবাজার	-9.34704
▁শিশুর	-9.34746
▁ভোর	-9.34748
০৬	-9.34789
▁অত্যন্ত	-9.3479
▁সাংস্কৃতিক	-9.34831
▁শুটিং	-9.34884
▁ধান	-9.35022
▁যেকোনো	-9.35096
▁নিষিদ্ধ	-9.35113
▁ওয়েব	-9.35186
▁প্রকাশের	-9.35191
▁গোয়েন্দা	-9.35198
▁ওয়ার্ড	-9.35299
▁কর্মকর্তারা	-9.35343
▁শত	-9.35355
▁চালানো	-9.35368
▁ডেস্কঃ	-9.35406
▁জয়ের	-9.35523
▁মান	-9.3553
▁পড়েন	-9.3556
মে	-9.35628
▁পুত্র	-9.35742
▁প্রস্তুত	-9.35804
০৫	-9.35894
▁প্রক্রিয়া	-9.35915
মান	-9.35954
▁শক্তি	-9.35962
▁প্রতিরোধ	-9.36032
▁মূলত	-9.3608
▁হাই	-9.3611
▁কালো	-9.36138
▁জাহাঙ্গীর	-9.3614
▁পূর্ববর্তী	-9.36162
২০১৭	-9.36326
▁মাসুদ	-9.36339
▁হয়তো	-9.36399
▁তরুণ	-9.364
▁খুন	-9.3645
▁প্রমাণ	-9.36545
▁আদায়	-9.36637
▁ঘুরে	-9.36637
▁রাস্তা	-9.36649
▁টাঙ্গাইল	-9.36692
▁প্রতিবাদে	-9.36736
▁একমাত্র	-9.36777
▁ডাক	-9.36811
▁সত্যতা	-9.36818
▁উ	-9.37017
▁চরিত্রে	-9.37028
ীয়	-9.37098
▁মাঠ	-9.37136
▁এন্ড	-9.37242
▁ফখরুল	-9.37253
টোয়েন্টি	-9.37385
▁মু	-9.37411
▁কাপ	-9.3751
▁লঞ্চ	-9.37615
▁গাছ	-9.37685
▁আজাদ	-9.37755
▁বগুড়া	-9.37813
▁২০১৪	-9.37857
▁ময়মনসিংহ	-9.37902
▁সেলিম	-9.37924
▁ন	-9.38044
▁গুগল	-9.38235
শে	-9.38247
▁ভয়াবহ	-9.38435
▁নারীর	-9.38459
▁রি	-9.38488
▁চতুর্থ	-9.38593
▁আটকে	-9.38653
▁প্রেম	-9.38727
▁মামুন	-9.3874
▁ক্লাবের	-9.38743
▁জঙ্গি	-9.38812
গুলোতে	-9.3885
▁কঠিন	-9.38868
▁হস্তান্তর	-9.38952
▁রশিদ	-9.39018
▁জবাবে	-9.39018
▁মেশিন	-9.39051
▁বিল	-9.39055
▁নির্যাতন	-9.39132
▁ব্যবস্থাপনা	-9.39153
▁সরবরাহ	-9.39153
০৩	-9.39169
▁সতর্ক	-9.39173
▁মোটরসাইকেল	-9.39244
▁প্রকল্পের	-9.39404
▁কুষ্টিয়া	-9.39461
▁সিনেমার	-9.39608
▁কল্যাণ	-9.39642
▁রেল	-9.39708
▁ইতিহাস	-9.3971
▁ম্যাজিস্ট্রেট	-9.39712
▁পরিষ্কার	-9.39755
▁কেবল	-9.39791
▁বলিউড	-9.39791
▁ডিগ্রি	-9.39863
▁দাঁড়িয়েছে	-9.39889
▁ফেরার	-9.399
▁পাস	-9.39935
▁খাওয়া	-9.39945
▁অফ	-9.3997
▁নূর	-9.40028
▁বিজ্ঞাপন	-9.40064
▁ভাষা	-9.40291
▁একবার	-9.40303
▁শক্তিশালী	-9.40351
▁সেখান	-9.40365
রে	-9.40427
ড়া	-9.40477
০০০	-9.40546
▁রানা	-9.40611
▁দরকার	-9.40781
▁বললেন	-9.40816
▁বঙ্গবন্ধুর	-9.40862
▁মসজিদে	-9.4087
▁৩২	-9.40919
্স	-9.40945
▁আওয়ামীলীগের	-9.40985
▁নদীর	-9.41067
▁সংকট	-9.41243
▁০২	-9.41333
▁কালের	-9.41335
▁ভাইরাসের	-9.41404
▁যেসব	-9.41414
▁বিশাল	-9.41427
▁লাগে	-9.41484
▁মনোনয়ন	-9.41555
▁সোহেল	-9.41682
▁কোথাও	-9.41755
▁সমাধান	-9.41828
▁সমর্থন	-9.42109
▁শিশুদের	-9.42115
০৪	-9.42218
মন্ত্রী	-9.42312
▁আপনারা	-9.42418
▁উদযাপন	-9.42432
▁এল	-9.42432
▁করব	-9.42502
▁অর্থনৈতিক	-9.42585
▁চিত্র	-9.42597
▁অবশেষে	-9.42624
▁অতিথির	-9.42668
▁ফি	-9.42701
▁সবুজ	-9.42707
৩২	-9.42847
▁রাশিয়া	-9.42951
▁সমাবেশ	-9.43013
▁কংগ্রেস	-9.43017
▁আলো	-9.4303
▁মহান	-9.43053
▁ক্রিকেটার	-9.43062
▁থাকছে	-9.43152
▁স্থায়ী	-9.43197
▁বে	-9.43205
▁পরিচালিত	-9.43252
▁কল	-9.43289
▁বক্তব্যে	-9.43394
▁শুনানি	-9.43416
▁জে	-9.43432
▁দারুণ	-9.43437
▁রে	-9.43618
▁দেখার	-9.43632
▁যত	-9.43677
▁শতাধিক	-9.43697
▁নির্ধারিত	-9.43715
▁উৎপাদন	-9.43844
▁শাখা	-9.43871
▁নাই	-9.43987
স্ট	-9.44097
▁ওয়ানডে	-9.44126
▁বাবার	-9.4425
▁কোম্পানির	-9.44273
▁বিনামূল্যে	-9.44311
▁চোখ	-9.44419
নো	-9.44424
▁কেমন	-9.44445
▁শিল্পী	-9.44472
▁মুহাম্মদ	-9.44637
▁মুক্তির	-9.44674
▁বিশ্বকাপের	-9.44703
▁ছাত্রী	-9.44732
▁কৃষক	-9.44795
▁লিমিটেড	-9.44843
▁ইউনিট	-9.44905
▁জিতে	-9.44905
▁০৭	-9.44985
▁ওঠে	-9.45036
▁শো	-9.45041
▁ত্রাণ	-9.45074
▁০৬	-9.45103
▁খেতে	-9.45135
▁দেবেন	-9.45135
▁লড়াই	-9.45139
▁নগদ	-9.45173
▁মি	-9.45218
▁কিছুদিন	-9.45413
▁অবদান	-9.45434
▁সম্পদ	-9.45488
৩১	-9.4555
নগর	-9.45603
▁তীব্র	-9.45676
▁জেরে	-9.45679
থ	-9.45784
▁নিবন্ধ	-9.45835
▁চুল	-9.45846
অ	-9.46034
▁জন্মদিন	-9.46102
▁এনে	-9.46199
▁শরীরের	-9.46298
▁পূর্বাহ্ণ	-9.46303
▁সুমন	-9.46391
▁সংবাদের	-9.46485
▁বিপুল	-9.46517
▁৭০	-9.46594
ায়	-9.46714
▁আনতে	-9.46865
▁রাসেল	-9.46871
▁পরিস্থিতিতে	-9.46888
লেন	-9.46956
▁বিডি	-9.4698
▁টায়	-9.47018
▁নেতৃবৃন্দ	-9.47061
▁ডে	-9.47157
▁মিলে	-9.4731
▁শামীম	-9.47313
▁দেশটিতে	-9.47338
▁মহা	-9.47373
▁সিভিল	-9.47392
▁চুরি	-9.47556
▁সন্ত্রাসী	-9.47755
০৮	-9.47839
▁সাধারন	-9.47911
▁৪৫	-9.47997
▁কেন্দ্রের	-9.48115
▁ঘিরে	-9.48277
▁তুলনায়	-9.48337
▁একে	-9.48369
▁পারেননি	-9.48377
▁ভিন্ন	-9.48466
▁আইনের	-9.48479
▁মিডিয়ায়	-9.48638
▁কাল	-9.48715
▁বাবু	-9.48864
▁মমতা	-9.48871
▁পৃথিবীর	-9.48944
▁সাইফুল	-9.49039
▁ইমাম	-9.49089
▁ভবন	-9.49096
▁করেই	-9.49149
▁ভয়	-9.49288
▁উপদেষ্টা	-9.49566
▁ইরানের	-9.49576
▁সক্ষম	-9.49591
▁শোনা	-9.49617
▁নগরীর	-9.49654
▁মৃতের	-9.49683
▁সাতক্ষীরা	-9.49702
▁আরেক	-9.49708
▁যাত্রা	-9.49787
▁ধাক্কা	-9.50039
▁দাঁড়িয়ে	-9.50063
ব্রাহ্মণবাড়িয়া	-9.50125
▁আল্লাহ	-9.50147
▁নামাজ	-9.50222
০৯	-9.5036
▁নগর	-9.50449
▁গরু	-9.50486
▁নিজেই	-9.50505
▁টাকায়	-9.50676
▁ঘটনাস্থল	-9.50748
▁যেভাবে	-9.50785
▁০৫	-9.50817
▁সালমান	-9.5094
▁ফোনে	-9.50968
▁কবি	-9.50968
৩৮	-9.50996
▁রোগীর	-9.51017
▁৮০	-9.51051
▁মুহূর্তে	-9.51178
▁ফেরত	-9.51248
ছিল	-9.51252
▁টার	-9.51308
▁এশিয়া	-9.51385
▁পূর্ণ	-9.51407
▁এলাকাবাসী	-9.51414
▁ফাইনালে	-9.51442
▁সাদা	-9.51762
▁বিকালে	-9.51838
গণ	-9.5195
েও	-9.51967
▁প্রচ্ছদ	-9.52237
▁বাংলার	-9.5226
তো	-9.52391
▁প্রেসক্লাবের	-9.52481
▁স্কুলের	-9.52628
▁করলেও	-9.5271
▁কু	-9.52717
৫৫	-9.52771
▁তোলা	-9.52816
▁খাতুন	-9.52824
▁বিচারক	-9.52927
▁জোর	-9.52958
▁ডাক্তার	-9.52967
▁দূরে	-9.53002
▁পানিতে	-9.53031
▁চিঠি	-9.53061
▁চিন্তা	-9.53142
▁নুর	-9.53155
▁চর	-9.53196
▁টু	-9.53222
▁ওয়ার্ডের	-9.53255
▁কন্যা	-9.53305
▁যুদ্ধ	-9.53309
▁ধর্মীয়	-9.53332
শা	-9.53363
▁বিভাগীয়	-9.53383
▁থাকুন	-9.53464
নের	-9.53508
▁মাধ্যম	-9.5352
▁স্টেডিয়ামে	-9.53572
▁চারটি	-9.53583
▁বাণিজ্য	-9.53606
▁অপেক্ষা	-9.53758
▁তারিখে	-9.53769
ফা	-9.53771
▁বোমা	-9.53817
▁কাটা	-9.53927
▁প্রচুর	-9.5405
▁এএম	-9.54105
▁বিশ্বে	-9.54221
▁ধরণের	-9.54266
▁ঋণ	-9.54333
▁স্মৃতি	-9.54433
▁বাস্তবায়ন	-9.54479
▁সড়কের	-9.54517
▁নির্দিষ্ট	-9.54551
হা	-9.54578
▁সরকারী	-9.54613
প্র	-9.54669
▁আসনে	-9.54791
▁নরেন্দ্র	-9.54801
▁ভি	-9.54911
▁শ্রেণির	-9.55008
▁টেলিভিশন	-9.55046
▁রাখে	-9.55092
▁তুমি	-9.55121
▁ওজন	-9.55123
▁খুশি	-9.5513
▁প্রকৌশলী	-9.55151
▁পরের	-9.55161
▁ইং	-9.55187
▁ওভারে	-9.55189
▁খেয়ে	-9.5521
▁বাড়িয়ে	-9.55262
▁মিজানুর	-9.55313
▁কখনো	-9.55386
গা	-9.55421
▁একসঙ্গে	-9.55598
▁হাইকোর্ট	-9.55633
▁ফিরিয়ে	-9.55756
▁ইউ	-9.55809
▁কমান্ডার	-9.55855
▁বিজিবি	-9.55868
▁তালুকদার	-9.55925
▁ধীরে	-9.55931
▁মোস্তফা	-9.55939
▁রাখুন	-9.55976
▁সংঘর্ষ	-9.56263
▁সম্পাদনা	-9.56373
▁কো	-9.5638
▁ময়নাতদন্ত	-9.56427
▁পার্টি	-9.56463
▁নির্বাচনী	-9.56464
▁চাহিদা	-9.56475
উ	-9.56484
▁সড়কে	-9.56498
▁কার্যালয়	-9.56504
▁০৩	-9.56614
▁কর্মরত	-9.56629
▁নামক	-9.56791
▁সন্তানের	-9.56824
▁০৪	-9.56852
▁লে	-9.5686
▁মিলিয়ে	-9.56867
▁চ্যাম্পিয়ন	-9.56901
▁জানাতে	-9.56946
▁স্থাপন	-9.5696
▁কলকাতার	-9.57254
▁নেতৃত্ব	-9.57314
▁সারাদেশে	-9.57373
▁কাউকে	-9.57435
▁রফিকুল	-9.57446
▁যাবেন	-9.57467
▁মহাপরিচালক	-9.57515
▁বুঝতে	-9.57624
▁আশঙ্কা	-9.5766
▁বজায়	-9.57738
▁সদস্যের	-9.57764
▁আসন	-9.57797
▁পেঁয়াজ	-9.57895
▁নায়িকা	-9.58011
▁গো	-9.58021
▁স্টেশন	-9.58065
▁প্রেরণ	-9.58065
▁চ্যানেল	-9.58108
▁অফিসে	-9.58156
দি	-9.58311
▁মর্গে	-9.58349
▁পরই	-9.58379
▁বন	-9.58473
▁জানেন	-9.58574
▁ঝিনাইদহ	-9.58605
▁নন	-9.58635
▁রাশিয়ার	-9.58646
▁আমির	-9.5874
▁কালাম	-9.58864
▁মেডিক্যাল	-9.58911
▁আপিল	-9.58919
▁দায়	-9.59055
▁গুরুত্ব	-9.59083
▁কমিশনের	-9.5913
▁হবেন	-9.5916
▁পড়ার	-9.59188
▁নষ্ট	-9.59189
▁মেলা	-9.59198
▁বন্দর	-9.59235
▁আকাশ	-9.59239
▁চেয়ারপারসন	-9.59272
▁আধুনিক	-9.59278
▁জাল	-9.59294
▁লিখিত	-9.59373
▁সুলতানা	-9.59403
▁শব্দ	-9.59405
▁নিউ	-9.59414
▁তুলতে	-9.59428
▁ঘোষ	-9.59533
▁অল্প	-9.59584
▁যুবকের	-9.59655
▁আউট	-9.5984
▁২০০	-9.59935
▁বিকল্প	-9.5999
▁কখনও	-9.59993
▁জাকির	-9.60003
▁গানের	-9.60009
িয়ে	-9.60102
▁ব্যবহৃত	-9.60125
▁পূজা	-9.60169
▁ঝুঁকি	-9.60183
▁রক্ত	-9.60183
▁যশোর	-9.60201
▁পদ্ধতি	-9.60211
▁পারিবারিক	-9.60243
▁পাশের	-9.60373
হি	-9.60453
▁গেলেন	-9.60511
▁ফ্রি	-9.60524
▁মেসি	-9.60551
▁ধারা	-9.60608
▁রাজ্যে	-9.60627
▁বিদেশি	-9.60658
▁ভ্যাকসিন	-9.6074
▁কমপ্লেক্সে	-9.6076
▁বিদায়	-9.60797
▁সার্বিক	-9.60889
▁সপ্তাহের	-9.60935
ইন	-9.60953
▁ভাইরাসে	-9.60967
▁কার	-9.60978
▁বাজেট	-9.60985
▁প্রাক্তন	-9.60988
▁পর্ব	-9.60996
▁সরিয়ে	-9.61009
▁উভয়	-9.61024
▁ওয়েবসাইট	-9.61062
▁কারা	-9.61094
▁পেছনে	-9.61122
▁মৃত্যুতে	-9.61152
▁শাকিব	-9.61241
▁দেখিয়ে	-9.61283
▁নিকট	-9.6132
▁ফাইল	-9.61331
▁জুড়ে	-9.61351
▁ব্রিটিশ	-9.61379
পররাষ্ট্রমন্ত্রী	-9.61505
▁সত্য	-9.61517
▁লেখক	-9.61578
সের	-9.61615
▁কার্যালয়ের	-9.6162
▁সভাপতিত্ব	-9.61734
▁এইচ	-9.61843
▁চোখে	-9.61858
গঞ্জ	-9.61862
▁যুবলীগের	-9.61889
▁টিকিট	-9.61969
▁ঈদুল	-9.62044
▁সকলকে	-9.62052
▁দর	-9.6206
▁উদ্বোধনী	-9.62095
▁স্পোর্টস	-9.62196
▁ঢুকে	-9.62313
▁আহবায়ক	-9.62314
▁নাজমুল	-9.62364
▁সার্ভিসের	-9.62376
▁মেয়ের	-9.62384
▁পঠিত	-9.62432
▁পরিণত	-9.62499
উল	-9.62537
▁ধ্বংস	-9.62573
▁বিজয়ী	-9.62582
▁লাগবে	-9.62628
▁সমস্যার	-9.6265
▁মিলিয়ন	-9.62682
▁নেতারা	-9.62796
▁জাহিদ	-9.62901
▁অঞ্চলে	-9.62938
▁চেক	-9.62986
▁সচেতন	-9.63002
▁খবরে	-9.63041
▁সোনার	-9.63099
▁উপরে	-9.63118
▁কারখানা	-9.63123
▁বিশ্বকাপে	-9.63188
▁কিশোর	-9.6319
বো	-9.63206
▁জ্ঞান	-9.63379
▁সেতু	-9.63398
▁সাহা	-9.63443
▁ক্ষতিগ্রস্ত	-9.63496
▁ব্যস্ত	-9.63598
▁পরবর্তীতে	-9.63617
▁প্রতিরোধে	-9.63623
▁সেন্টার	-9.6372
▁স্মার্টফোন	-9.63751
▁বদলে	-9.63839
▁জেল	-9.63842
▁খন্দকার	-9.63861
▁আসন্ন	-9.63864
▁নদীতে	-9.63961
▁সীমান্ত	-9.63973
▁এসএসসি	-9.63982
হীন	-9.64015
▁মাশরাফি	-9.64102
▁কিছুই	-9.64111
দিন	-9.64112
▁সংলগ্ন	-9.6413
▁আহ্বায়ক	-9.64133
▁সংসদের	-9.64145
▁অনুসারে	-9.64186
রফে	-9.64274
▁্যাব	-9.6429
▁শুরুর	-9.64295
শি	-9.64301
▁খাতে	-9.64392
▁অধিদপ্তর	-9.64465
▁এজন্য	-9.64535
▁বেরিয়ে	-9.64556
▁দিয়েছিলেন	-9.64637
▁প্রতিযোগিতা	-9.64704
▁ফুট	-9.64714
▁ধরেই	-9.64839
▁ইসলামিক	-9.64932
এস	-9.64959
▁তামিম	-9.65003
▁নির্মাতা	-9.65007
▁চরম	-9.65182
▁পৃথক	-9.65356
▁চামচ	-9.65409
▁মোল্লা	-9.65467
▁লেগে	-9.65548
▁ফাঁস	-9.65568
▁দেড়	-9.65625
▁লিটন	-9.6566
▁করবো	-9.65674
▁দখল	-9.65743
▁রহিম	-9.65743
▁নৌকা	-9.65767
ান	-9.65827
▁অ্যাডভোকেট	-9.65989
▁পড়েছেন	-9.66131
▁কর্তৃক	-9.66155
▁পিস	-9.66171
▁ঘন্টা	-9.66284
▁গেম	-9.66356
▁অতি	-9.66449
▁লাইন	-9.66671
▁জুটি	-9.66709
▁রাস্তার	-9.66811
▁কোথায়	-9.66838
▁ফিচার	-9.66908
▁বাসা	-9.66989
য়ার	-9.67014
▁ত্যাগ	-9.67099
ীর	-9.67276
▁শুধুমাত্র	-9.67277
▁খোঁজ	-9.67316
দার	-9.67507
▁কক্ষে	-9.67572
▁পাঠ	-9.67596
▁হচ্ছেন	-9.67744
▁সহযোগী	-9.67793
▁মাহবুব	-9.67804
▁করতেন	-9.67824
▁দলকে	-9.67856
▁ঠিকানা	-9.67901
▁ভোরে	-9.67926
▁চট্টগ্রামের	-9.67947
▁ওয়া	-9.67955
▁যৌথ	-9.67989
▁বিমানবন্দরে	-9.6806
▁বাধ্য	-9.68067
▁প্রশংসা	-9.68153
▁নজর	-9.6816
▁সাম্প্রতিক	-9.68197
▁স্বরাষ্ট্র	-9.68201
▁ব্যবধানে	-9.68298
▁জনাব	-9.68332
▁জানালেন	-9.6835
▁ইতিমধ্যে	-9.68498
▁প্রতিনিধিঃ	-9.68572
▁রা	-9.68619
▁তারেক	-9.6862
▁৯০	-9.68683
▁নিজে	-9.68692
▁উইকেটে	-9.68725
▁চাঁপাইনবাবগঞ্জ	-9.68783
▁গাড়ির	-9.68804
স্	-9.68823
▁জানুয়ারী	-9.68943
৩৪	-9.6895
▁অফিসের	-9.68953
▁প্রাপ্ত	-9.69011
▁ওয়েস্ট	-9.69045
▁অ্যা	-9.69061
▁৫০০	-9.69065
▁দাখিল	-9.69224
▁জানি	-9.69229
▁বিপরীতে	-9.69356
▁রূপ	-9.69407
▁তিনজন	-9.69447
▁পেরে	-9.69461
▁সংযোগ	-9.69573
৩৬	-9.69763
▁মসজিদের	-9.69774
▁হামিদ	-9.698
▁বরং	-9.69833
▁জো	-9.69839
▁ভবনের	-9.69886
▁বিশেষজ্ঞ	-9.6993
▁অস্ট্রেলিয়া	-9.69971
কো	-9.70008
▁আবেদনের	-9.70019
▁বন্দ্যোপাধ্যায়	-9.7004
▁দৃশ্য	-9.70058
সু	-9.70096
▁দাফন	-9.70155
▁টেবিল	-9.70193
▁ব্যবহারের	-9.7022
▁আহসান	-9.70301
▁দান	-9.7036
▁পতাকা	-9.7037
▁সুপ্রিম	-9.70401
▁৩৩	-9.7041
▁নির্মিত	-9.70498
৪২	-9.70688
▁সার্জন	-9.70735
▁পরিদর্শক	-9.70776
বাংলাদেশ	-9.70789
▁ইংল্যান্ড	-9.70791
▁যুবলীগ	-9.70847
▁সাংসদ	-9.70961
ভিত্তিক	-9.71072
▁ইফতার	-9.71135
▁বিরাট	-9.71145
▁বক্তারা	-9.71179
▁তোমার	-9.71184
▁পূরণ	-9.71196
কাল	-9.71268
▁শরীর	-9.71306
▁শ্রী	-9.71375
▁লি	-9.71423
▁আসছেন	-9.71438
▁অভিজ্ঞতা	-9.71471
▁নিয়েই	-9.71478
▁ঘুম	-9.71569
▁উদ্দেশে	-9.7157
▁তেমন	-9.71589
▁ভ্রাম্যমাণ	-9.71609
▁আশ্রয়	-9.71619
▁পেলে	-9.71646
▁জনে	-9.71671
মো	-9.71675
▁ম্যানেজার	-9.71726
▁ফ্লাইট	-9.71763
▁আলোচনায়	-9.71765
▁প্রথমবারের	-9.71849
▁হোটেল	-9.71934
▁আমদানি	-9.72058
▁আহতদের	-9.72337
▁দমন	-9.72384
▁পুড়ে	-9.72397
▁অঞ্চলের	-9.72522
▁মিটার	-9.72561
▁নারীদের	-9.72569
ুন	-9.72682
▁জবাব	-9.72752
▁আব্দুল্লাহ	-9.72789
▁বোন	-9.72843
▁কিনতে	-9.72854
▁কারো	-9.72905
▁প্রতিষ্ঠা	-9.72924
▁শুনে	-9.72957
▁আল্লাহর	-9.73104
▁দুধ	-9.73126
নী	-9.73229
▁ঝড়	-9.73275
▁কর্মীদের	-9.73303
▁পাচ্ছে	-9.73357
▁ইতোমধ্যে	-9.73472
▁পররাষ্ট্র	-9.73537
▁ডুবে	-9.73541
▁মতামত	-9.73578
▁সংযুক্ত	-9.73586
কালীন	-9.73615
▁ভ্রমণ	-9.73728
▁ফাইনাল	-9.73741
▁মেহেদী	-9.73741
▁মতবিনিময়	-9.73776
▁অফার	-9.73825
এই	-9.73829
▁বলেই	-9.74001
ছিলেন	-9.74093
▁ধারণ	-9.74143
▁আলহাজ্ব	-9.74144
▁পিছিয়ে	-9.74148
▁এভাবে	-9.74152
▁ভিড়	-9.74181
▁মিথ্যা	-9.74242
▁ভাষায়	-9.74255
▁কর্ম	-9.74275
▁যুক্তরাষ্ট্রে	-9.74291
▁ডিম	-9.74292
▁সংস্কৃতি	-9.74344
▁সমাজের	-9.74367
▁অ্যাকাউন্ট	-9.74419
▁সাইট	-9.74468
▁বিক্রির	-9.74477
▁মানসিক	-9.74568
▁বিজেপির	-9.74639
▁দায়ে	-9.74693
▁ট্রাম্পের	-9.74774
▁লিগ	-9.7492
▁সহজেই	-9.74939
▁ইউনিয়নে	-9.75007
▁কর্মীরা	-9.75041
▁ভেতরে	-9.75064
▁হয়েছিলেন	-9.75071
▁বঙ্গাব্দ	-9.75105
▁টন	-9.75163
৩৩	-9.75191
▁৩৬	-9.75245
▁শাস্তি	-9.75247
▁বোতল	-9.75363
▁খেলোয়াড়	-9.75401
▁ঐতিহাসিক	-9.75407
▁হজ	-9.75469
▁রাজা	-9.75548
▁হোসাইন	-9.75589
▁মানের	-9.75631
▁ফ	-9.75657
▁মানে	-9.75687
▁সিস্টেম	-9.75709
▁স্বাগত	-9.75737
▁দেহ	-9.75771
▁তদন্তের	-9.75841
▁রেজা	-9.75943
▁তৈরির	-9.75961
ষ	-9.75962
▁আপাতত	-9.76016
▁অবস্থার	-9.76082
▁পাল	-9.76118
▁আরেকটি	-9.76125
▁আমেরিকার	-9.76163
▁স্ত্রীর	-9.76167
▁শ্রমিকদের	-9.76186
▁কারণেই	-9.7621
▁এয়ার	-9.76294
▁পেলেন	-9.76367
▁উপাদান	-9.76382
▁রুহুল	-9.76395
▁রুবেল	-9.76414
▁আমেরিকা	-9.76432
▁দেখানো	-9.76479
▁চাঁদ	-9.76539
▁পাশ	-9.76567
▁কর্তৃপক্ষের	-9.76619
রো	-9.76625
▁মুখপাত্র	-9.76627
▁ঘটনাস্থলেই	-9.76641
▁২০১৩	-9.76717
▁৩৭	-9.76719
▁প্রত্যাহার	-9.76747
▁মানব	-9.76776
▁হিসাব	-9.76836
▁পজিটিভ	-9.76872
▁৪৮	-9.76887
▁সংরক্ষণ	-9.76909
▁গলায়	-9.76965
▁ব্যর্থ	-9.76967
▁মিরপুর	-9.76972
▁গণ	-9.76975
▁পুলিশকে	-9.77039
৪৮	-9.77044
▁মিলনায়তনে	-9.77107
▁নাসির	-9.77143
বাড়ি	-9.77183
▁মেয়াদ	-9.77273
▁দুর্দান্ত	-9.77303
▁ডোনাল্ড	-9.77303
▁ব্যয়	-9.77334
▁সমিতি	-9.77341
▁সিনেমায়	-9.77341
▁সিরিজে	-9.77452
▁রাম	-9.77484
▁ছাড়াই	-9.77549
▁শিরোপা	-9.77554
▁শীর্ষে	-9.77559
▁স্বাস্থ্যবিধি	-9.77622
▁আন্দোলনের	-9.77822
▁আনার	-9.77866
▁কারাদণ্ড	-9.77868
▁ইতিমধ্যেই	-9.77889
ভা	-9.77889
▁শেরপুর	-9.77898
তেও	-9.77955
টাই	-9.77983
▁গুলো	-9.77984
▁বিনা	-9.78006
▁স্বামীর	-9.7803
▁বার্ষিক	-9.78031
▁দশ	-9.78046
▁অস্ট্রেলিয়ার	-9.7813
▁হেরে	-9.7824
▁দোকানে	-9.78268
▁জ	-9.78268
▁আসামী	-9.78334
▁নীতি	-9.78418
▁রেজাউল	-9.78428
ুজ্জামান	-9.78461
▁বিদেশ	-9.78504
▁সোনা	-9.78508
▁দর্শক	-9.78516
▁জা	-9.78522
▁দিচ্ছেন	-9.7853
▁কোর্ট	-9.78551
▁চ্যালেঞ্জ	-9.78662
▁গিয়েছিল	-9.78668
▁মৎস্য	-9.78671
▁ভবনে	-9.78698
▁করেনি	-9.78788
▁আছি	-9.78792
▁প্রফেসর	-9.78796
▁৩৪	-9.78814
▁খাওয়ার	-9.78892
গো	-9.78921
▁বরাদ্দ	-9.78922
▁চ	-9.7894
▁বৃষ্টির	-9.78964
গুলির	-9.79028
▁প্রতিরক্ষা	-9.79057
▁কর্মকর্তাদের	-9.79092
▁কমেছে	-9.79143
▁শপথ	-9.79245
▁ভালোবাসা	-9.79252
▁আহবান	-9.793
▁বলেছে	-9.793
▁মহাসড়কের	-9.79354
▁ভূমি	-9.79369
▁স্কুলে	-9.79374
▁প্রকাশ্যে	-9.79383
▁সালাম	-9.79417
▁সমালোচনা	-9.79476
▁অবরোধ	-9.79482
▁বলিউডের	-9.79542
▁তথা	-9.79556
▁আদর্শ	-9.79593
য	-9.79615
▁সংগীত	-9.79618
▁বাজারের	-9.79635
▁হতো	-9.79785
▁পৌরসভা	-9.79802
টে	-9.79814
জে	-9.79826
▁গায়ে	-9.79885
▁ওয়েবসাইটে	-9.79907
৩৯	-9.79971
▁ছাড়	-9.80091
▁পদ্মা	-9.80108
▁সামান্য	-9.80123
▁বসবাস	-9.8027
টো	-9.80363
▁পানির	-9.80385
নার	-9.80386
);	-9.80412
▁হালকা	-9.8045
▁পক্ষের	-9.80473
▁সার	-9.80484
▁দূরত্ব	-9.80571
▁ইংরেজি	-9.80623
▁নেতাদের	-9.8066
কু	-9.80662
▁নব	-9.80702
▁শুরুতে	-9.80703
▁সম্মান	-9.80748
▁ডেঙ্গু	-9.80774
▁আলি	-9.80788
▁পয়সা	-9.80981
▁স্ব	-9.81037
মু	-9.81141
বাংলা	-9.81153
▁টাইমস্	-9.81153
▁বেঁচে	-9.81207
▁প্রতিষ্ঠাতা	-9.81272
▁পঞ্চম	-9.81325
▁কবিতা	-9.81341
▁টাঙ্গাইলের	-9.81391
▁অন	-9.81399
▁আসাদুজ্জামান	-9.81402
গত	-9.81426
▁উপসর্গ	-9.81464
▁আবদু	-9.81503
▁গা	-9.81652
▁মিল	-9.81695
▁দফায়	-9.8203
▁আগ্রহী	-9.82091
▁কয়েকদিন	-9.82133
লু	-9.82187
▁সীমান্তে	-9.82283
৫৯	-9.82432
▁মুজিব	-9.82475
▁সাগর	-9.82517
▁চলতে	-9.82535
▁সমান	-9.82611
▁ইনিংস	-9.82629
▁কারনে	-9.82682
▁ভিটামিন	-9.82695
সমূহ	-9.82719
▁নিবন্ধন	-9.82835
▁দিবাগত	-9.82891
▁নীল	-9.82903
▁কলেজে	-9.82938
▁সাধারণত	-9.8297
▁জিবি	-9.82975
▁সুরক্ষা	-9.82995
েন	-9.83
▁দিল্লি	-9.83024
৪৭	-9.83039
৩৭	-9.83053
৪৪	-9.83181
▁পরিস্থিতির	-9.83189
▁পাক	-9.83228
▁আবারো	-9.83327
আই	-9.83372
▁অথচ	-9.83415
▁প্রিন্ট	-9.83445
▁রোড	-9.83515
▁আলোচিত	-9.83599
▁কর্মসূচির	-9.83618
▁দে	-9.8364
▁সিলেটের	-9.83708
▁সুর	-9.83713
▁সাড়া	-9.83759
▁শাহরুখ	-9.83816
▁মাদ্রাসা	-9.83824
▁জামাল	-9.83854
▁সন্ধান	-9.83928
▁একদিন	-9.83956
▁এসেছেন	-9.83969
▁বাবুল	-9.8402
▁প্রতিবন্ধী	-9.84094
৫২	-9.84098
▁প্রিমিয়ার	-9.84138
▁দপ্তর	-9.84197
▁নম্বরে	-9.84198
▁কর্তব্যরত	-9.84271
▁ন্যাশনাল	-9.84491
▁জন্যই	-9.84527
▁শরীফ	-9.84593
▁কামরুল	-9.84604
▁কথায়	-9.84643
▁বাড়ানো	-9.84656
গামী	-9.84712
▁চক্রবর্তী	-9.84742
▁উদ্দেশ্য	-9.84767
▁সাহিত্য	-9.84798
▁দেখেন	-9.8485
▁প্রেমের	-9.84894
▁উন্নয়নের	-9.84927
▁রাহুল	-9.8496
▁প্রকার	-9.84972
▁৫৫	-9.8501
▁রাতের	-9.85057
▁রাজি	-9.85117
▁বলেছিলেন	-9.85183
▁জিজ্ঞাসা	-9.85197
▁সমাবেশে	-9.85229
▁মনির	-9.85318
▁পলাতক	-9.85336
▁চট্টগ্রামে	-9.85384
▁মিস	-9.85427
েল	-9.85439
৫৭	-9.85466
▁আন	-9.85527
▁কুপিয়ে	-9.85542
▁জড়িয়ে	-9.85579
▁স্পষ্ট	-9.85619
▁সাফল্য	-9.85627
▁পরেই	-9.85697
৪৩	-9.85754
▁বৃদ্ধির	-9.8581
▁স্বাক্ষরিত	-9.85822
কেও	-9.8597
▁তম	-9.86039
▁০	-9.86051
▁ব্যাটারি	-9.86096
▁পরিচালনায়	-9.86112
▁সেনাবাহিনীর	-9.86124
▁মানবাধিকার	-9.86142
▁গঠিত	-9.86154
▁স্বাধীন	-9.86156
▁ইরান	-9.86188
▁ডাঃ	-9.86249
▁রস	-9.86293
▁দুজন	-9.86312
▁বাসের	-9.86342
▁মাদকদ্রব্য	-9.86346
▁উপস্থিতি	-9.86483
▁মিলন	-9.86486
▁ফর	-9.86493
▁জাফর	-9.86581
নিউজ	-9.86679
ক্স	-9.86724
▁পাচ্ছেন	-9.86847
▁মাংস	-9.86894
▁হযরত	-9.86903
▁অভিষেক	-9.86923
▁সংবাদমাধ্যম	-9.86956
▁সাব	-9.86986
▁ইন্টারন্যাশনাল	-9.8711
▁অবনতি	-9.87227
▁আওয়ার	-9.87287
▁বাড়তে	-9.87317
▁হারুন	-9.87362
৫৩	-9.87433
▁রং	-9.87452
▁লাগিয়ে	-9.87499
▁ফোনের	-9.87526
িন	-9.87586
▁বেছে	-9.87595
▁৩৮	-9.87711
▁যাওয়ায়	-9.87802
▁ব্যথা	-9.87835
▁প্রতিযোগিতায়	-9.8786
▁অপু	-9.87936
▁লাইফ	-9.88004
▁অসংখ্য	-9.88063
▁উঠতে	-9.88066
▁১১টার	-9.88078
▁ইউটিউবে	-9.88088
▁গেলেও	-9.88108
ম্যান	-9.8825
▁ব্রাজিল	-9.88407
▁এটাই	-9.88501
বেন	-9.88515
▁আঞ্চলিক	-9.8869
▁আইডি	-9.88735
▁কষ্ট	-9.88737
▁ঃঃ	-9.88827
▁ওমর	-9.88918
৫৬	-9.88923
▁পরিশোধ	-9.88998
▁মাল	-9.89003
▁গাছের	-9.89022
▁অধীনে	-9.8908
▁স্বীকৃতি	-9.89132
▁দফা	-9.89233
▁আব্দুস	-9.8925
▁সংস্করণ	-9.89255
▁অপারেশন	-9.89265
তলা	-9.89269
▁মিষ্টি	-9.89276
▁রোহিঙ্গাদের	-9.893
▁করলো	-9.893
▁জজ	-9.89335
▁মাত্রা	-9.89357
▁রাষ্ট্রীয়	-9.89511
▁ঘণ্টার	-9.89542
▁ভোটার	-9.89635
৫৮	-9.89636
▁সিএনজি	-9.89703
▁পে	-9.8971
▁নৌ	-9.89725
▁হলুদ	-9.89729
▁এক্স	-9.89802
▁মাহফিল	-9.8986
▁গ্রহন	-9.89867
▁নেবে	-9.89957
টিকে	-9.89985
▁রেখেছে	-9.89994
▁চীনা	-9.9005
▁খাগড়াছড়ি	-9.90061
▁বাঙালি	-9.90065
▁বেঁধে	-9.90074
▁পুরোপুরি	-9.90133
▁পূর্বে	-9.90153
▁ইন্ডিয়া	-9.9019
▁হু	-9.90205
▁আরিফ	-9.90208
▁রমজান	-9.90221
▁যাক	-9.90249
▁রাজ্জাক	-9.90273
▁হাদিস	-9.9028
▁ছেলের	-9.90331
▁সেনাবাহিনী	-9.90375
▁বিবাহ	-9.90429
▁পর্যায়ের	-9.90474
▁মাটি	-9.90569
▁প্রাকৃতিক	-9.90587
▁১১টায়	-9.90643
▁পুনরায়	-9.90697
▁উল্লাহ	-9.90699
▁মেয়েদের	-9.90766
▁স্টার	-9.90769
▁ব্যাটসম্যান	-9.90776
▁দিনাজপুর	-9.90891
▁ঘূর্ণিঝড়	-9.90892
▁সক্রিয়	-9.90913
▁শাহজালাল	-9.9098
▁অভিনন্দন	-9.91049
▁অধিকাংশ	-9.91122
▁কাপুর	-9.91132
▁নোট	-9.91152
▁বিনিয়োগ	-9.91176
▁দাবী	-9.91207
▁মানবিক	-9.91222
▁উন্নতি	-9.91251
▁শফিকুল	-9.91273
▁গণমাধ্যম	-9.91273
▁মাটিতে	-9.91288
৪১	-9.91297
▁আক্রমণ	-9.91335
▁সেখানেই	-9.9136
পত্র	-9.91365
▁ব্লগ	-9.91401
▁হাট	-9.91422
▁ক্লাস	-9.91499
▁ব্যক্তিকে	-9.91509
▁খ	-9.91613
▁ধুয়ে	-9.91694
▁জাহান	-9.91751
▁ট্রাস্ট	-9.91784
▁চোখের	-9.91812
▁মাস্টার	-9.91819
▁পুরনো	-9.91835
▁মারধর	-9.91921
▁যাচাই	-9.91969
▁প্রদর্শন	-9.91981
৪৯	-9.91982
▁পাঠান	-9.92068
▁পাবনা	-9.9207
▁চিকিৎসকরা	-9.92086
হার	-9.92158
▁আশরাফুল	-9.92163
▁ছ	-9.92182
▁সেগুলো	-9.92194
▁বুক	-9.922
▁মোড়	-9.92214
.)	-9.92227
▁করছিলেন	-9.92232
▁সং	-9.92251
▁উদ্দীন	-9.92264
▁সম	-9.92352
▁সান	-9.92401
▁আগেও	-9.9243
▁ট্রেনের	-9.92436
▁পয়েন্টে	-9.92457
▁ভিডিওটি	-9.92502
▁নায়ক	-9.92588
▁অন্তর্ভুক্ত	-9.92675
▁কমপক্ষে	-9.9277
▁টুইট	-9.92775
যুক্ত	-9.92808
▁ডেকে	-9.92845
▁জনগণ	-9.92889
▁ডিবি	-9.92904
▁আজিজ	-9.92959
▁সুলতান	-9.92992
▁অর্থমন্ত্রী	-9.93017
▁তল্লাশি	-9.93054
▁পাঠানোর	-9.93137
▁তরফে	-9.93184
▁বিমানবন্দর	-9.93246
▁জিনিস	-9.93271
▁রিয়াল	-9.93332
▁ফাউন্ডেশন	-9.93373
▁ক্যাম্প	-9.93389
▁পরিবারকে	-9.93395
▁এফ	-9.93434
▁নেতাকর্মীরা	-9.93446
▁মেম্বার	-9.9345
▁ধরতে	-9.93459
৪৬	-9.93511
ৎ	-9.93607
▁আসর	-9.93653
▁যাত্রীদের	-9.93662
▁যিনি	-9.93709
▁রাষ্ট্র	-9.93771
▁প্রয়োজনে	-9.93843
▁শহিদুল	-9.93854
জু	-9.93876
▁পু	-9.93937
▁রেড	-9.93981
▁তোলার	-9.94034
▁ইচ্ছা	-9.94075
▁স্টক	-9.94091
▁অর্থনীতি	-9.94114
▁ত্বকের	-9.94114
▁সহযোগিতায়	-9.9415
▁বড়ুয়া	-9.94171
▁যমুনা	-9.94268
▁আবাসিক	-9.94292
▁শূন্য	-9.9433
লী	-9.94386
▁সম্পর্কিত	-9.94425
▁সংবাদটি	-9.94437
▁নিচের	-9.94444
▁সংবাদদাতা	-9.9448
▁করেননি	-9.94512
▁শিক্ষামন্ত্রী	-9.94527
▁টেস্টে	-9.94569
▁মহামারি	-9.94584
▁উত্তোলন	-9.94595
▁বেশিরভাগ	-9.94625
▁২টি	-9.94696
▁ভিডিওতে	-9.94703
▁চাঁদপুর	-9.94706
▁পরিষেবা	-9.94714
▁মীর	-9.94767
▁সর্বনিম্ন	-9.9495
▁বিখ্যাত	-9.94956
▁সংসদে	-9.94962
▁একথা	-9.95015
▁অঞ্চল	-9.95082
▁সবসময়	-9.95112
▁মোদি	-9.9512
▁পাড়া	-9.95146
▁রায়ের	-9.9518
▁ক্রয়	-9.95275
▁৪১	-9.95316
ওয়া	-9.95423
▁উন্নয়নে	-9.95441
▁ট্যাগ	-9.95567
▁আগ্রহ	-9.95581
▁অজ্ঞাত	-9.95613
▁গানটি	-9.95701
▁খেলায়	-9.9575
পে	-9.95774
▁ক্ষমতায়	-9.9584
▁খালি	-9.9585
৫১	-9.95895
▁বরাত	-9.95959
▁সূচক	-9.95977
▁ক্ষমা	-9.95998
শন	-9.96072
▁ব্যাগ	-9.96115
বাজার	-9.962
▁মোদী	-9.96205
▁মন্দির	-9.96281
▁৪২	-9.96298
▁হাকিম	-9.96303
▁নিচ্ছে	-9.96445
▁উপাচার্য	-9.96483
▁ব্যাটিং	-9.9653
▁ফেব্রুয়ারী	-9.96552
▁মানিক	-9.96601
এফ	-9.96642
েড	-9.96672
▁মৃতদেহ	-9.9678
▁তৈরী	-9.96811
▁চৌধুরীর	-9.96812
▁স্বাক্ষর	-9.96818
▁ওয়ান	-9.96846
▁দুর্ঘটনার	-9.96865
▁যথেষ্ট	-9.96959
▁হাওলাদার	-9.96959
▁অপরদিকে	-9.97038
মার	-9.97068
▁পাবলিক	-9.97135
▁কিনে	-9.97192
▁মাদারীপুর	-9.97207
▁বিদেশে	-9.97287
▁বিবেচনা	-9.9732
▁ওভার	-9.97335
▁যাই	-9.97378
▁সোয়া	-9.97422
▁ওয়ার্ল্ড	-9.97444
▁পড়লে	-9.97446
সার	-9.97664
▁ইংল্যান্ডের	-9.97693
▁ভবিষ্যতে	-9.97702
ষ্ট	-9.97762
▁বাড়াতে	-9.97765
▁ড্র	-9.97774
কেই	-9.97827
ময়	-9.97835
▁ধাক্কায়	-9.97836
▁সামনের	-9.9785
▁বিস্তার	-9.97923
▁জোট	-9.97929
▁৭৫	-9.97937
▁আপ	-9.9794
▁গতি	-9.97965
▁৪৯	-9.97974
কর	-9.98003
▁৭১	-9.98004
▁আইনশৃঙ্খলা	-9.98027
▁ইউটিউব	-9.9807
▁জাতিসংঘের	-9.981
▁চিহ্নিত	-9.98182
▁সিম	-9.98182
▁মেয়েকে	-9.98184
▁ভুলে	-9.98185
▁গ্রহণের	-9.98232
▁ফরিদপুর	-9.98242
▁সভার	-9.9829
▁মঞ্জুর	-9.98295
▁জাতিসংঘ	-9.98298
▁গুলিতে	-9.9836
▁রান্না	-9.98521
▁চার্জ	-9.98584
▁মিউজিক	-9.98627
ন্ত	-9.98642
▁বারবার	-9.98739
▁শর্মা	-9.9876
▁১০টায়	-9.98835
▁আহম্মেদ	-9.98856
▁লিগের	-9.98864
৫৪	-9.98991
▁গিয়েছিলেন	-9.98996
▁শিরোনাম	-9.99205
▁পাঁচটি	-9.99239
▁বলার	-9.99257
▁লাইভ	-9.99308
▁হৃদয়	-9.99345
▁এগুলো	-9.9937
▁পণ্যের	-9.99489
▁চিনি	-9.99557
▁১০টার	-9.99595
ড়ি	-9.99606
▁সানি	-9.99631
▁ভেতর	-9.9966
▁সুজন	-9.99688
▁ফাউন্ডেশনের	-9.99747
▁পত্রিকা	-9.99766
▁পদত্যাগ	-9.99796
▁""	-9.99818
▁২০১২	-9.99829
▁মিনিটের	-9.99849
▁দুইজন	-9.99877
▁রোগীদের	-9.99877
▁পদক	-9.99906
▁০০	-9.99938
▁খেলাধুলা	-9.9999
▁যানবাহন	-10.0004
২০২০	-10.0009
▁স্বেচ্ছাসেবক	-10.001
▁খোকন	-10.0017
▁মাননীয়	-10.0017
▁সূর্য	-10.0023
▁মিশিয়ে	-10.0025
▁ভোটের	-10.0026
▁কাগজ	-10.0026
▁মন্ডল	-10.0026
▁জুয়েল	-10.0035
▁সন্দেহ	-10.0036
লাম	-10.0046
▁পর্বে	-10.0049
▁নারায়ণগঞ্জের	-10.0064
▁যেহেতু	-10.0065
▁চাপা	-10.0075
▁বুকে	-10.0075
▁গাঁজা	-10.0076
▁অবাক	-10.0088
▁একেবারে	-10.0093
▁যুবককে	-10.0093
▁ছুটে	-10.0094
▁স্বর্ণ	-10.0114
িয়ার	-10.0117
▁ফা	-10.0119
চি	-10.0121
▁আমিনুল	-10.0132
▁দায়ী	-10.0132
▁পর্যালোচনা	-10.0134
▁বিকাশ	-10.0134
▁বিধি	-10.0137
▁সঞ্চালনায়	-10.0137
▁সংবর্ধনা	-10.0142
▁কোড	-10.0153
▁তালা	-10.0154
▁হাবিবুর	-10.0159
▁৩৯	-10.0161
▁জনতা	-10.0168
▁বাড়ানোর	-10.0168
▁উত্তেজনা	-10.0169
▁লিখে	-10.0173
▁১টি	-10.0173
▁পাই	-10.0176
▁উপভোগ	-10.018
▁জয়ী	-10.018
▁অভিযোগের	-10.0186
▁হাজী	-10.0187
▁সদ্য	-10.019
▁প্রতীক	-10.0198
▁অপহরণ	-10.0203
চার	-10.0203
▁শা	-10.0203
▁সাজা	-10.0206
▁ধাপে	-10.0206
▁বাংলাদেশকে	-10.021
সন	-10.0231
▁রেলওয়ে	-10.0234
▁সংক্রমণের	-10.0235
▁আওয়ামীলীগ	-10.0239
▁সফটওয়্যার	-10.0242
▁বাড়তি	-10.0244
▁সিরাজগঞ্জ	-10.0256
▁আরবের	-10.0258
▁৪৭	-10.0258
▁৩০০	-10.0259
▁আকবর	-10.026
▁কংগ্রেসের	-10.0261
▁লিংক	-10.0272
মুক্ত	-10.0275
▁গ্রাহকদের	-10.0277
▁শান্ত	-10.0278
▁পরও	-10.0283
▁বিনিময়	-10.0283
দী	-10.0286
খালী	-10.0289
ঘ	-10.0292
▁বর	-10.0293
▁দিনব্যাপী	-10.0304
▁৬৫	-10.031
▁ডাল	-10.031
▁মৌসুমে	-10.0311
▁বয়সে	-10.0313
স্ত	-10.0318
▁সরকারকে	-10.0324
▁রাষ্ট্রদূত	-10.0325
▁৪৩	-10.033
▁টুর্নামেন্ট	-10.033
▁নেবেন	-10.0335
▁রঙের	-10.0336
▁বিবিসি	-10.0346
▁কমিউনিটি	-10.0348
দু	-10.035
▁সেঞ্চুরি	-10.0352
▁এলে	-10.0352
▁প্রতিক্রিয়া	-10.0369
▁অঙ্গ	-10.0372
গ্রাম	-10.0373
▁সরে	-10.0375
::	-10.0394
▁প্লে	-10.0398
▁নে	-10.0406
▁শিশুকে	-10.0407
▁রোধে	-10.0409
▁দত্ত	-10.0411
▁হে	-10.0412
▁৪৪	-10.0417
▁পূর্বাভাস	-10.0419
▁সঙ্গীত	-10.0433
▁১০টি	-10.0435
▁ইলিশ	-10.0436
▁আজকে	-10.0441
▁ব্যক্তিদের	-10.0447
▁লম্বা	-10.0461
▁দ	-10.0462
▁বৌদ্ধ	-10.0466
▁বিদ্যালয়ে	-10.0468
ভূমি	-10.0472
▁নিন্দা	-10.0473
▁ফিরেছেন	-10.0476
▁রবিউল	-10.0481
▁ক্রিকেটে	-10.0482
▁রেখেছেন	-10.0486
▁পর্দায়	-10.0493
বল	-10.0494
▁সেট	-10.0498
▁হোটেলে	-10.0501
ভার	-10.0502
▁গড়	-10.0503
▁ফোনটি	-10.0508
▁জনকন্ঠ	-10.0511
▁পল্লী	-10.0515
▁মোতায়েন	-10.0518
▁পদের	-10.0521
▁পাল্টা	-10.0521
এন	-10.0526
ত্ব	-10.0535
দে	-10.0537
▁সংসার	-10.0542
▁চাষ	-10.0547
▁ঈদে	-10.0548
▁নয়া	-10.0549
▁অপেক্ষায়	-10.0555
▁ডিজাইন	-10.0557
▁রাজু	-10.056
▁ফেনী	-10.0564
▁স্ত্রীকে	-10.0573
▁৫১	-10.0574
▁কারও	-10.0574
▁এইচএসসি	-10.0575
▁চাকরির	-10.0576
▁সেন	-10.0577
▁প্রত্যেক	-10.0577
▁কোহলি	-10.0578
▁জের	-10.0584
▁শি	-10.0584
রী	-10.0585
▁উপস্থাপন	-10.0588
▁রাউন্ড	-10.059
▁মেরে	-10.0595
▁রোগে	-10.0598
▁ইয়াবাসহ	-10.0604
▁কাঁচা	-10.0606
▁তাছাড়া	-10.0609
▁ভারী	-10.0612
▁গুণ	-10.0615
▁মনি	-10.0616
েশন	-10.0619
▁নির্দেশে	-10.0619
▁বাছাই	-10.062
র্	-10.0623
▁এক্সপ্রেস	-10.0625
▁রবি	-10.0628
▁ফটো	-10.063
▁পলাশ	-10.063
▁প্রদেশের	-10.0632
▁কপি	-10.0634
▁নিহতদের	-10.0645
▁শ্রীলঙ্কা	-10.0648
▁প্রতিশ্রুতি	-10.0649
▁পেল	-10.0654
▁অধিক	-10.0654
▁হেড	-10.0664
▁এমনটাই	-10.067
ূ	-10.0677
▁অনেকটা	-10.0689
উদ্দিন	-10.0691
▁ভক্তদের	-10.0699
▁শাহীন	-10.0706
▁শ্রেষ্ঠ	-10.0706
▁দিয়েছিল	-10.0716
▁কৌশল	-10.0718
▁নেতার	-10.0725
▁মরহুম	-10.0727
▁প্রয়োগ	-10.0732
▁আসুন	-10.0733
▁বন্যা	-10.0737
▁কোরআন	-10.0741
▁যোগ্যতা	-10.0741
▁কোম্পানিটির	-10.0746
▁চলেছেন	-10.0748
▁কমাতে	-10.0752
▁মিয়ানমারের	-10.0755
▁মোস্তাফিজুর	-10.0758
▁ভুয়া	-10.0759
▁ডাকাত	-10.0759
পার	-10.0761
▁উল	-10.0764
▁রিট	-10.0767
▁আসিফ	-10.0768
▁সবকিছু	-10.077
▁জমির	-10.0774
▁মান্নান	-10.0774
▁আনুষ্ঠানিকভাবে	-10.0777
▁সুনামগঞ্জ	-10.078
▁কোরিয়ার	-10.0782
▁টেকনাফ	-10.0783
▁৪৬	-10.0785
▁ফেইসবুক	-10.0786
▁প্রয়াত	-10.0787
▁দরজা	-10.0791
▁সুপারিশ	-10.0794
▁হানিফ	-10.0795
▁সচেতনতা	-10.0796
▁প্রার্থীদের	-10.0797
▁পড়বে	-10.0797
▁মিয়ানমার	-10.0806
▁ধ	-10.0808
▁আলু	-10.0808
▁বার্তায়	-10.0812
▁কড়া	-10.0813
জার	-10.0813
ঙ্ক	-10.0814
▁নীতিমালা	-10.0816
▁পেসার	-10.0819
▁ফতুল্লা	-10.082
▁চত্বরে	-10.0834
▁আগুনে	-10.0838
▁নাগাদ	-10.0844
লার	-10.0851
▁ফরম	-10.0851
▁লিগে	-10.0851
▁হারে	-10.0854
▁হাবিব	-10.0854
▁মোটর	-10.086
▁ঈশ্বরদী	-10.0868
▁পারছেন	-10.0875
▁নাটোর	-10.0877
▁শীত	-10.0881
▁দরিদ্র	-10.0889
▁চলুন	-10.0892
▁অবস্থানে	-10.0898
▁পরিসংখ্যান	-10.0899
▁উজ্জ্বল	-10.0899
▁সর্ব	-10.0902
▁ফিল্ম	-10.0902
▁মুক্তিযুদ্ধ	-10.0906
▁প্রাথমিকভাবে	-10.0908
▁দা	-10.0918
▁দায়িত্বে	-10.0919
▁লকডাউনের	-10.0919
▁তুরস্কের	-10.0919
▁পরিবেশন	-10.0922
ুয়া	-10.0923
).	-10.0925
▁আসরে	-10.0925
▁সাপোর্ট	-10.0925
▁মনোনীত	-10.0935
৬০	-10.0937
রাজ	-10.0939
▁ভিসা	-10.0949
▁মজুমদার	-10.0955
▁সম্মাননা	-10.0959
▁সংখ্যক	-10.096
▁পরি	-10.0962
▁সাব্বির	-10.0974
▁কেক	-10.0977
▁ইঞ্চি	-10.0987
▁বইটি	-10.099
▁বোঝা	-10.0992
▁বিক্রয়	-10.0994
▁সমস্যায়	-10.1003
▁ইতিহাসে	-10.1006
▁চলা	-10.1007
▁দর্শকদের	-10.1007
▁উপকরণ	-10.1008
▁পদ্ধতিতে	-10.101
▁অধিদফতরের	-10.101
▁ফেরদৌস	-10.1012
▁জন্যে	-10.1018
▁জনক	-10.1026
▁ওপেনার	-10.1033
▁রেডিও	-10.1034
খা	-10.1045
▁পায়ে	-10.1048
▁কমিয়ে	-10.1057
▁নোটিশ	-10.1058
▁নুসরাত	-10.1062
▁হাসি	-10.1062
▁সেতুমন্ত্রী	-10.1065
▁৫টি	-10.1067
▁জিজ্ঞাসাবাদ	-10.1068
▁দাগ	-10.1072
▁বিশ্বব্যাপী	-10.1072
▁দেশীয়	-10.1079
▁কুমিল্লার	-10.1081
▁অসাধারণ	-10.1082
▁মতোই	-10.1085
▁সংস্কার	-10.1085
▁গুজব	-10.1086
▁কলকাতায়	-10.1088
▁গুঞ্জন	-10.1089
▁বাম	-10.1089
▁নিরাপত্তার	-10.1096
▁ভাইয়ের	-10.1105
▁এরশাদ	-10.1109
িকা	-10.111
▁২০২৩	-10.111
াস	-10.111
▁শর্ত	-10.1115
▁বক্স	-10.1122
▁বিষ	-10.1124
▁যাচ্ছিল	-10.1124
▁গণমাধ্যমকে	-10.1126
▁বিতর্ক	-10.113
▁প্রকৃত	-10.1132
▁বাড়বে	-10.1132
▁স্বাধীনতার	-10.1133
▁উদ্দিনের	-10.1133
▁আনুষ্ঠানিক	-10.1134
▁নিযুক্ত	-10.1134
▁২০২২	-10.1138
প্রতি	-10.1139
▁ক্ষুদ্র	-10.114
▁দুইটি	-10.1141
▁মাদ্রাসার	-10.1145
মেন্ট	-10.1146
▁সাঈদ	-10.1147
▁ছায়া	-10.1149
▁এমনই	-10.115
▁পৌনে	-10.115
২০১৯	-10.1152
▁প্রতিবেশী	-10.1153
▁কলা	-10.1154
▁সংক্ষিপ্ত	-10.1158
▁৬৪	-10.1168
▁আনুমানিক	-10.1169
েজ	-10.1169
ডা	-10.1172
▁আইনি	-10.1174
▁গলা	-10.1174
▁ব্ল্যাক	-10.1175
▁মনোনয়নপত্র	-10.1177
▁ব্যবসায়ীরা	-10.118
▁সাক্ষাৎ	-10.1183
▁দুর্যোগ	-10.1184
▁থাকি	-10.119
▁ঘোষণার	-10.1191
▁নেতাকর্মীদের	-10.1193
▁সাইকেল	-10.1194
▁মানুষদের	-10.1196
▁৫২	-10.1197
▁রাজধানীতে	-10.1208
▁সন্ত্রাস	-10.1209
▁ওপেন	-10.1213
▁প্রো	-10.1216
▁আকার	-10.1217
▁ডেপুটি	-10.1219
▁অা	-10.1223
▁ইনিংসে	-10.123
▁অনুসরণ	-10.1237
▁মহাসড়কে	-10.1241
▁মধু	-10.1241
▁অন্যদের	-10.1245
▁অটো	-10.1247
▁গাড়িতে	-10.1248
▁ভিতরে	-10.125
▁পাইলট	-10.1251
▁ক্যাম্পের	-10.1254
▁ব্যারিস্টার	-10.1254
▁আফ্রিকার	-10.1262
▁সরঞ্জাম	-10.1263
▁ক্ষেপণাস্ত্র	-10.1263
▁আনীত	-10.1264
▁২০১১	-10.1271
▁ভেঙ্গে	-10.1272
▁কাটিয়ে	-10.1275
▁পর্ন	-10.1278
গু	-10.1286
▁ইউনিটের	-10.1291
▁সংগৃহীত	-10.1293
▁কোর্টের	-10.1297
▁ফ্রান্স	-10.1297
▁বেঞ্চ	-10.1299
▁মালেক	-10.1299
্যা	-10.1305
▁শাহজাহান	-10.1316
▁অমিত	-10.1318
▁গাজী	-10.132
▁জখম	-10.1325
▁গার্ড	-10.1329
▁সেতুর	-10.133
▁জ্বর	-10.1332
▁৫৩	-10.134
▁রপ্তানি	-10.1346
▁ডোজ	-10.1347
▁আশরাফ	-10.1348
▁ট্রাফিক	-10.1349
▁মৌলভীবাজার	-10.1351
▁রিমান্ড	-10.1351
▁পরিবর্তে	-10.1354
▁পর্যটন	-10.1358
▁ময়না	-10.1362
▁তদন্তে	-10.1366
▁ঘোষিত	-10.1367
▁নিয়োগের	-10.1368
▁শে	-10.1372
▁সম্ভাব্য	-10.1373
▁স্মার্ট	-10.1373
▁সচিবালয়ে	-10.1379
▁রঙ	-10.1382
▁সহজে	-10.1385
▁বরখাস্ত	-10.1389
▁ঠেকাতে	-10.1397
▁চি	-10.1402
টু	-10.1404
▁ইউসুফ	-10.1405
▁তখনই	-10.1405
▁এনামুল	-10.1406
▁শিগগিরই	-10.1411
▁বোলিং	-10.1411
▁ভ	-10.1416
▁জানাজা	-10.1416
▁মনের	-10.1423
▁যথাযথ	-10.1429
▁শিবগঞ্জ	-10.1439
▁সবজি	-10.1439
▁শিক্ষকদের	-10.1442
▁বলি	-10.1442
▁বিসিবি	-10.1456
এল	-10.1464
▁জাহাজ	-10.1466
▁কবে	-10.1467
▁লাইসেন্স	-10.1467
▁স্বপন	-10.1477
▁নিউজিল্যান্ড	-10.1478
▁কতটা	-10.1479
▁কেনার	-10.1481
িল	-10.1486
▁জসিম	-10.1495
▁হাওয়া	-10.1497
▁স্মরণ	-10.1499
▁এড	-10.1512
▁লিমিটেডের	-10.1513
▁উপলক্ষ্যে	-10.1514
▁পাসপোর্ট	-10.1515
▁চালানোর	-10.1516
▁জমিতে	-10.1521
▁যাত্রীবাহী	-10.1522
▁ম্যাচটি	-10.1523
ধ	-10.1523
▁সেলফি	-10.1525
▁গ্রাহক	-10.1531
▁বন্ধের	-10.1538
▁ধার্য	-10.1549
▁পাখি	-10.1551
চে	-10.1552
▁অপরাধে	-10.1553
▁নাম্বার	-10.1562
▁রাজশাহীর	-10.1562
▁বেনাপোল	-10.1563
▁একজনের	-10.1567
▁২য়	-10.157
▁সাক্ষাৎকারে	-10.1571
▁১২টার	-10.1571
াম	-10.1573
▁শীর্ষক	-10.1581
ন্ড	-10.1585
▁১০টা	-10.1597
▁ভাব	-10.1603
▁কুড়িগ্রাম	-10.1604
▁ব্র্যান্ড	-10.1604
▁নির্যাতনের	-10.1606
▁৫৬	-10.1606
▁নেট	-10.1609
▁আতঙ্ক	-10.161
▁৭২	-10.1612
্র	-10.1613
▁সার্চ	-10.1614
▁আশ্বাস	-10.1614
▁পার্বত্য	-10.1616
রু	-10.162
▁তালিকাভুক্ত	-10.1622
▁নবী	-10.1624
▁রনি	-10.1633
▁নির্ভর	-10.1633
▁দেখি	-10.1638
▁শ্রীলঙ্কার	-10.1639
▁রিজভী	-10.1639
▁বৈশিষ্ট্য	-10.1641
▁৩টি	-10.1643
▁সিলেটে	-10.1644
যা	-10.1652
▁চালান	-10.1654
▁ঘোষনা	-10.1656
▁হাতের	-10.1659
▁আলোচনার	-10.166
▁সেকেন্ড	-10.1661
▁নিচ্ছেন	-10.1667
▁৫৪	-10.1669
▁ধারাবাহিকতায়	-10.1671
▁দামে	-10.1672
▁একদল	-10.1675
▁সিরাজ	-10.1679
▁দলটির	-10.1684
▁সত্যি	-10.1691
▁অস্বীকার	-10.1694
▁হাইওয়ে	-10.1695
▁বাংলাদেশী	-10.1697
▁সত্যিই	-10.1701
▁আড়াই	-10.1707
▁গ্রন্থ	-10.1711
▁উন্মুক্ত	-10.1713
▁কাছাকাছি	-10.1713
▁ইচ্ছে	-10.1714
▁এরকম	-10.1715
▁অনু	-10.1715
▁সংরক্ষিত	-10.1716
▁আচরণ	-10.1719
▁খা	-10.1719
▁দুঃখ	-10.1723
▁হাজারের	-10.1729
▁রো	-10.1734
▁লাইক	-10.1743
বিষয়ক	-10.1743
বাড়ী	-10.1745
▁আফ্রিকা	-10.1747
▁সুষ্ঠু	-10.1747
▁দৃষ্টি	-10.1749
▁নোয়াখালী	-10.1754
▁মোকাবিলায়	-10.1756
▁পশু	-10.1759
▁অলরাউন্ডার	-10.1759
▁গেলো	-10.1759
▁নিম্ন	-10.1763
▁অ্যান্ড্রয়েড	-10.1763
▁পেজ	-10.1764
ম্প	-10.1767
▁মন্ত্রিপরিষদ	-10.1768
▁গুলিবিদ্ধ	-10.1768
▁ধারায়	-10.1772
▁ভক্ত	-10.1775
▁নিলেন	-10.1777
▁বিধান	-10.178
▁স্	-10.1781
▁ছাত্রদলের	-10.1783
▁মেট্রোপলিটন	-10.1786
▁ব্যবসায়ীদের	-10.1792
বিরোধী	-10.1796
▁ভিত্তি	-10.1797
▁ইঞ্জিন	-10.1798
মন	-10.18
লিয়া	-10.1801
▁থেকেও	-10.1804
▁পারভেজ	-10.1805
শিক্ষাপ্রতিষ্ঠান	-10.1807
▁চাকমা	-10.1807
▁হত	-10.1809
▁ফেলা	-10.1812
▁বেশী	-10.1813
▁সেলসিয়াস	-10.1814
▁প্রযোজনা	-10.1815
▁কাউন্সিল	-10.1815
▁অনেকটাই	-10.1825
▁সহায়তায়	-10.1826
▁রায়হান	-10.1835
▁জেলে	-10.184
▁আজম	-10.1854
▁রাতেই	-10.1856
▁মারাত্মক	-10.1858
▁হকের	-10.1863
▁একা	-10.1871
▁জাতি	-10.1871
ঢাকা	-10.1875
▁মার্কেট	-10.1875
গুলোকে	-10.1876
▁টিপস	-10.1878
▁বিপ্লব	-10.1881
▁প্রযুক্তির	-10.1882
▁মেজর	-10.1889
▁প্রতিষ্ঠানটি	-10.1891
▁জ্বালানি	-10.1892
▁সেন্টারে	-10.1906
▁দলটি	-10.1909
▁বৈধ	-10.1913
▁হাইকোর্টের	-10.1917
▁ইউএনও	-10.1918
▁প্রিয়াঙ্কা	-10.1919
▁দিল্লির	-10.1923
ল্লা	-10.1923
▁কর্মচারী	-10.1924
▁বহন	-10.1933
▁প্রতিষ্ঠানে	-10.1942
াই	-10.1947
▁বিসিএস	-10.1961
বু	-10.1963
▁চরিত্র	-10.1963
▁প্রবল	-10.1965
▁বিস্ফোরণ	-10.1965
▁আইসিসি	-10.1967
বান	-10.1971
▁বাসে	-10.1979
▁নাগরিকদের	-10.198
▁সঙ্গী	-10.1989
▁ছাড়িয়ে	-10.1995
▁বীজ	-10.2
▁হেফাজতে	-10.2003
▁টেক	-10.2006
▁ফিরতে	-10.2008
▁কোটা	-10.2015
▁আবহাওয়ার	-10.2016
ভিডিও	-10.2016
▁বিবেচনায়	-10.2017
▁বিধ্বস্ত	-10.2021
▁সরবরাহকারী	-10.203
বাদ	-10.2032
▁ক্রিকেটের	-10.2036
▁আধা	-10.2036
▁জু	-10.2037
আমাদের	-10.2038
▁চলার	-10.2047
▁বিগত	-10.205
▁সমুদ্র	-10.2051
▁মুক্তিযুদ্ধের	-10.2058
▁ডান	-10.2063
▁চারজন	-10.2065
▁পিছনে	-10.2067
▁পাথর	-10.2068
▁বর্ণনা	-10.207
▁পার্ক	-10.2071
▁নাঈম	-10.2071
▁যোগদান	-10.2078
▁যেকোন	-10.2084
▁বুঝে	-10.2085
▁জানাই	-10.2094
রাও	-10.2095
তদন্ত	-10.2095
▁প্যানেল	-10.2097
▁এক্ষেত্রে	-10.2103
▁ঘরোয়া	-10.2107
▁এলো	-10.211
▁দেশকে	-10.2111
▁পিটিয়ে	-10.2127
▁অভি	-10.2134
▁বাঁধা	-10.2137
▁আসল	-10.2138
▁কাজল	-10.2141
▁চ্যানেলটি	-10.2142
▁ট্রাকের	-10.2145
▁খতিয়ে	-10.2145
▁জিয়াউর	-10.2146
▁কাপড়	-10.2146
▁বয়ে	-10.2146
▁পেয়েছি	-10.2146
▁মঙ্গল	-10.2148
▁আইনগত	-10.2149
▁পড়ছে	-10.2152
▁উইকিপিডিয়া	-10.2154
▁সর্বমোট	-10.2155
▁দিয়েই	-10.2168
▁জিয়াকে	-10.2171
▁ন্যায়	-10.2172
▁সোহাগ	-10.218
▁সাইফ	-10.2181
▁বাঁচাতে	-10.2188
▁আনসার	-10.2194
▁রওনা	-10.2203
▁মামলাটি	-10.2208
▁ব্যবহারকারী	-10.2208
োর	-10.221
▁শ্রেণি	-10.2212
িতে	-10.2213
▁মালামাল	-10.2222
▁মোড়ে	-10.2223
▁প্রত্যাশা	-10.2225
▁এরা	-10.2231
▁জোড়া	-10.2235
ৈ	-10.225
▁ডিভাইস	-10.2252
▁দুর্নীতির	-10.226
▁জরুরী	-10.2261
▁লক্ষণ	-10.2262
▁ঘন	-10.2263
▁কুরআন	-10.2265
▁ভোলা	-10.2269
▁সদরের	-10.2275
▁পত্র	-10.2281
▁শুরুতেই	-10.2281
▁দুলাল	-10.2284
▁সিদ্দিকী	-10.2284
▁বন্দুকযুদ্ধে	-10.2288
▁উৎস	-10.2291
গুলিতে	-10.23
▁ওয়ার্ডে	-10.2302
▁হুমায়ুন	-10.2303
▁সম্প্রদায়ের	-10.2307
▁বন্ধুদের	-10.2308
▁সাবস্ক্রাইব	-10.231
▁কর্মকর্তার	-10.2313
ব্য	-10.2313
▁তেমনি	-10.2314
▁পছন্দের	-10.232
▁প্রার্থনা	-10.2322
▁লবণ	-10.2328
▁হাফেজ	-10.2341
▁হচ্ছিল	-10.2341
▁ব্যবসায়ীকে	-10.2343
▁কৃষ্ণ	-10.2346
▁ভ্যান	-10.2348
▁ভিত্তিক	-10.2355
▁৫টা	-10.2358
▁নিবেদন	-10.2359
▁পাকিস্তানি	-10.236
্বরাষ্ট্রমন্ত্রী	-10.2362
▁পত্রিকার	-10.2365
▁খাত	-10.2374
▁নেত্রী	-10.2377
▁সকলেই	-10.2381
▁নারীকে	-10.2383
▁আর্জেন্টিনা	-10.2383
▁মাসিক	-10.2383
▁৪টি	-10.2386
▁ছোট্ট	-10.2394
▁শিবচর	-10.2394
▁আফগানিস্তানের	-10.2395
▁বিচ্ছিন্ন	-10.2397
▁শিশুটির	-10.24
▁ইঞ্জিনিয়ার	-10.2401
▁চুয়াডাঙ্গা	-10.2402
▁আইফোন	-10.2408
▁আকারে	-10.2409
য়ান	-10.2409
▁সমৃদ্ধ	-10.2411
▁ইনস্টিটিউট	-10.2413
▁কিছুক্ষণ	-10.2414
▁প্রমূখ	-10.2417
▁উড়িয়ে	-10.2418
▁তাও	-10.2418
▁সমন্বয়	-10.242
গার	-10.2423
গন	-10.2428
▁নওগাঁ	-10.2429
▁ধরেন	-10.2431
▁হবার	-10.2432
▁আইপিএল	-10.2436
▁খাবারের	-10.2437
▁স্পিকার	-10.2448
▁করিয়ে	-10.2449
▁সাহায্যে	-10.245
▁জামে	-10.2455
▁সেজন্য	-10.2459
▁বিমানের	-10.2464
▁নরসিংদী	-10.247
এসআই	-10.2474
▁সহকারি	-10.2477
▁ফরিদ	-10.2483
▁কমেন্ট	-10.2487
▁কেনা	-10.249
▁হ্যান্ড	-10.249
▁পাঠিয়ে	-10.2492
▁ফিরোজ	-10.2496
▁চাওয়া	-10.2499
▁১ম	-10.2499
▁ব্যক্ত	-10.2503
▁আফগানিস্তান	-10.2505
▁দিবসে	-10.2507
▁কান	-10.2507
▁সতর্কতা	-10.2508
▁সাইটে	-10.251
▁জানিয়েছিলেন	-10.251
▁কাতার	-10.2513
▁আপলোড	-10.2517
▁গু	-10.2526
▁পুজো	-10.2526
▁৯টার	-10.253
কারীদের	-10.2532
▁প্রতিষ্ঠিত	-10.2537
▁আবদুল্লাহ	-10.2542
▁অক্সিজেন	-10.2547
▁লোকসভা	-10.2552
ক্ষ	-10.2554
▁একক	-10.2558
▁কারন	-10.2561
▁জনপ্রিয়তা	-10.2563
▁স্থানীয়দের	-10.2567
▁৫৭	-10.2576
▁নেটওয়ার্ক	-10.2583
▁প্রেক্ষিতে	-10.2587
▁সম্প্রচার	-10.2587
▁রিয়াদ	-10.2589
▁ব্যাপার	-10.259
▁ফরহাদ	-10.2597
▁কারিগরি	-10.26
▁রোগের	-10.2607
▁ব্যুরো	-10.2607
▁ধারাবাহিক	-10.2609
▁অভাব	-10.2612
▁অপরাজিত	-10.2615
▁ইস্যু	-10.2616
▁পাহাড়	-10.2619
▁মদ	-10.262
▁ক্ষয়ক্ষতি	-10.2627
▁দেলোয়ার	-10.2629
▁শিক্ষার	-10.2632
পরিচালক	-10.2638
▁টুইটারে	-10.2639
▁মানিকগঞ্জ	-10.2643
▁ব্লক	-10.2645
▁ক্যান্সার	-10.2647
▁নির্মাণের	-10.2667
তু	-10.2671
▁এসপি	-10.2676
▁পুলিশে	-10.2677
▁৫৮	-10.2678
▁মোকাবেলায়	-10.2683
▁উত্তরা	-10.2685
▁রানী	-10.2686
▁ব্যাখ্যা	-10.2687
▁মোশাররফ	-10.2688
▁সৌরভ	-10.2688
▁দীপিকা	-10.269
▁টের	-10.269
▁ভোটে	-10.2693
▁চোট	-10.27
▁রোহিত	-10.2702
▁বিতরন	-10.2707
▁সাবান	-10.2716
▁শুল্ক	-10.2718
▁বাইক	-10.2719
ফি	-10.272
▁রুশ	-10.2727
▁পেশ	-10.2728
▁প্রি	-10.2731
▁আগষ্ট	-10.2733
▁নিলে	-10.2738
▁পরিমাণে	-10.2738
▁আয়ের	-10.2743
▁দক্ষতা	-10.2744
▁নিয়েও	-10.2744
▁সংকেত	-10.2749
▁হায়দার	-10.2749
▁টিউন	-10.2751
▁ঘন্টায়	-10.2751
▁রিপন	-10.2758
▁কাশ্মীর	-10.2758
▁বান্দরবান	-10.2759
▁ভেসে	-10.2765
▁আলাপ	-10.2767
▁বগুড়ার	-10.2767
চা	-10.2773
▁মঞ্চে	-10.2776
▁গণমাধ্যমে	-10.2776
▁আরোহী	-10.2787
▁পরাজিত	-10.2789
▁প্রেমিক	-10.279
▁সরদার	-10.2794
▁মেসির	-10.2798
▁রেজিস্ট্রেশন	-10.2803
ছা	-10.2804
▁ইস্ট	-10.2804
▁বুলবুল	-10.281
▁ভাতা	-10.2813
▁রণবীর	-10.2814
▁কক্সবাজারের	-10.2819
▁গোলের	-10.2821
▁কৃষকদের	-10.2822
▁টস	-10.2834
▁গণতন্ত্র	-10.2835
▁পৃথিবী	-10.2838
▁রাখবেন	-10.2842
▁স্বার্থে	-10.2847
▁ভূঁইয়া	-10.2852
▁সিনেমাটি	-10.2853
ন্স	-10.2854
▁নড়াইল	-10.2858
▁অনেকের	-10.2863
▁জোটের	-10.2863
▁বার্ষিকী	-10.2866
িংয়ের	-10.2869
▁শ্রমিকরা	-10.287
▁স্বাদ	-10.2875
▁ধানের	-10.2876
করণ	-10.2881
▁ভূমিকম্প	-10.2882
▁ফিতর	-10.2886
▁খেলবে	-10.2892
▁ধাপ	-10.2898
▁পরমাণু	-10.2903
▁৯টা	-10.2911
▁পারলে	-10.2921
▁চুরির	-10.2923
▁ইব্রাহিম	-10.2923
াত	-10.2924
▁চীনে	-10.2929
▁অর্ডার	-10.293
▁সূত্রের	-10.2936
চর	-10.294
▁মেট্রো	-10.2942
▁জামান	-10.2948
▁রাজস্ব	-10.2948
▁করপোরেশনের	-10.2963
▁শারমিন	-10.2976
▁মাসুম	-10.2978
▁রাখি	-10.2979
▁দেবী	-10.2984
▁সঞ্জয়	-10.2986
▁সীমিত	-10.2986
▁আনে	-10.2988
▁করছিল	-10.299
▁কোরিয়া	-10.2991
▁ইমেইল	-10.2993
▁প্রচারণা	-10.2995
▁কার্যকরী	-10.2997
▁পরিবর্তনের	-10.2997
▁আকাশে	-10.2998
▁জাপান	-10.3003
▁বু	-10.3004
▁ইউনাইটেড	-10.3004
▁রচনা	-10.3007
▁সশস্ত্র	-10.3007
▁অভিনীত	-10.3007
▁মুম্বাই	-10.3008
▁ভেবে	-10.3009
▁রহস্য	-10.3015
▁প্রার্থীর	-10.3017
▁ডিসপ্লে	-10.3019
▁দিয়েছি	-10.302
▁সুখ	-10.302
বী	-10.3028
▁বিলিয়ন	-10.3028
শত	-10.3028
▁সম্পর্কের	-10.3034
▁ট্যাবলেট	-10.3036
▁একুশে	-10.3036
▁জাপানের	-10.3043
▁গান্ধী	-10.3045
▁সমাপ্ত	-10.3045
▁ফ্রান্সের	-10.3046
▁চলছিল	-10.3047
▁বৈশ্বিক	-10.3049
▁অর	-10.3053
পুরে	-10.3062
▁নিউজিল্যান্ডের	-10.3066
▁হাল	-10.307
পূর্ণ	-10.3072
ঙ্গ	-10.3078
▁শনাক্তের	-10.3081
▁চমক	-10.3083
▁সেবার	-10.3086
▁গানে	-10.3087
▁পাওয়ায়	-10.309
▁অর্থবছরের	-10.3096
▁মেলায়	-10.3109
▁অবৈধভাবে	-10.311
▁লিড	-10.3113
▁২০১০	-10.3113
▁হোয়াইট	-10.3122
▁৫৯	-10.3124
▁দফতর	-10.3127
▁ফ্যাশন	-10.3127
▁ছাত্রীকে	-10.3128
▁মেহেরপুর	-10.3129
▁প্লাস	-10.313
▁প্রার্থীরা	-10.3131
িয়ান	-10.3132
▁মার	-10.3135
▁রাজীব	-10.3136
▁নকল	-10.3143
▁লেখেন	-10.3144
▁হি	-10.3144
ড়ে	-10.3145
▁যুদ্ধে	-10.3145
▁বিশ্বজুড়ে	-10.3156
▁বাংলায়	-10.3157
▁সৌন্দর্য	-10.3159
▁ত্বক	-10.3166
▁৮টা	-10.3171
▁ষষ্ঠ	-10.3171
▁মিরাজ	-10.3175
▁গোপালগঞ্জ	-10.3177
▁নবম	-10.3181
▁ঝুলন্ত	-10.3186
▁তলা	-10.319
▁৬৬	-10.3192
▁বিপদ	-10.3193
▁কবীর	-10.3198
▁জানে	-10.3199
▁ঘনিষ্ঠ	-10.3201
▁ধরার	-10.3201
▁বিশেষজ্ঞরা	-10.3209
▁যত্ন	-10.3214
▁পুকুর	-10.3216
▁ভ্রাম্যমান	-10.3218
▁টুর্নামেন্টের	-10.322
▁ঐক্য	-10.3223
▁জালাল	-10.3231
▁সার্টিফিকেট	-10.324
▁টিউব	-10.3241
▁ছা	-10.3241
▁রিফাত	-10.3241
▁আশপাশের	-10.3243
▁গবেষণায়	-10.3245
▁নাসিম	-10.3249
▁এরপরই	-10.3258
▁বলিউডে	-10.326
▁আসছিল	-10.3263
▁ছুটির	-10.3264
▁সুরমা	-10.3265
▁দাশ	-10.3267
▁মেলার	-10.3269
▁দুদকের	-10.327
▁ফেরি	-10.3273
গাঁও	-10.3276
▁ডিরেক্টর	-10.3278
▁নেতৃত্বাধীন	-10.3283
▁সম্মেলনের	-10.3283
▁এসএম	-10.3283
▁প্রযোজক	-10.329
▁জনসংখ্যা	-10.3297
▁ফুটবলার	-10.33
▁আগ	-10.3301
রিয়া	-10.3302
▁গোসল	-10.3304
▁যাচ্ছি	-10.3307
▁টাইগার	-10.3314
▁৬টা	-10.3314
▁নোবেল	-10.3315
▁যোগ্য	-10.3319
▁ভূ	-10.3323
▁বহিষ্কার	-10.3326
▁দুজনের	-10.3329
▁সমাপনী	-10.3336
▁আত্মীয়	-10.3347
▁পর্যাপ্ত	-10.3347
▁বৃদ্ধ	-10.3353
▁পাকিস্তানে	-10.3362
▁দেখাতে	-10.3364
▁বিধায়ক	-10.3366
▁গরুর	-10.3366
▁জানার	-10.3366
▁মাছের	-10.3368
▁৭টা	-10.3371
ন্দ	-10.3373
▁বর্ষের	-10.3374
▁বাঁধ	-10.3376
▁পাকা	-10.338
▁সনদ	-10.3384
▁২৫০	-10.3387
▁উদ্বেগ	-10.339
▁কাম	-10.3395
▁টুইটার	-10.3397
▁তরুণী	-10.34
▁৮টার	-10.3405
▁বালু	-10.3406
▁মজার	-10.3406
▁অভ্যন্তরীণ	-10.3413
▁ফয়সাল	-10.3413
▁পুরাতন	-10.3416
▁এনটিভির	-10.342
পরিদর্শক	-10.3423
▁হো	-10.3427
▁সেদিন	-10.343
পু	-10.3435
▁অনুদান	-10.3435
▁পাইকারি	-10.3435
▁প্রতিযোগিতার	-10.3436
▁স্থাপনা	-10.3438
▁জোরদার	-10.3447
▁আলমের	-10.345
▁জগতে	-10.3452
▁গঠনের	-10.3453
▁একজনকে	-10.3453
▁মার্ক	-10.3456
▁রেটিং	-10.3463
▁দুদক	-10.3464
▁লড়াইয়ে	-10.3465
▁উৎসবে	-10.3466
▁১৫০	-10.3468
▁চালাচ্ছে	-10.3469
▁রেসিপি	-10.3478
▁এখনই	-10.3478
▁মুখ্য	-10.348
▁সিরাজুল	-10.3481
▁তারই	-10.3484
▁রোজ	-10.3484
▁মেসেজ	-10.3485
▁শাহিন	-10.3487
▁রফিক	-10.3487
▁উল্লেখযোগ্য	-10.3488
▁মনিরুল	-10.3494
▁চালাতে	-10.3496
▁ইউরোপীয়	-10.3501
▁চিকিৎসকের	-10.3502
▁ময়মনসিংহের	-10.3522
সো	-10.353
▁আশঙ্কাজনক	-10.3533
▁বস	-10.3535
ঞ্জ	-10.3536
▁পশ্চিমবঙ্গের	-10.3539
▁আলিয়া	-10.3541
▁এতদিন	-10.3541
▁করপোরেশন	-10.3541
ইউ	-10.3541
▁ফেসবুকের	-10.3545
▁টেনে	-10.3546
▁জোন	-10.3546
▁ষড়যন্ত্র	-10.3546
▁এরমধ্যে	-10.355
▁শ্রম	-10.3552
▁হ্রাস	-10.3555
▁ইস্যুতে	-10.3557
▁দুর্বৃত্তরা	-10.3557
▁কালীগঞ্জ	-10.356
▁ক্রাইম	-10.3562
▁কন্ট্রোল	-10.3563
▁সাহেব	-10.3564
▁অধ্যায়	-10.3568
▁আরিফুল	-10.3571
▁জানাচ্ছি	-10.3571
এক	-10.3575
▁আরবে	-10.3576
▁চলচ্চিত্রে	-10.3577
▁ইসমাইল	-10.3577
▁প্রদানের	-10.3579
মিন	-10.3579
▁নাগরিকত্ব	-10.358
▁বিশ	-10.3582
▁ইঙ্গিত	-10.3588
▁সেন্সর	-10.3589
▁বাণিজ্যিক	-10.359
▁লেগেছে	-10.3593
▁বার্সেলোনা	-10.3596
▁বাচ্চু	-10.3597
▁নাচ	-10.3598
ষধ	-10.3607
স্বাস্থ্যমন্ত্রী	-10.3619
▁উৎসবের	-10.3626
▁পাট	-10.363
▁কোম্পানী	-10.3631
▁);	-10.3632
▁এড়াতে	-10.3633
▁হারিয়েছে	-10.3633
▁জমে	-10.3635
▁ভার্চুয়াল	-10.3636
▁পরিবেশে	-10.3639
▁লন্ডন	-10.3645
▁সংগ্রহের	-10.3646
▁ওসমান	-10.3648
▁টাইম	-10.3649
▁টপ	-10.365
▁নাইট	-10.3653
▁বিরত	-10.3653
িম	-10.3655
▁স্নাতক	-10.3655
▁চালিয়েছে	-10.3658
বর	-10.3667
ঘর	-10.3682
▁৬৮	-10.3683
▁তেলের	-10.3684
▁সিংহ	-10.3685
▁স্যাটেলাইট	-10.3689
▁সাইবার	-10.369
▁ঘাট	-10.37
ইল	-10.3704
িস	-10.3708
▁ডিসি	-10.3708
▁যুক্তরাজ্য	-10.3709
▁বানিয়ে	-10.3709
▁চলাকালীন	-10.3712
▁করণীয়	-10.3712
▁অবিলম্বে	-10.3722
যোগ্য	-10.3723
▁সম্প্রসারণ	-10.3725
▁পাচার	-10.3725
▁প্রতিপক্ষ	-10.3727
▁প্রথমবার	-10.3729
▁তৃণমূলের	-10.373
▁চামড়া	-10.3733
▁মেইল	-10.3733
▁তি	-10.3736
▁অল	-10.3738
এইচ	-10.3739
▁শ্রেণীর	-10.374
▁দেখছেন	-10.374
▁স্কোর	-10.3746
▁আদা	-10.3747
▁ক্যারিয়ার	-10.3748
▁একইসঙ্গে	-10.3757
▁আল্লামা	-10.3759
বাগ	-10.3766
টন	-10.3767
▁বৈদ্যুতিক	-10.3767
▁সত্ত্বেও	-10.3767
▁এশিয়ার	-10.3771
▁জার্মান	-10.3775
▁কর্মহীন	-10.3783
▁ইংলিশ	-10.3789
▁উঠছে	-10.3792
▁অধিবেশন	-10.3798
৭০	-10.3802
▁বিতর্কিত	-10.3804
▁রাখবে	-10.3805
▁প্রাণী	-10.3806
▁সংঘর্ষের	-10.3808
▁উপস্থিতিতে	-10.3813
▁দিল্লিতে	-10.3814
▁ভাঙচুর	-10.3819
▁প্রাণঘাতী	-10.3824
▁রেঞ্জ	-10.3825
▁আলোর	-10.3828
▁মহামারী	-10.3829
▁অবসর	-10.384
▁শিক্ষার্থীর	-10.3848
▁("	-10.3849
▁পরদিন	-10.3851
পর	-10.3854
▁ভোটগ্রহণ	-10.3859
▁পর্যবেক্ষণ	-10.3861
▁প্রাইভেট	-10.3872
▁এবারও	-10.3874
▁ইউনিভার্সিটি	-10.3875
▁জলবায়ু	-10.3881
ঘাট	-10.3888
▁রশীদ	-10.3888
▁পেট	-10.3892
▁সমবেদনা	-10.3893
▁শাহরিয়ার	-10.3893
▁অর্ধেক	-10.3894
▁অংশে	-10.39
▁পশ্চিমবঙ্গ	-10.3901
▁পরোয়ানা	-10.3904
▁মোজাম্মেল	-10.3904
শী	-10.3914
েশ	-10.3918
▁বন্দি	-10.3918
▁বিস্ফোরণে	-10.3919
▁হুদা	-10.3928
▁ভোক্তা	-10.3928
▁রাশেদ	-10.393
▁শাকিল	-10.3933
▁৬টি	-10.3934
▁মিডিয়ার	-10.3934
▁একদিনে	-10.3937
▁ফেলতে	-10.3939
▁সেরে	-10.3942
▁সার্কেল	-10.3944
▁কর্মশালা	-10.3948
▁হবিগঞ্জ	-10.3949
েক	-10.3951
▁কাশি	-10.3956
▁শীতের	-10.3961
▁পাড়ি	-10.3967
প্রাপ্ত	-10.3969
▁প্রশাসনিক	-10.3969
▁দেহে	-10.397
▁টহল	-10.3972
▁পরিবারে	-10.3973
▁চিহ্ন	-10.3973
▁ইউনিটে	-10.3977
▁নানান	-10.3978
▁অনন্য	-10.3978
▁শাসন	-10.3978
▁মিত্র	-10.3979
▁কোর্স	-10.3982
▁নেইমার	-10.3983
▁ক্ষোভ	-10.3994
▁লিটার	-10.3995
▁বৈঠকের	-10.3997
▁মুকুল	-10.3997
▁আরোপ	-10.3999
২০১৮	-10.4004
▁পরিবহনের	-10.4006
বির	-10.4006
সাধারণ	-10.4015
▁মূল্যের	-10.4016
হু	-10.4019
▁যাবজ্জীবন	-10.4019
▁প্রজন্মের	-10.4019
▁৬১	-10.4026
তায়	-10.4026
শু	-10.4033
▁আন্দোলনে	-10.4035
▁প্রভাবে	-10.4037
▁উঠবে	-10.4043
▁হোয়াটসঅ্যাপ	-10.4044
▁তহবিল	-10.4046
▁ত্রিপুরা	-10.4046
▁ক্যাম্পে	-10.4047
▁ইন্তেকাল	-10.4048
▁জয়ে	-10.4048
ত্ত	-10.4052
▁সাপ	-10.4052
▁হেলাল	-10.4056
▁সিদ্দিক	-10.4057
▁পোর্টাল	-10.4058
▁ধর্মের	-10.406
▁জামাত	-10.4063
▁মোবাইলে	-10.4066
▁জয়া	-10.4072
▁হার্ট	-10.4078
রাম	-10.4078
▁মালয়েশিয়া	-10.4082
▁পরিপ্রেক্ষিতে	-10.4091
▁কার্যক্রমের	-10.4097
▁কিশোরী	-10.4099
▁মোমেন	-10.412
▁স্টেশনে	-10.4121
▁আবেদীন	-10.4124
▁একাডেমি	-10.4124
▁দেখবেন	-10.4128
▁গ্রেফতারকৃত	-10.414
▁মানববন্ধনে	-10.4144
থা	-10.4147
▁মনিরুজ্জামান	-10.4148
মুখী	-10.4148
▁অভিভাবক	-10.4151
▁কারখানায়	-10.4151
▁মাঠের	-10.4152
▁ফাঁড়ি	-10.4158
▁উল্টে	-10.4159
▁পৃথিবীতে	-10.416
ক্ত	-10.4167
▁আকর্ষণ	-10.4169
▁ইবনে	-10.4171
ার্স	-10.4175
হাট	-10.4178
▁বালিকা	-10.4178
▁সদস্যকে	-10.4179
▁মৃত্যুদণ্ড	-10.4182
▁ঠান্ডা	-10.4183
▁অতিক্রম	-10.4183
▁মূল্যে	-10.4193
▁সংক্রমিত	-10.4194
▁কৃষকের	-10.4198
▁আরা	-10.42
▁নামাজের	-10.4201
▁কর্পোরেশন	-10.4204
▁স্থানান্তর	-10.4205
▁কাশেম	-10.4206
বন	-10.4208
শীল	-10.4211
▁বিগ	-10.4211
▁হিরো	-10.4212
▁জঙ্গিবাদ	-10.4213
▁ইট	-10.4216
▁ভূমিকায়	-10.4216
▁ঘাতক	-10.4218
▁প্রেসক্লাব	-10.4219
▁সমর্থকদের	-10.4224
▁তুরস্ক	-10.4227
▁সন্দেহে	-10.423
▁পুকুরে	-10.4231
▁মুশফিকুর	-10.4231
▁আমন্ত্রণ	-10.4235
▁ভয়ে	-10.4236
▁শাক	-10.4237
▁মেয়েরা	-10.424
▁ভাষণ	-10.4243
গি	-10.4243
▁অপারেটর	-10.4244
▁জিও	-10.4248
▁ব্যবহারকারীদের	-10.4248
▁বিদ্যুতের	-10.425
▁চলচ্চিত্রের	-10.4254
ঙ্গা	-10.4256
▁ছিটকে	-10.4258
▁৬২	-10.4258
▁ভর্তির	-10.4258
কান্দি	-10.4262
▁পরিমান	-10.4264
▁ডলারের	-10.427
কুল	-10.4276
▁৬৭	-10.4277
▁ইমন	-10.4277
▁সেল	-10.4277
▁ডেটা	-10.4278
▁পরপরই	-10.4283
▁বাসার	-10.4284
▁র্যাবের	-10.4285
▁ওঠা	-10.4286
▁আকর্ষণীয়	-10.4291
▁আটককৃত	-10.43
▁বিজনেস	-10.4301
▁নো	-10.4303
▁অ্যাড	-10.4306
▁পরীক্ষার্থী	-10.4307
▁চাঁপাইনবাবগঞ্জে	-10.4309
▁দোকানের	-10.4312
▁উচ্ছেদ	-10.4313
▁অ্যান্টি	-10.4315
▁পেঁয়াজের	-10.4317
▁চেয়েছেন	-10.4323
▁শৃঙ্খলা	-10.4324
▁মাঝারি	-10.4325
▁স্লোগান	-10.433
▁উন্মোচন	-10.4337
▁ট	-10.4348
▁সুন্দরী	-10.4349
▁অনুশীলন	-10.435
লের	-10.4352
▁টুর্নামেন্টে	-10.4354
পূর্ব	-10.4361
▁জম্মু	-10.4361
▁শীঘ্রই	-10.4362
▁প্রায়ই	-10.4364
▁চমৎকার	-10.4373
▁বরণ	-10.4375
▁ঠাকুর	-10.438
▁পরিচিতি	-10.4381
▁হাফিজ	-10.4383
▁ব্যাংকিং	-10.4388
▁১২টা	-10.4389
▁পেরিয়ে	-10.4389
▁মৃত্যুবরণ	-10.439
▁শুনতে	-10.4392
▁বিনিময়ে	-10.4394
▁সারাদেশ	-10.4395
▁যথাক্রমে	-10.4397
▁সেসব	-10.4402
▁স্পেশাল	-10.4407
▁নিয়েছিলেন	-10.441
▁সাময়িক	-10.4419
▁পটুয়াখালী	-10.4419
▁প্রচণ্ড	-10.4421
▁রুমে	-10.4425
▁সংস্থাটি	-10.4433
▁১১টা	-10.4434
▁ভা	-10.4443
▁মাই	-10.4446
▁ভোগ	-10.4452
▁বো	-10.4452
রত	-10.4455
▁সূচনা	-10.4457
▁ঐতিহ্যবাহী	-10.4457
▁এশিয়ান	-10.4457
▁মাকে	-10.4467
▁করতেই	-10.4468
▁ট্রেনে	-10.4469
▁নারীরা	-10.447
▁এড়িয়ে	-10.447
▁অধিবেশনে	-10.4473
▁বিস্ফোরণের	-10.4476
▁পরা	-10.4477
▁দিবসের	-10.4477
▁দুর্গাপুর	-10.4479
▁আক্রান্তদের	-10.4479
▁গ্রেফতারের	-10.4479
▁ছাত্রীর	-10.4479
▁দৃষ্টান্ত	-10.4481
▁ভার্সন	-10.4484
▁২০০৯	-10.4484
▁নিল	-10.4492
▁অপারেটিং	-10.4493
▁কার্তিক	-10.4493
▁কিম	-10.4498
▁বিচারের	-10.4507
▁ডায়াবেটিস	-10.4508
জান	-10.451
▁সম্মিলিত	-10.4514
রাই	-10.4515
▁উত্তরে	-10.4515
▁অনূর্ধ্ব	-10.4521
▁পেজে	-10.4524
▁রতন	-10.4524
▁কৃতজ্ঞতা	-10.4533
বাসী	-10.4534
▁আসামিদের	-10.4539
দান	-10.4542
▁পোস্টে	-10.4545
▁অ্যাকশন	-10.4549
▁ইসি	-10.4554
▁ছেলেকে	-10.4557
▁মণ্ডল	-10.456
▁লতিফ	-10.4566
▁রেট	-10.4568
শান	-10.4572
▁ম্যান	-10.4574
▁প্রকৌশল	-10.458
▁কাটার	-10.4582
▁সকলে	-10.4589
▁মিজান	-10.4591
▁ক্ষমতাসীন	-10.4591
▁গ্লোবাল	-10.4594
▁কর্পোরেশনের	-10.4595
বাস	-10.4597
গান	-10.4604
▁প্রবীণ	-10.4607
▁আগুনের	-10.4614
▁করলেই	-10.4617
▁ব্যবসায়	-10.4619
▁শরিফ	-10.4619
জনিত	-10.462
▁চুক্তির	-10.462
▁মাদরাসা	-10.4621
▁রক্ষায়	-10.4623
▁বোধ	-10.4628
▁সুতরাং	-10.4628
▁অভিনয়ের	-10.4629
▁ইতালি	-10.4638
▁প্রজ্ঞাপন	-10.4638
▁রুম	-10.4639
▁পুষ্টি	-10.4642
▁সপ্তম	-10.4644
▁বিরাজ	-10.465
▁অবতরণ	-10.4653
▁পাঠাতে	-10.4653
▁মিলবে	-10.4656
▁বাড়ী	-10.4659
▁চোর	-10.4663
▁সো	-10.4675
▁পালনের	-10.468
বৃন্দ	-10.4688
▁বিরোধ	-10.4689
▁ইন্ডিয়ান	-10.4691
▁স্টোরেজ	-10.4693
▁ড্রোন	-10.4694
▁উপযুক্ত	-10.4694
▁রাজশাহীতে	-10.4694
▁আরাফাত	-10.4694
▁মিশন	-10.4696
▁সিকদার	-10.4702
ঙ	-10.4705
▁যাত্রীরা	-10.4706
▁মুশফিক	-10.4716
▁তথ্যমন্ত্রী	-10.4718
▁সাপ্তাহিক	-10.4719
▁বিজ্ঞানীরা	-10.4723
▁তোলে	-10.4724
▁বঞ্চিত	-10.4725
▁সাজানো	-10.4726
তুল	-10.4728
▁যেটা	-10.4734
▁বাস্তবায়নে	-10.4734
▁লাইট	-10.4736
▁পাঠকের	-10.4737
▁চিৎকার	-10.4738
▁পরিশ্রম	-10.4746
▁ভাবনা	-10.4746
▁চিন	-10.4746
▁অষ্টম	-10.4747
ানো	-10.4749
▁কপিরাইট	-10.4752
▁আমেরিকান	-10.4752
▁বেল	-10.4752
▁জুনিয়র	-10.4753
▁একেবারেই	-10.4754
▁নজরে	-10.476
▁অ্যাপল	-10.4769
মাত্র	-10.4771
▁নিহতরা	-10.4774
▁..	-10.4781
▁বৈশাখী	-10.4784
▁আয়োজনের	-10.4786
▁পালা	-10.4788
▁প্রীতি	-10.4789
সী	-10.4792
▁পায়ের	-10.4794
▁প্রোগ্রাম	-10.4799
▁ইলিয়াস	-10.4802
▁খুনের	-10.4802
▁অধিদফতর	-10.4803
গে	-10.4804
ারি	-10.4807
▁বন্দরে	-10.4813
▁চট্টোপাধ্যায়	-10.4816
▁খেয়াল	-10.4818
▁সেখানকার	-10.4819
▁ওপরে	-10.4819
▁গবেষক	-10.4822
▁কুল	-10.4825
▁ফেলেছে	-10.4826
▁অজানা	-10.4827
▁বস্তা	-10.4829
▁রাকিব	-10.4829
▁প্রমাণিত	-10.4832
▁মহিলাদের	-10.4836
▁ইনস্টাগ্রামে	-10.4839
▁বহাল	-10.484
▁লুকিয়ে	-10.4842
▁দম্পতি	-10.4843
▁সৌম্য	-10.4844
▁ফসল	-10.4846
▁দিলীপ	-10.4852
▁একপর্যায়ে	-10.4852
▁ধাওয়া	-10.4855
▁চির	-10.4857
▁নেতাকর্মী	-10.4862
▁দুর্বল	-10.4863
নিয়া	-10.4868
ফুল	-10.487
▁ব্যক্তিত্ব	-10.4872
▁গেট	-10.4873
▁বাগান	-10.4876
▁প্রদীপ	-10.4878
▁বইয়ের	-10.4882
▁আমলে	-10.4882
▁নার্স	-10.4883
▁সিদ্ধান্তের	-10.4891
রুল	-10.4892
▁মর্যাদা	-10.4892
▁ছিলাম	-10.4892
▁এতো	-10.4894
▁দপ্তরের	-10.4898
▁দিবে	-10.4898
▁দুনিয়া	-10.4899
▁যুদ্ধের	-10.4903
▁ওঠার	-10.4904
▁সহায়ক	-10.4906
▁জলিল	-10.4907
▁পাঠিয়েছে	-10.4908
▁স্বর্ণের	-10.491
▁খ্যাত	-10.4912
▁পোষ্ট	-10.4913
ক্ষণ	-10.4915
▁সেটাই	-10.4919
▁পায়নি	-10.492
▁নিত্য	-10.4923
▁বিদেশী	-10.4923
▁বদলি	-10.4927
▁বৃত্তি	-10.4927
▁সোনালী	-10.4929
েট	-10.4937
▁দক্ষ	-10.4942
▁দেখেছেন	-10.4942
▁সই	-10.4942
▁বিরল	-10.4943
▁শক্ত	-10.4946
▁৪০০	-10.4948
▁দগ্ধ	-10.4953
▁ক্রিকেটারদের	-10.4957
▁রোজা	-10.4958
▁মৃত্যুকালে	-10.496
▁মাথার	-10.4969
▁ফোর্স	-10.497
▁কমপ্লেক্স	-10.4977
▁২০০০	-10.4978
্যাল	-10.498
▁এটিএম	-10.4982
▁আবরার	-10.4982
▁ব্রাজিলের	-10.4986
▁করানো	-10.4987
্ব	-10.499
▁উল্টো	-10.4991
▁গ্লাস	-10.4993
▁বাশার	-10.4997
▁বক্তা	-10.5
▁মহল	-10.5002
▁নেগেটিভ	-10.5004
াবাদ	-10.5005
▁করতো	-10.5008
▁কবরস্থানে	-10.5009
▁রুটে	-10.5011
▁মূর্তি	-10.5011
▁বয়সের	-10.5012
▁আস্থা	-10.5014
▁উদ্যোক্তা	-10.5015
▁সেমিফাইনালে	-10.5017
তাই	-10.5023
▁প্রাঙ্গণে	-10.503
▁সম্পত্তি	-10.5031
▁বাদশা	-10.5031
▁উপকারী	-10.5032
▁দর্শন	-10.5033
▁সমন্বয়ে	-10.5035
▁গতিতে	-10.5041
▁স্বপ্নের	-10.5043
▁পুরুষের	-10.5044
▁রোনালদো	-10.5055
▁জামালপুর	-10.5058
▁পারব	-10.5059
▁৬৩	-10.5059
▁হলেই	-10.506
▁বোলার	-10.5064
▁শিরোনামে	-10.5064
▁ঐতিহ্য	-10.5067
▁জনসংযোগ	-10.5068
▁উত্তীর্ণ	-10.5068
▁থানাধীন	-10.5069
▁চুলের	-10.5071
▁).	-10.5073
▁বাচ্চা	-10.5082
▁শরিফুল	-10.5084
▁ইন্ডিজ	-10.5086
▁ভাগ্য	-10.5086
▁ইতিহাসের	-10.5091
▁কিংবদন্তি	-10.5094
▁আইসোলেশনে	-10.5096
▁হিট	-10.5101
মের	-10.5101
▁আত্ম	-10.5103
▁অস্থায়ী	-10.5104
▁সিরিয়ার	-10.5106
▁তরফ	-10.5106
▁বেসামরিক	-10.5107
▁ল্যাপটপ	-10.511
▁পেশায়	-10.5116
হে	-10.5119
▁পূর্ণাঙ্গ	-10.512
▁উত্তম	-10.5121
টেক	-10.5123
ীন	-10.5123
▁ঠাকুরগাঁও	-10.5126
স্ব	-10.5128
▁শু	-10.5135
নিক	-10.5139
▁অনুসন্ধান	-10.514
কন্ঠ	-10.5141
▁সিসি	-10.5144
▁হেলথ	-10.5146
▁অফিসিয়াল	-10.5147
ুল্লাহ	-10.5154
▁গাইবান্ধা	-10.5155
▁পৌঁছেছে	-10.5156
▁শিশুটিকে	-10.5158
▁স্বতন্ত্র	-10.5159
▁দেয়নি	-10.5168
বাহী	-10.5169
▁ঘুষ	-10.5179
▁অগ্রগতি	-10.518
▁মঞ্চ	-10.5181
▁পো	-10.5184
▁অমিতাভ	-10.5185
▁প্রশাসকের	-10.5187
▁ক্লাবে	-10.5188
▁জগন্নাথপুর	-10.5192
▁৮৫	-10.5192
▁দেশগুলোর	-10.5192
▁জ্যেষ্ঠ	-10.5198
▁সোনারগাঁ	-10.52
▁পর্বের	-10.5202
▁যুগ	-10.521
▁সাউথ	-10.5218
▁আত্মার	-10.5219
▁ইউরো	-10.522
৬৫	-10.5221
▁পাঠায়	-10.5226
▁দশম	-10.5229
▁রিজার্ভ	-10.5237
▁স্বল্প	-10.5237
▁নাহিদ	-10.5239
▁নকশা	-10.5241
▁জালে	-10.5244
লীগের	-10.5245
▁হয়েছি	-10.5245
▁থেমে	-10.525
▁গ্যাসের	-10.5252
▁কর্মসূচী	-10.5255
▁ক্যাম্পাস	-10.5256
▁মজা	-10.5258
ওয়ার	-10.526
াব	-10.5263
▁কোয়ারেন্টাইনে	-10.5264
শো	-10.5265
▁ফজলুল	-10.5265
▁দেশটি	-10.5269
▁চক্রের	-10.527
▁পাঁচজন	-10.527
▁মুসলমানদের	-10.527
▁বেলাল	-10.527
▁হ্যাঁ	-10.5272
▁সংবিধান	-10.5274
▁৭৭	-10.5276
▁জয়নাল	-10.5278
▁পুঁজিবাজারে	-10.5279
▁পড়াশোনা	-10.5286
▁প্রচলিত	-10.5289
▁স্টেট	-10.5291
▁রব	-10.5291
কর্মী	-10.5296
▁ডিএসই	-10.5298
▁হাইকোর্টে	-10.53
▁বিধিনিষেধ	-10.5303
দিয়া	-10.5304
▁স্টোর	-10.5307
▁জামায়াত	-10.5309
▁চক্র	-10.5313
▁ঝিনাইদহের	-10.5315
▁সেক্ষেত্রে	-10.5319
▁কেড়ে	-10.5319
▁কারখানার	-10.532
▁খেলেছেন	-10.5336
▁টাইপ	-10.5338
▁ছয়টি	-10.5343
▁অভ্যাস	-10.5346
▁রাজবাড়ী	-10.5351
▁আহমেদের	-10.5354
▁সোপর্দ	-10.5355
▁শাহাদাত	-10.5355
▁নেত্রকোনা	-10.5362
▁প্ৰ	-10.5362
▁শট	-10.5367
ায়ন	-10.5367
▁করত	-10.5367
▁মহেশখালী	-10.5368
▁মেধাবী	-10.5369
▁সংগ্রাম	-10.5371
▁ফকির	-10.5373
▁ফ্রন্ট	-10.5374
▁তু	-10.5378
▁জহিরুল	-10.5384
▁নয়ন	-10.5389
▁শাস্তির	-10.539
▁রাগ	-10.5396
▁পুড়িয়ে	-10.5397
▁একসাথে	-10.5398
▁বিএসএফ	-10.54
▁অর্পণ	-10.5408
▁প্রিন্স	-10.5409
▁হট	-10.541
▁হোসেনকে	-10.541
▁গোষ্ঠী	-10.5411
পাল	-10.5413
▁লু	-10.5416
▁দুটো	-10.5417
▁রূপান্তর	-10.542
দল	-10.542
▁এডভোকেট	-10.5422
▁ডেলিভারি	-10.5422
▁নিয়োজিত	-10.5422
▁ফেনসিডিল	-10.5422
▁কামরুজ্জামান	-10.5422
▁শিব	-10.5428
▁কখন	-10.5435
▁গাড়িটি	-10.5441
যে	-10.5447
▁চে	-10.5448
▁গণতান্ত্রিক	-10.5448
▁তবুও	-10.545
▁আপন	-10.5451
৮০	-10.5452
▁ইউরোপের	-10.5452
▁উৎসাহ	-10.5455
▁ছবিটির	-10.5455
▁শাড়ি	-10.5458
চু	-10.5462
▁প্রদক্ষিণ	-10.5462
▁রাশির	-10.547
▁দো	-10.5474
▁গ্রুপে	-10.5476
▁যাচ্ছিলেন	-10.5479
▁৮৮	-10.5479
▁কিডনি	-10.5479
▁ফেলুন	-10.5481
▁দয়া	-10.549
▁প্রভাষক	-10.549
▁মারুফ	-10.5495
▁স্টাইল	-10.5496
▁বারের	-10.5496
▁জুমবাংলা	-10.5502
▁ক্রেতা	-10.5503
▁নেপাল	-10.5507
▁মিমি	-10.551
▁মার্কেটে	-10.5513
▁হাসানের	-10.5515
▁অগাস্ট	-10.5515
▁ফরাসি	-10.5515
▁তানভীর	-10.5515
▁টেস্টের	-10.5515
▁৮টি	-10.5517
হান	-10.5522
▁বাদল	-10.5523
▁সাভার	-10.5523
▁স্বজনরা	-10.5524
▁মন্দিরে	-10.5534
▁জনগণকে	-10.5537
▁উইন্ডোজ	-10.5537
▁পোস্টার	-10.5538
▁ছাই	-10.5539
▁অবহিত	-10.5543
▁মৌসুমী	-10.5545
▁সংশোধন	-10.5547
▁('	-10.555
▁স্পর্শ	-10.5552
▁ক্যাম্পাসে	-10.5553
▁ল্যাবে	-10.5555
▁প্রবণতা	-10.5556
ৌ	-10.5558
▁কর্নেল	-10.556
বাদী	-10.5565
▁দিনটি	-10.5568
▁অগ্নিকাণ্ডের	-10.5569
য়াল	-10.5571
▁শোকের	-10.5572
▁দেখলে	-10.5572
▁১৯৭১	-10.5572
▁জিপিএ	-10.5576
▁গিয়েছেন	-10.5579
▁রুল	-10.5579
▁বিপরীত	-10.5582
▁মুরাদ	-10.5582
▁এজেন্ট	-10.5583
ফার	-10.5584
▁কালি	-10.5588
▁যানজট	-10.5589
▁শিক্ষকের	-10.559
▁চ্যানেলে	-10.559
▁সাজ্জাদ	-10.5593
▁লক্ষ্মীপুর	-10.5593
▁মল্লিক	-10.5595
▁জল্পনা	-10.5596
▁ইতিবাচক	-10.5596
▁বর্ষ	-10.5608
▁কাগজপত্র	-10.5611
▁রু	-10.5611
▁দেশি	-10.5613
▁ভার	-10.5613
▁গ্রিন	-10.562
▁ক্যামেরার	-10.562
▁কাহিনী	-10.5625
▁পোর্ট	-10.5626
▁আজিজুল	-10.5629
▁টার্গেট	-10.5629
▁৭৮	-10.563
▁করো	-10.563
▁ঐক্যবদ্ধ	-10.5634
▁৭৬	-10.5635
▁অনুভব	-10.5637
▁আপত্তি	-10.5637
▁মোটা	-10.5639
▁হুঁশিয়ারি	-10.5639
▁বিবৃতি	-10.5651
▁নেমেছে	-10.5651
▁আশেপাশে	-10.5651
▁প্ল্যাটফর্ম	-10.5653
▁সস্তা	-10.5659
▁একান্ত	-10.5659
▁অভিযানের	-10.5659
▁ডাকা	-10.5659
স্তা	-10.5659
▁ফজলে	-10.5662
▁নামিয়ে	-10.567
▁ব্যাংকে	-10.5671
▁সাফ	-10.5673
▁দাঁড়াল	-10.5676
▁প্রচেষ্টা	-10.5676
▁অনুমান	-10.5676
▁ভাষার	-10.5677
▁ম্যানেজমেন্ট	-10.5678
▁ডিগ্রী	-10.5678
▁তুলনা	-10.5679
পুলিশ	-10.5679
▁আজও	-10.5679
▁পরিচালনার	-10.5681
▁পাননি	-10.5682
য়ো	-10.5685
▁পেটে	-10.5687
▁দ্বীপ	-10.569
▁বেড়াতে	-10.5691
▁লভ্যাংশ	-10.5692
▁কাজটি	-10.5694
চট্টগ্রাম	-10.5695
▁২০০৮	-10.5696
▁অ্যাপ্লিকেশন	-10.5699
▁আশুলিয়া	-10.5699
রাত	-10.5699
▁ভর	-10.5705
▁ফোরাম	-10.5706
▁ডেভিড	-10.5707
▁মুখের	-10.5708
▁থাকছেন	-10.571
▁চারা	-10.5716
▁১২টি	-10.5718
টুকু	-10.5719
▁টুকরো	-10.5719
▁পুতিন	-10.572
▁স্যার	-10.572
▁হালিম	-10.5722
▁রুপি	-10.5723
▁চিঠিতে	-10.5724
▁কাঠ	-10.5728
▁৭৪	-10.5729
▁ভারতকে	-10.5731
▁কাউন্সিলের	-10.5731
▁জনপ্রশাসন	-10.5732
▁জার্সি	-10.5735
▁রোডের	-10.5737
আপনার	-10.5751
▁তথ্যপ্রযুক্তি	-10.5751
▁পর্দা	-10.5752
▁পাঠক	-10.5752
▁গুলশান	-10.5758
তারা	-10.5759
▁মুফতি	-10.576
▁সর্বাধিক	-10.5761
▁রিয়াজ	-10.5762
▁গরীব	-10.5764
▁বয়স্ক	-10.5766
▁সংসদীয়	-10.5769
ৃ	-10.5769
▁৬৯	-10.5773
▁ডাটা	-10.5775
▁অডিও	-10.578
▁নূরুল	-10.5784
▁মাগুরা	-10.5785
▁গুরু	-10.5787
▁সমবায়	-10.5788
▁একাডেমির	-10.5788
▁ভালোবাসার	-10.5789
▁বসানো	-10.5789
▁বিধানসভা	-10.579
জুড়ে	-10.5794
▁মাইল	-10.5795
▁পরেও	-10.5797
▁শুনানির	-10.5798
▁বর্গ	-10.5798
▁অভাবে	-10.58
▁চিফ	-10.5807
▁খোলার	-10.5812
▁মরিচ	-10.5813
▁বাতিলের	-10.5813
▁দেশজুড়ে	-10.582
▁ভুক্তভোগী	-10.582
▁যুবদলের	-10.5821
▁অপরিবর্তিত	-10.583
েস	-10.583
▁হতাহতের	-10.583
▁কেননা	-10.5831
▁তালেবান	-10.5833
▁হতেই	-10.5835
▁করণ	-10.5839
▁অনিয়ম	-10.5841
▁কবর	-10.5843
▁লাগছে	-10.5844
▁কানাডার	-10.5845
▁দেওয়ান	-10.5849
▁বাগেরহাট	-10.5851
▁তত	-10.5855
▁উপন্যাস	-10.5857
▁মুন	-10.5858
▁আসেনি	-10.586
▁কেয়ার	-10.5861
▁আকরাম	-10.5871
ভুক্ত	-10.5875
▁অধিকারী	-10.5876
▁মশা	-10.5876
▁এসেছিলেন	-10.5879
▁সাকিবের	-10.5881
র্ধ্বতন	-10.5884
▁পার্শ্ববর্তী	-10.5885
▁চাপে	-10.5886
▁মুগ্ধ	-10.5887
▁টক	-10.5888
▁লাগানো	-10.5889
▁বর্ণাঢ্য	-10.5899
▁করেও	-10.5902
জিত	-10.5902
▁১২টায়	-10.5903
▁স্টেশনের	-10.5904
▁রকেট	-10.5907
েরা	-10.5912
▁ট্রফি	-10.5913
▁মহিউদ্দিন	-10.5913
▁কফি	-10.5917
বার্তা	-10.5917
▁বর্ধমান	-10.5926
▁লিওনেল	-10.5928
▁প্রাণহানি	-10.5928
▁ইঞ্জিনিয়ারিং	-10.5928
▁বউ	-10.5934
নায়	-10.5937
▁মুছে	-10.5939
▁খালেদ	-10.594
▁হ্যা	-10.594
▁স্মারক	-10.5942
▁দিবসটি	-10.5942
▁কিশোরগঞ্জ	-10.5942
▁পাড়ার	-10.5943
বিহীন	-10.5955
▁বৃহত্তম	-10.5955
▁কম্বল	-10.5956
▁নাটকে	-10.5957
▁কুয়াশা	-10.5958
▁তুলেছেন	-10.5962
মত	-10.5962
▁দেরি	-10.5967
▁চাপায়	-10.5969
▁্যাবের	-10.5972
েশ্বর	-10.5974
▁আসাদ	-10.5975
▁কুকুর	-10.5982
▁কাপের	-10.5982
▁প্রদেশে	-10.5984
▁ক্ষতিকর	-10.5985
▁থ্রি	-10.5986
▁প্রদেশ	-10.5987
▁চিকিৎসকদের	-10.5989
▁কন	-10.5991
ছিলাম	-10.6005
▁ম্যাক	-10.6007
▁মেধা	-10.6009
▁ব্যক্তিবর্গ	-10.6012
▁অমান্য	-10.6012
▁২০০৭	-10.6019
▁আব্বাস	-10.6022
▁আফগান	-10.6022
▁ব্লু	-10.6023
▁প্রজাতির	-10.6025
▁সেক্রেটারি	-10.6026
▁শিকদার	-10.6026
▁গৃহবধূ	-10.6038
▁স্পিনার	-10.6039
▁সিবিআই	-10.6039
▁রীতিমতো	-10.6041
লাল	-10.6045
▁আত্মহত্যার	-10.6046
▁খানকে	-10.6047
▁৮২	-10.6055
▁প্রবেশের	-10.6057
▁পিকআপ	-10.6061
▁বারো	-10.6062
▁মহিলার	-10.6067
▁গন্ধ	-10.6067
▁বরগুনা	-10.6068
▁তফসিল	-10.6075
▁ডিসেম্বরে	-10.6075
▁বিশ্লেষণ	-10.6087
▁পারছে	-10.6091
ধা	-10.6092
দেশ	-10.6095
▁প্রকাশনা	-10.6098
▁দাঁত	-10.61
▁সাপেক্ষে	-10.6105
▁ভবিষ্যৎ	-10.6111
▁প্রভাবশালী	-10.6111
ন্ন	-10.6115
▁জার্মানি	-10.6117
▁সিনহা	-10.6122
▁মোতাবেক	-10.6125
▁শওকত	-10.6125
▁বিমানটি	-10.6126
▁নিউজটি	-10.6128
▁রাজনীতির	-10.6133
প্ত	-10.6136
▁ভক্তরা	-10.6139
▁শুকনো	-10.614
▁পিতার	-10.614
▁এএসআই	-10.6145
▁বসু	-10.6149
▁কর্মসূচিতে	-10.615
▁এবছর	-10.6153
▁ত্রুটি	-10.6154
▁স্ট্যাটাস	-10.6154
▁উঠেছেন	-10.6164
তী	-10.6165
▁ফ্ল্যাট	-10.6165
পাড়ার	-10.6167
▁প্রতিপক্ষের	-10.6167
▁নিয়ন্ত্রক	-10.6168
▁আখতার	-10.617
িজ	-10.6172
▁গানটির	-10.6173
▁৮৪	-10.6176
কর্মীরা	-10.6183
▁হত্যাকাণ্ডের	-10.6184
▁সুপারস্টার	-10.6185
▁চিকিৎসায়	-10.6185
▁ধোনি	-10.6192
▁ঝিনাইদহে	-10.6193
▁ব্যাঙ্ক	-10.6196
▁একের	-10.6197
▁এসি	-10.6198
▁১৪২৬	-10.62
▁ধারালো	-10.62
▁মাহমুদুল	-10.6208
▁গবেষকরা	-10.6209
▁রহমানকে	-10.6212
▁লঙ্ঘন	-10.6214
▁লুক	-10.6214
▁নাসিমা	-10.6216
▁মোদির	-10.6219
▁অ্যাওয়ার্ড	-10.6221
▁অন্যায়	-10.6222
পদ	-10.6222
দুল	-10.6224
▁মাদকের	-10.6224
▁আবিষ্কার	-10.6228
▁কমানোর	-10.6229
▁প্রতিনিয়ত	-10.623
▁শপিং	-10.6233
▁বাসটি	-10.6233
ন্না	-10.6239
▁তুহিন	-10.624
▁ছিনতাই	-10.6245
▁১২০	-10.6247
▁মাহি	-10.625
ওয়েস্ট	-10.6254
▁নীচে	-10.6255
▁যাবতীয়	-10.6256
▁অবসান	-10.6257
▁দেশব্যাপী	-10.6257
ডো	-10.6257
▁মেঘনা	-10.6261
▁হাউস	-10.6262
গড়	-10.6266
▁গ্রামীণ	-10.6269
▁লক	-10.6276
িটি	-10.6277
▁তাল	-10.628
▁মায়া	-10.628
▁মুভি	-10.6281
▁তাহের	-10.6282
কী	-10.6284
▁চলাকালে	-10.6285
▁রুপ	-10.6287
▁দিবেন	-10.6289
▁বেন	-10.6291
▁খবরের	-10.6292
▁লিঙ্ক	-10.6292
▁ধসে	-10.6292
▁মর্মান্তিক	-10.6298
▁চেপে	-10.6299
▁বরাবর	-10.6304
▁৭টি	-10.6312
▁তোলেন	-10.6327
▁সঙ্গেই	-10.6331
▁৭৩	-10.6337
▁নিয়েছি	-10.6341
▁পিরোজপুর	-10.6342
▁দাঁড়াতে	-10.6342
নং	-10.6343
▁শামসুল	-10.6343
▁আসরের	-10.6346
▁ম্যা	-10.6348
▁এমএ	-10.6356
▁জন্মগ্রহণ	-10.6357
▁সিয়াম	-10.6359
▁ভাত	-10.636
▁প্লাস্টিক	-10.6361
▁প্রকৃতি	-10.6364
▁বাড়ে	-10.6365
▁যশোরের	-10.6365
▁শোভাযাত্রা	-10.6366
▁নাক	-10.6366
াতে	-10.6367
▁প্রসেসর	-10.6371
▁তথ্যের	-10.6373
▁ট্রেড	-10.6374
▁রয়টার্স	-10.6375
▁মানেই	-10.6378
▁সংকটে	-10.6383
▁কোচিং	-10.6384
▁লন্ডনে	-10.6385
▁ব্যবসার	-10.6394
▁কারাগার	-10.6394
▁তদন্তকারী	-10.6395
▁রাজিউন	-10.6396
▁লো	-10.6398
িস্ট	-10.6398
▁এবিএনএ	-10.6401
▁মেলে	-10.6403
▁ব্রিফিংয়ে	-10.6407
▁ওয়াশিংটন	-10.6413
▁উনি	-10.6414
ডাঙ্গা	-10.6419
▁দফতরের	-10.6425
▁গভর্নর	-10.643
▁হান্নান	-10.643
▁৯টায়	-10.6436
▁তিনজনের	-10.6438
▁হিন্দি	-10.6438
ডে	-10.6442
▁সমগ্র	-10.6442
▁দেওয়ায়	-10.6446
▁দুবাই	-10.6452
▁প্রত্যাহারের	-10.646
▁শহিদ	-10.6461
নু	-10.6467
▁রাই	-10.6467
▁সম্রাট	-10.6469
▁ডিএমপি	-10.6475
▁শতভাগ	-10.6475
▁জলে	-10.6487
▁৮৭	-10.6487
▁৯৫	-10.6488
▁৯৯	-10.6489
▁ফাঁকা	-10.6495
▁প্রাচীন	-10.6495
▁প্রতিবছর	-10.6499
নেট	-10.6502
▁বাস্তব	-10.6502
▁কমিটিতে	-10.6504
▁সমর্থক	-10.6509
▁ইসলামি	-10.651
▁সমঝোতা	-10.6516
▁এভাবেই	-10.6517
▁কর্মসংস্থান	-10.6518
▁হাফ	-10.6518
▁ইউএস	-10.6519
▁রোল	-10.6522
▁বোনের	-10.6526
লীগ	-10.6532
▁নথি	-10.6534
▁ছাত্রদল	-10.6534
▁সৎ	-10.6538
▁সম্মানিত	-10.6538
▁স্বাগতিক	-10.6548
▁কনস্টেবল	-10.6549
▁রিভিউ	-10.6549
▁আন্তরিক	-10.655
▁এসএমএস	-10.6551
▁উদ্ধারের	-10.6557
▁লাইনে	-10.6559
▁দেয়ায়	-10.6561
▁মিন্টু	-10.6567
▁নির্দেশনায়	-10.6569
▁সালমা	-10.6572
লিন	-10.6576
▁ব্যা	-10.6581
▁দিয়া	-10.6583
▁প্রদর্শনী	-10.6583
▁প্রজেক্ট	-10.6583
কন	-10.6585
▁দূষণ	-10.6586
▁আগত	-10.6587
▁ছাদ	-10.6587
▁ভালোভাবে	-10.6588
▁বেকার	-10.6589
▁বাধ্যতামূলক	-10.6594
▁সৈনিক	-10.6594
▁পেপার	-10.6599
▁কমপ্লেক্সের	-10.66
▁সহসভাপতি	-10.66
▁বিমানে	-10.6603
▁মন্ত্রীর	-10.6603
▁অনুষ্ঠানটি	-10.6606
▁টিপু	-10.6606
▁ভট্টাচার্য	-10.6607
▁পাসওয়ার্ড	-10.6609
▁প্রতারণা	-10.6613
▁মানা	-10.6615
▁সূত্রপাত	-10.6615
▁অ্যাসোসিয়েশন	-10.6615
▁রক্তের	-10.6622
▁পিস্তল	-10.6624
▁অ্যাটর্নি	-10.6624
▁কান্তি	-10.6624
▁হানা	-10.6627
▁রিপোর্টে	-10.6628
▁সাহস	-10.6628
▁প্রতিদিনের	-10.6632
▁বাইরের	-10.6634
▁রাসায়নিক	-10.6639
▁টেলিযোগাযোগ	-10.6639
▁শিক্ষার্থীকে	-10.6643
▁শিশুটি	-10.6646
▁সমাজে	-10.6647
▁ব্যবস্থাপক	-10.6648
▁চেম্বার	-10.6648
▁ঘুরতে	-10.6653
▁ইউরোপ	-10.6656
▁শের	-10.6657
▁সাক্ষী	-10.666
▁সারাদেশের	-10.6661
▁জিজ্ঞাসাবাদে	-10.6662
▁ঘন্টার	-10.6667
ন্দা	-10.6668
▁এনজিও	-10.6669
▁কারাদন্ড	-10.6669
রায়	-10.6671
▁রায়ে	-10.6673
▁কথাও	-10.6673
▁কবলে	-10.668
▁আইএস	-10.6683
▁সৈকত	-10.6683
▁করলাম	-10.6688
▁সাজ	-10.6688
▁প্রতিষ্ঠানটির	-10.6688
মেইল	-10.6691
▁তলায়	-10.6695
▁একাউন্ট	-10.6698
▁মানু	-10.6699
▁ফেন্সিডিল	-10.6699
▁বাঁচতে	-10.6699
▁জড়িতদের	-10.6702
▁বিদ্যা	-10.6706
তবে	-10.6707
▁শিমুল	-10.671
▁ডু	-10.6711
▁অনুবাদ	-10.6711
▁যুগান্তর	-10.6714
▁আইয়ুব	-10.6714
▁জিততে	-10.6715
▁যাবৎ	-10.6716
▁মহাসড়ক	-10.6716
▁ব্যবহারকারীরা	-10.6718
▁আসামির	-10.6719
▁ফেডারেশনের	-10.6719
▁ড্রাইভার	-10.6724
▁বদল	-10.6725
▁ইসলামকে	-10.6725
▁উপকার	-10.6725
▁রাজনীতিতে	-10.6727
▁অপশন	-10.6732
টাও	-10.6733
▁বাইডেন	-10.6737
▁আঘাতে	-10.6738
▁আগাম	-10.674
▁অপ	-10.6741
▁সিঙ্গাপুর	-10.6742
▁পারভীন	-10.6745
▁ম্যানচেস্টার	-10.6745
▁৯৮	-10.6745
▁টেমপ্লেট	-10.6749
▁ইন্না	-10.6751
প্রত্যক্ষদর্শীরা	-10.6753
▁ইমেজ	-10.676
▁অন্যান্যের	-10.6761
▁মুদ্রা	-10.6761
▁বেশকিছু	-10.6762
▁ফিরছেন	-10.6763
▁মাদ্রিদ	-10.677
▁৩টার	-10.677
বোধ	-10.6772
▁৮১	-10.6774
▁রসুন	-10.6776
আজ	-10.6783
▁খেলোয়াড়দের	-10.6784
▁ভীষণ	-10.6784
▁ফুড	-10.6786
▁উত্পাদন	-10.679
▁বাসভবনে	-10.6794
▁তেমনই	-10.6795
▁সারাদিন	-10.6796
▁সুশান্ত	-10.68
▁মাসেই	-10.6802
পো	-10.6802
▁আলাউদ্দিন	-10.6806
▁বিজিবির	-10.6814
▁দিলেও	-10.6814
▁আসামিকে	-10.6818
▁বসিয়ে	-10.6823
▁রকমের	-10.6829
▁বানানো	-10.6834
▁এসেছিল	-10.6834
▁টাইগারদের	-10.6834
▁ব্যাপী	-10.6835
▁অদ্ভুত	-10.6836
▁ক্যাটাগরি	-10.6838
নোর	-10.6841
▁বৈশাখ	-10.6843
বিল	-10.6846
▁টঙ্গী	-10.6851
▁ভয়ঙ্কর	-10.6852
▁ফ্লাইটে	-10.6853
▁তিনজনকে	-10.6854
▁ব্য	-10.6855
ুদ্দিন	-10.6855
▁অর্জুন	-10.6856
▁মাটির	-10.6856
▁নিজাম	-10.6858
▁ফেলেন	-10.6864
▁রোবট	-10.6867
▁পদার্থ	-10.6867
▁বিরোধিতা	-10.6867
পাড়ায়	-10.6869
▁আসলাম	-10.6869
▁পিসি	-10.6876
▁নিরাপদে	-10.6877
▁অনুষদ	-10.6882
▁পেট্রোল	-10.6882
▁আলেম	-10.6883
▁বার্ন	-10.6885
▁আমীর	-10.6886
▁শরণার্থী	-10.6888
▁মতিন	-10.6894
▁নেপালের	-10.6896
▁আইসিটি	-10.6896
▁দিলো	-10.6897
▁তৎপরতা	-10.6899
খবর	-10.6906
▁বাই	-10.6906
তিনি	-10.6908
▁সেমিনার	-10.691
▁ঠাণ্ডা	-10.6913
▁মালয়েশিয়ার	-10.6914
▁পৃষ্ঠা	-10.6919
▁স্টেডিয়াম	-10.6922
ম্ব	-10.6927
েন্ট	-10.6928
▁পার্থক্য	-10.6929
ষা	-10.693
▁মৌলিক	-10.693
▁ময়দানে	-10.693
▁এসএ	-10.6935
▁চেয়ার	-10.6938
ুক	-10.694
▁সিকিউরিটি	-10.6942
▁ডিভিশন	-10.6945
▁প্রত্যক্ষদর্শী	-10.6951
▁ধৃত	-10.6952
▁ফেডারেশন	-10.6954
▁সন্তানদের	-10.6958
ইয়া	-10.6962
▁নৌকার	-10.6962
▁কিট	-10.6973
▁অটোরিকশা	-10.6974
▁আতঙ্কে	-10.6975
▁ইনজুরি	-10.6976
▁হাউজ	-10.6977
ইং	-10.6979
▁৮টায়	-10.6981
▁ইতালির	-10.6986
▁তাপস	-10.699
▁কোপা	-10.699
▁যোগাযোগের	-10.6991
▁শ্রাবণ	-10.6991
▁আবৃত্তি	-10.6991
প্রশাসন	-10.6995
▁সন্ধ্যার	-10.7004
▁মিলেছে	-10.7005
নাথ	-10.7006
▁মজিদ	-10.7007
ন্ট	-10.701
▁জানানোর	-10.7012
▁হয়রানি	-10.7013
▁আঃ	-10.7014
▁মেগাপিক্সেল	-10.7017
▁কোর	-10.7022
ইডব্লিউএমজিএল	-10.7022
▁জায়েদ	-10.7023
▁বনানী	-10.7025
য়েল	-10.7031
▁খাঁন	-10.7031
▁১৪২৫	-10.7032
▁দূতাবাস	-10.7037
োয়া	-10.7037
▁ঝগড়া	-10.7038
▁খুলনার	-10.7038
মী	-10.7042
▁উপায়ে	-10.7048
▁জটিল	-10.7049
▁বাগ	-10.7052
▁ভে	-10.7054
▁ফেলার	-10.7054
▁ত্রি	-10.7055
▁ভু	-10.7055
▁দ্বিতীয়বার	-10.7059
▁গ্রাহকরা	-10.7059
▁বাস্তবায়নের	-10.7063
দো	-10.7065
াইল	-10.7073
ফল	-10.7075
▁জরিপ	-10.7076
▁বিশ্বাসের	-10.7079
ঠ	-10.7079
▁শান্তিপূর্ণ	-10.7081
▁নিক্ষেপ	-10.7085
▁সুখবর	-10.7087
▁প্ল্যান	-10.7089
▁স্বামীকে	-10.7091
▁কাণ্ড	-10.7093
▁মডেলের	-10.7098
▁৮৯	-10.7101
▁লেবুর	-10.7107
▁দ্রব্য	-10.711
▁টাওয়ার	-10.7112
▁অস্বাভাবিক	-10.7116
▁মোশারফ	-10.7116
▁স্কয়ার	-10.7117
▁দাঁড়ায়	-10.7117
▁একেএম	-10.7117
▁হাসিনাকে	-10.7121
▁গণপরিবহন	-10.7122
সির	-10.7128
▁শিল্পকলা	-10.7133
▁জাতীয়তাবাদী	-10.7133
▁পুরান	-10.7133
▁স্পেন	-10.7139
▁হাস	-10.7142
▁টাইগাররা	-10.7146
▁নাটকের	-10.7151
▁শ্রমিকের	-10.7151
▁আর্জেন্টিনার	-10.7154
▁সেক্স	-10.7161
▁তুষার	-10.7164
▁এসেছি	-10.7164
▁স্প্যানিশ	-10.7164
জির	-10.7165
▁রাষ্ট্রপতির	-10.7165
▁চ্যাম্পিয়ন্স	-10.7167
▁ফোরামের	-10.717
▁ক্যা	-10.7179
▁ভরে	-10.7179
▁মুহম্মদ	-10.718
▁গজ	-10.7189
▁শয্যা	-10.7189
▁চ্যাট	-10.7189
▁বাড়ায়	-10.719
রণ	-10.7191
▁অসম	-10.7192
▁সিলিন্ডার	-10.7192
▁কর্মকাণ্ড	-10.7193
▁সজীব	-10.7196
কর্মীদের	-10.7202
▁আলোকে	-10.7203
▁অর্থায়নে	-10.7204
▁পিচ	-10.7205
▁পরিত্যক্ত	-10.7212
▁রাইজিংবিডি	-10.7212
▁বাবর	-10.7214
▁দেখায়	-10.7214
▁কাটাতে	-10.7216
▁কালে	-10.7219
বাসীর	-10.7219
▁ব্যবধান	-10.7221
হাজার	-10.7222
▁ভিডিওটিতে	-10.7226
▁অভিনব	-10.7228
▁খারিজ	-10.7228
▁৩য়	-10.7231
▁আস	-10.7234
▁ইন্ডিজের	-10.7238
▁জন্মদিনের	-10.724
▁বেঙ্গল	-10.7244
▁হয়েছিলো	-10.7246
▁অক্ষয়	-10.7248
▁বন্দুক	-10.725
▁সাথেই	-10.7251
▁তাজুল	-10.7253
▁উপরের	-10.7254
▁ভূইয়া	-10.7261
▁আসি	-10.7262
▁কেউই	-10.7264
▁বরিশালে	-10.7266
▁বিক্রেতা	-10.7272
▁পঞ্চায়েত	-10.7273
▁পারছি	-10.7275
▁শফিউল	-10.7276
▁অর্জনের	-10.7277
▁ব্যাটিংয়ে	-10.7277
▁ঝামেলা	-10.7279
▁তারপরও	-10.7285
▁টিকার	-10.7285
▁কার্য	-10.7286
▁একসময়	-10.7286
▁৯টি	-10.7291
▁হাছান	-10.7292
▁তাসকিন	-10.7292
▁বাণী	-10.7293
▁ওসমানী	-10.7298
▁যৌথভাবে	-10.7299
▁স্বজনদের	-10.73
স্টার	-10.73
▁যুক্তি	-10.7312
▁একদম	-10.7318
▁মাদরাসার	-10.7319
▁উঁচু	-10.7324
▁ডাকাতি	-10.7327
এক্স	-10.733
▁৮৬	-10.7338
▁জিজ্ঞাসাবাদের	-10.7338
▁আলাইহি	-10.734
▁দর্শকের	-10.734
▁উড়ে	-10.7341
▁কানাডা	-10.7342
▁নিষেধ	-10.7344
▁বাবাকে	-10.7344
▁নেতাকে	-10.7349
▁ফান্ড	-10.7352
▁চালিত	-10.7352
▁শাওন	-10.7356
▁বলছি	-10.7357
▁চাইতে	-10.7362
ণ্ড	-10.7363
▁কমল	-10.7364
▁ফে	-10.7365
▁ভিউ	-10.7365
▁সুত্রে	-10.7365
▁দ্যা	-10.7368
▁জিন	-10.737
ল্যান্ড	-10.7371
▁ওয়েবডেস্ক	-10.7373
▁খু	-10.7374
▁জাহিদুল	-10.7377
▁বোর্ডে	-10.7378
▁মাহমুদউল্লাহ	-10.7379
ক্র	-10.7379
▁গৃহবধূর	-10.738
▁স্পেনের	-10.7384
▁বেগমের	-10.7387
▁প্রকাশক	-10.7388
আপ	-10.7388
▁রক্তাক্ত	-10.7388
▁সোহরাওয়ার্দী	-10.7389
▁তাৎক্ষণিকভাবে	-10.7391
▁বাসিন্দারা	-10.7394
▁সিটির	-10.7397
▁কোর্টে	-10.7398
▁৭৯	-10.7399
▁সূচি	-10.7401
▁লাশটি	-10.7402
▁শহীদুল	-10.7405
▁ধর্মঘট	-10.7408
▁ঘাটতি	-10.7409
▁সহযোগিতার	-10.7411
▁মন্ত্রণালয়ে	-10.7415
▁প্রচারিত	-10.7416
▁প্যা	-10.7417
▁সাফল্যের	-10.7419
▁আত্মঘাতী	-10.7421
দ্র	-10.7427
▁নিক	-10.7428
▁টিভির	-10.7428
▁দৌলতপুর	-10.7428
▁বঙ্গোপসাগরে	-10.7428
বাজ	-10.743
▁গণমাধ্যমের	-10.7436
▁৩টায়	-10.7437
▁চকরিয়া	-10.7438
▁ছুরি	-10.7439
▁অনুভূতি	-10.744
পশ্চিম	-10.744
▁')	-10.7442
ণা	-10.7442
▁গণভবনে	-10.7444
৭৫	-10.7448
▁তাৎক্ষণিক	-10.7451
▁খেলেন	-10.7451
▁নামবে	-10.7451
▁মনসুর	-10.7454
▁ফেলেছেন	-10.7455
▁যন্ত্র	-10.7455
▁হাফিজুর	-10.7455
▁স্যামসাং	-10.7456
লোক	-10.7457
▁যাবার	-10.7458
▁সংলাপ	-10.7458
▁মাইক্রো	-10.7461
▁একাধিকবার	-10.7463
▁বায়ু	-10.7466
▁গণনা	-10.7466
▁পৃষ্ঠায়	-10.7467
▁স্পেস	-10.7467
্ট	-10.7472
▁বিপাকে	-10.7472
▁সামাদ	-10.7473
▁ক্যাপ্টেন	-10.7474
▁সম্ভবত	-10.7474
▁জিরো	-10.7477
উত্তর	-10.7478
▁ওইদিন	-10.7479
▁সীমা	-10.7479
▁নোয়াখালীর	-10.7485
▁জব্বার	-10.7486
▁হই	-10.749
▁হারিয়েছেন	-10.7492
▁বাঁ	-10.7494
▁হাড়	-10.7494
▁বক্তৃতা	-10.7494
▁ক্রিস	-10.7497
▁বাড়ার	-10.7497
▁প্রধানমন্ত্রীকে	-10.7499
▁আনিসুল	-10.7504
ীদের	-10.7513
ভো	-10.7516
▁ল্যাব	-10.7516
▁মহাকাশ	-10.7518
স্ক	-10.7523
▁সংঘ	-10.7533
▁স্বেচ্ছাসেবী	-10.7536
▁উপেক্ষা	-10.7536
▁নববর্ষ	-10.7536
▁মহামারির	-10.7539
▁উপকারিতা	-10.7539
জের	-10.7543
▁কুমিল্লায়	-10.7545
▁নিরপেক্ষ	-10.7546
▁জিতেছে	-10.7549
▁দীপু	-10.7549
▁ভিতর	-10.7551
▁কার্যনির্বাহী	-10.7552
▁আইটি	-10.7552
িতা	-10.7554
▁পর্যটক	-10.7556
▁শাসক	-10.7557
▁প্যাকেজ	-10.7558
▁রাঙামাটি	-10.7559
▁অবলম্বন	-10.7561
▁৯৬	-10.7568
▁ইরফান	-10.7568
▁ব্রিজ	-10.7569
▁প্রান্তে	-10.7569
▁যাতায়াত	-10.7569
▁প্রতিদ্বন্দ্বী	-10.7572
▁বিজ্ঞানী	-10.7573
▁শত্রু	-10.7574
▁রেখেই	-10.7578
▁আনোয়ারুল	-10.7581
▁সাতটি	-10.7583
▁মিম	-10.7587
▁মেঘ	-10.759
▁কলম	-10.7597
▁অন্যান্যদের	-10.7598
▁পার্থ	-10.7599
▁বাদাম	-10.76
▁সংবাদপত্র	-10.76
▁সনাক্ত	-10.76
▁হাজতে	-10.7602
▁কাশ্মীরের	-10.7609
▁জন্মদিনে	-10.7612
▁ইসরাইল	-10.7613
▁বেড়া	-10.7614
িয়	-10.7614
▁ফেরেন	-10.7614
▁দৌড়ে	-10.7616
▁এরইমধ্যে	-10.7619
▁সেন্টারের	-10.7619
▁বস্ত্র	-10.762
▁হাদীস	-10.7622
▁যুক্তরাজ্যের	-10.7622
উর	-10.7624
▁সাই	-10.7627
▁যাবত	-10.763
▁খামার	-10.7633
▁র্যালি	-10.7634
▁তীরে	-10.7635
▁বচ্চন	-10.7636
▁হতাশ	-10.7637
▁চাচা	-10.7637
▁ঝ	-10.7639
▁রক্ষার	-10.7643
থি	-10.7645
▁কয়লা	-10.7654
▁শিক্ষিকা	-10.7658
নির	-10.766
▁উচিৎ	-10.7668
সং	-10.7669
▁কখনোই	-10.7669
▁নওগাঁর	-10.7674
▁বিস্ফোরক	-10.7674
▁এক্সচেঞ্জ	-10.7679
▁পড়ল	-10.7683
▁সম্মুখীন	-10.7685
▁গাজীপুরে	-10.7685
▁সমালোচনার	-10.7686
▁গাড়ী	-10.7687
▁ব্যবহারে	-10.7689
▁লোকের	-10.769
▁পরপর	-10.769
▁মোনাজাত	-10.7693
▁সন্তানকে	-10.7697
▁বিট	-10.7697
▁গড়ার	-10.7697
প্রতিদ্বন্দ্বিতা	-10.7698
▁মতিউর	-10.7702
▁গৃহীত	-10.7702
চ্ছে	-10.7703
▁আৰু	-10.7703
▁দিনাজপুরের	-10.7704
▁পুজোর	-10.7706
▁নাট্য	-10.7707
▁শ্রেণিতে	-10.771
▁শ্বাসকষ্ট	-10.7711
▁বঙ্গ	-10.7712
▁সাদেক	-10.7716
▁সেন্ট্রাল	-10.7718
▁সাং	-10.7719
▁আড্ডা	-10.7724
▁টে	-10.7726
▁বিবরণ	-10.7729
ডিবি	-10.7729
▁হারের	-10.7731
▁দাবীতে	-10.7733
▁ভুগছিলেন	-10.7735
▁');	-10.7736
▁মুন্না	-10.7736
▁অ্যাকাউন্টে	-10.7742
কল	-10.7743
বিদ	-10.7744
▁হেলিকপ্টার	-10.7746
▁দাবা	-10.7749
▁অত্যাচার	-10.7752
▁পজেটিভ	-10.7752
ছড়ি	-10.7757
▁এটিকে	-10.7758
▁শঙ্কা	-10.776
উল্লাহ	-10.7761
নাম	-10.7762
▁ফ্যান	-10.7763
▁মিনি	-10.7765
▁প্রকোপ	-10.7765
▁সীমান্তের	-10.7766
▁মিলাদ	-10.7767
▁আইনানুগ	-10.7769
▁তৎকালীন	-10.7769
▁জীবিত	-10.777
▁লক্ষে	-10.777
▁অভিনেত্রীর	-10.7771
▁দরে	-10.7771
▁কোম্পানিটি	-10.7775
▁এমনটা	-10.7787
▁লাগার	-10.7788
▁গরিব	-10.7795
▁সাগরে	-10.7796
▁দখলে	-10.78
▁সাদ	-10.7802
▁খাল	-10.7805
।"	-10.7806
▁খালেক	-10.7806
▁প্রেমে	-10.7809
▁বন্ধুর	-10.7817
▁৯৭	-10.7818
সব	-10.7819
▁বিদ্যমান	-10.7819
▁৯১	-10.7826
▁পঞ্চগড়	-10.7827
▁মানি	-10.7828
▁অপসারণ	-10.7828
কাটা	-10.783
▁আয়োজক	-10.7833
উপজেলা	-10.7835
▁প্রতিষ্ঠার	-10.7835
▁কুয়েত	-10.7835
▁শুষ্ক	-10.7836
▁রক্তচাপ	-10.7836
▁গার্মেন্টস	-10.7838
▁জুয়া	-10.7842
▁বললে	-10.7843
▁মূল্যায়ন	-10.7848
ডু	-10.785
▁সিইও	-10.7852
▁নামতে	-10.7852
▁ধনী	-10.7853
পুরুষ	-10.7857
▁চোপড়া	-10.7859
▁ছক্কা	-10.7861
▁থাকতেন	-10.7864
রিক	-10.7864
▁চলাচলের	-10.7865
▁চমকে	-10.7866
▁আব	-10.7874
▁এতটা	-10.7874
বের	-10.7886
▁শ্বশুর	-10.7887
▁চিত্রনায়িকা	-10.7887
▁ঘাটে	-10.7888
▁শর্ট	-10.7888
▁লাখের	-10.7893
▁টান	-10.7894
▁বন্ধে	-10.7895
▁ডেক্স	-10.7896
▁উই	-10.79
▁দিচ্ছি	-10.79
▁চাঁদের	-10.7901
তলী	-10.7902
▁ভিপি	-10.7904
▁ডেভেলপমেন্ট	-10.7904
▁ইয়াসমিন	-10.7904
▁৮৩	-10.7907
▁আংশিক	-10.7908
কারি	-10.7909
▁আদায়ের	-10.7912
▁রোধ	-10.7914
▁গুগলের	-10.7917
▁চালকের	-10.7919
▁ড্রাইভ	-10.7922
▁মির্জাপুর	-10.7925
▁ওয়াই	-10.7926
▁ওয়ালটন	-10.7926
▁শিবির	-10.7928
▁প্রাদুর্ভাব	-10.793
▁অ্যাপটি	-10.7932
▁সমর্থকরা	-10.7932
▁পারবো	-10.7935
▁ফাইবার	-10.7939
কান	-10.7945
▁গায়ক	-10.7945
▁জিম্বাবুয়ে	-10.7949
▁আনন্দের	-10.7952
অধিনায়ক	-10.7952
▁চাইছে	-10.7956
োস	-10.7956
▁আমিরাত	-10.7957
▁রিমান্ডে	-10.7959
▁ওঠেন	-10.7963
▁সালেহ	-10.7966
▁চালের	-10.7967
শিক্ষা	-10.7968
▁সেন্ট	-10.7968
▁ডাবল	-10.7972
দ্য	-10.7973
▁বৃষ্টিতে	-10.7973
▁আবেগ	-10.7974
▁ভালুকা	-10.7978
▁জনি	-10.798
▁ট্রলার	-10.7982
শ্রী	-10.7986
▁শিশুরা	-10.7987
▁খুলনায়	-10.7991
▁বিহার	-10.7995
▁লাইফস্টাইল	-10.7996
ানোর	-10.7998
▁পড়েছিল	-10.7999
▁তত্ত্বাবধানে	-10.8001
▁ব্যবস্থাপনায়	-10.8006
▁ইসরাইলের	-10.8006
▁কার্যত	-10.8012
▁মিছিলে	-10.8014
▁রঞ্জন	-10.8016
▁পেশার	-10.8021
▁ক্ষতির	-10.8023
ঞ্চ	-10.8023
▁ঢুকতে	-10.8025
▁ব্যাবহার	-10.8025
▁যাঁরা	-10.8026
▁ফু	-10.8034
▁বিজয়ীদের	-10.804
▁সমমানের	-10.8041
▁শহীদদের	-10.8041
▁বগুড়ায়	-10.8041
সেন	-10.8045
▁ভিজিট	-10.8047
▁সর্বস্তরের	-10.8051
▁ধারনা	-10.8052
▁জোহর	-10.8055
▁মালিকদের	-10.8057
▁ছেলেদের	-10.8059
▁লুট	-10.8063
▁সময়ই	-10.8067
▁দেখছে	-10.8068
▁লোকজনের	-10.807
▁নাটকটি	-10.8073
▁বাঘ	-10.8073
▁রাশি	-10.8074
▁সংঘটিত	-10.8077
▁কিং	-10.8078
▁স্তরের	-10.8084
লাই	-10.8085
▁৯৪	-10.8091
▁৯২	-10.8107
▁বিষয়গুলো	-10.8107
▁প্রা	-10.8111
▁লকডাউনে	-10.8111
▁লাঠি	-10.8112
▁ইয়া	-10.8114
▁লালমনিরহাট	-10.8114
▁সৃষ্টির	-10.8118
▁দশক	-10.8119
▁পাসের	-10.8122
▁ধর	-10.8128
▁তাড়াতাড়ি	-10.8129
▁ফুলের	-10.8131
▁মাহবুবুর	-10.8133
▁পানীয়	-10.8138
▁ছাড়তে	-10.8141
▁জিম্বাবুয়ের	-10.8143
▁বসুন্ধরা	-10.8146
▁জকিগঞ্জ	-10.8147
▁ইনস্টাগ্রাম	-10.8151
দ্ধ	-10.8157
▁আত	-10.816
ডিএসই	-10.8161
লাইন	-10.8163
▁টুয়েন্টিফোর	-10.8164
▁দ্বিগুণ	-10.8164
▁মাতা	-10.8165
▁আইসিসির	-10.8166
▁পূর্বাভাসে	-10.8167
▁মহ	-10.8171
▁বরিশালের	-10.8172
▁গৌরব	-10.8172
র্ক	-10.8175
▁ক্যাচ	-10.8178
▁সৃষ্ট	-10.8178
▁জার্মানির	-10.8179
▁নিঃশ্বাস	-10.8181
▁মজুদ	-10.8181
হর	-10.8182
▁স্বার্থ	-10.8182
▁ঘটছে	-10.8182
▁কর্মশালায়	-10.8183
েন্স	-10.8185
▁স্মরণে	-10.8187
▁ফিট	-10.8188
▁যাকে	-10.8192
▁সহিংসতা	-10.8198
▁ঘ	-10.8199
▁ছাড়পত্র	-10.82
▁মন্দিরের	-10.8204
▁অসুবিধা	-10.8206
▁খুলতে	-10.8208
▁কুদ্দুস	-10.8217
▁ক্ষুব্ধ	-10.8217
▁স্বাস্থ্যসেবা	-10.822
িট	-10.822
▁১০০০	-10.8221
▁জড়ো	-10.8222
▁আসবেন	-10.8223
▁বার্সেলোনার	-10.8224
▁ভ্যাট	-10.8227
▁বাঁশ	-10.8227
▁৪টা	-10.8228
▁সখীপুর	-10.823
▁ব্যবসায়ীর	-10.8232
▁চর্চা	-10.8232
▁মুসলমান	-10.8234
▁প্রবন্ধ	-10.8235
ইসি	-10.8241
▁মারিয়া	-10.8242
▁রইল	-10.8242
▁অন্তর	-10.8243
▁আদেশে	-10.8244
▁কোলে	-10.8247
▁পুরুষদের	-10.8248
পুরের	-10.8251
▁স্ক্রিন	-10.8253
মুখ	-10.8255
▁ভাবেই	-10.8256
▁বসন্ত	-10.8263
▁অস্তিত্ব	-10.827
▁আতাউর	-10.827
▁ঝুঁকিপূর্ণ	-10.8271
জুলাই	-10.8272
▁রফতানি	-10.8275
▁প্রোফাইল	-10.8279
▁নিউইয়র্ক	-10.828
অব	-10.8282
য়েড	-10.8282
▁সায়েন্স	-10.8287
▁কাটতে	-10.8293
▁পেয়েছিলেন	-10.83
▁জহির	-10.8302
▁হেঁটে	-10.8305
▁গৌতম	-10.8305
▁আটকা	-10.8306
▁ঘুমিয়ে	-10.8312
▁আদিবাসী	-10.8314
▁কৃত্রিম	-10.8323
▁পর্যায়ক্রমে	-10.8323
▁সিলেক্ট	-10.8323
▁জিডিপি	-10.8325
▁৬০০	-10.8329
ইট	-10.8329
▁বাটা	-10.833
▁সমূহ	-10.8334
▁ইউক্রেনের	-10.8335
▁ফাতেমা	-10.8341
▁বহুল	-10.8341
▁মৌ	-10.8341
▁আকতার	-10.8342
▁ভাংচুর	-10.8344
▁সার্কিট	-10.835
▁ভরি	-10.8359
▁তুমুল	-10.836
াৰ	-10.836
▁দুদিন	-10.8365
▁খালিদ	-10.8366
▁ইয়ার	-10.8367
▁অস্ত্রোপচার	-10.8367
▁রুট	-10.8369
▁হারায়	-10.8372
▁খোরশেদ	-10.8376
▁কথিত	-10.8377
▁অন্যরকম	-10.8378
▁সক্ষমতা	-10.838
▁স্বজন	-10.8386
▁হস্তক্ষেপ	-10.8386
▁এখান	-10.8388
▁সালমানের	-10.8392
▁মারমা	-10.8394
ইউএনও	-10.8396
▁চাঁদা	-10.8397
ডিসি	-10.8397
▁ডাকাতির	-10.8399
▁কক্ষ	-10.8403
▁হননি	-10.8406
▁সবশেষ	-10.8409
▁অর্থবছরে	-10.841
▁রাজিব	-10.8412
▁স্বীকারোক্তি	-10.8412
▁সমন্বিত	-10.8412
▁সিরামিক	-10.8413
▁আয়েশা	-10.8413
▁তোমাকে	-10.8414
মোট	-10.8415
লায়	-10.8416
▁কর্মকর্তাকে	-10.8416
তর	-10.8419
সিলেট	-10.8425
▁মমতাজ	-10.8425
▁চেন্নাই	-10.8427
▁ফোর	-10.8428
▁ছিনিয়ে	-10.843
▁পারমাণবিক	-10.843
▁ফার্স্ট	-10.8431
লেট	-10.8432
▁যাদব	-10.8432
মঙ্গলবার	-10.8432
▁লেখার	-10.8433
▁আসামিরা	-10.8434
▁সবই	-10.8435
▁স্বাস্থ্যের	-10.8435
ত্র	-10.8441
▁ফিফা	-10.8441
▁নাহার	-10.8441
▁রেজিস্ট্রার	-10.8445
▁পৌঁছালে	-10.8447
▁পড়ায়	-10.8448
▁আইটেম	-10.8448
▁হয়ত	-10.8449
▁দেননি	-10.845
▁পরিচয়পত্র	-10.8452
জুন	-10.8455
্টি	-10.8457
▁দশকের	-10.8459
▁ক্যাম্পেইন	-10.846
বুল	-10.846
ঠা	-10.8461
পরে	-10.8462
▁বোনাস	-10.8463
▁সিআইডি	-10.8463
▁মুক্তিযোদ্ধাদের	-10.8464
▁সমাধানের	-10.8464
▁মিঠুন	-10.8465
বাবু	-10.8469
▁সিগারেট	-10.8474
▁মুখোপাধ্যায়	-10.8476
▁লিখতে	-10.8476
▁মাইক্রোসফট	-10.848
▁ছাড়িয়েছে	-10.8483
▁মল	-10.8483
▁প্রশংসিত	-10.8484
▁বিউটি	-10.8485
▁ঢেলে	-10.8485
▁তারিখের	-10.8487
▁পর্যটকদের	-10.8495
▁বন্দরের	-10.8497
▁দোষ	-10.8499
▁বাজে	-10.8502
▁নগ্ন	-10.8503
নাল	-10.8503
▁নজরদারি	-10.8505
▁সন্ত্রাসীদের	-10.8505
▁সন্ত্রাসীরা	-10.8506
ভারত	-10.8507
▁হ্যাক	-10.8509
▁শ্রেণী	-10.8511
▁গন	-10.8512
▁পর্ষদ	-10.8513
▁জানালে	-10.8515
▁ডিআইজি	-10.8519
▁যেত	-10.8519
▁সাদিক	-10.8519
▁আত্মসমর্পণ	-10.8521
▁লটারি	-10.8521
▁অভিজ্ঞ	-10.8521
▁মুন্সীগঞ্জ	-10.8523
▁লন্ডনের	-10.8529
বড়	-10.853
▁মাহফুজ	-10.8535
▁হরি	-10.8536
▁সুপ্রভাত	-10.8539
▁বৃহত্তর	-10.8539
▁পশুর	-10.8541
▁বিশ্রাম	-10.8544
লেস	-10.8546
▁স্বাআল	-10.8546
ভে	-10.8546
▁সোসাইটি	-10.8548
দর	-10.8548
▁কক্সবাজারে	-10.855
▁ওজনের	-10.855
▁সিনেমাটির	-10.8552
▁যুগে	-10.8555
▁নাছির	-10.8559
▁র্যাম	-10.856
▁টিউটোরিয়াল	-10.8564
▁প্রবাসীদের	-10.8567
▁গুন	-10.8569
▁প্রতিদিনই	-10.8573
▁তাড়া	-10.8574
▁বীমা	-10.8576
তিন	-10.8576
▁আমজাদ	-10.8576
▁ছড়া	-10.8576
▁অজয়	-10.8578
▁পারা	-10.8578
মাস	-10.8579
▁বস্তু	-10.8583
আমি	-10.8585
▁আশিক	-10.859
▁ইমরুল	-10.8594
▁দোষী	-10.8595
▁ব্যক্তিরা	-10.8597
নুর	-10.8603
▁আমিরাতের	-10.8608
▁অন্যরা	-10.8616
▁সৌজন্য	-10.8618
▁কৌশলে	-10.8619
▁ফেরা	-10.8624
ান্ত	-10.8628
▁বোঝাই	-10.8628
▁টিমের	-10.863
▁ফাহাদ	-10.8631
▁সুনামগঞ্জের	-10.8632
▁আইনমন্ত্রী	-10.8634
▁গোলাপ	-10.8634
▁সংগঠনটির	-10.8638
▁টিকে	-10.8639
▁নবনির্বাচিত	-10.8649
▁মৌসুম	-10.8649
▁কামনায়	-10.865
▁আমান	-10.8651
বুক	-10.8653
▁জিয়াউল	-10.8653
▁খালাস	-10.8655
▁আটটি	-10.8655
▁তারাই	-10.8659
▁ফুটবলের	-10.8661
▁মালা	-10.8664
▁বাসভবন	-10.8664
▁একাদশে	-10.8666
▁পুরষ্কার	-10.8667
▁ব্লাড	-10.867
▁উচ্চতা	-10.8672
▁রাফি	-10.8679
▁চেষ্টার	-10.8682
াক	-10.8684
▁ম্যানেজিং	-10.8686
▁মিলিত	-10.8686
▁ক্যারিয়ারের	-10.8688
▁বাংলানিউজ	-10.8693
উন	-10.8695
▁স্মিথ	-10.8698
়	-10.8701
▁এনেছে	-10.8702
▁শিখ	-10.8704
▁মার্কেটিং	-10.8706
▁বর্ণ	-10.8711
▁কিংস	-10.8712
ন্ডা	-10.8713
▁সভাপতির	-10.8719
প্রিয়	-10.8721
সম	-10.8722
▁আধিপত্য	-10.8723
▁ওয়াজেদ	-10.8723
▁এটিই	-10.8724
▁")	-10.8725
▁উঠল	-10.8726
▁বালি	-10.8726
▁বাকী	-10.8726
▁ক্যাটরিনা	-10.8732
▁ব্যানারে	-10.8736
▁বৈদেশ	-10.8741
▁অর্ধ	-10.875
তন	-10.8755
▁যাব	-10.8756
▁লাগলে	-10.8756
▁সঠিকভাবে	-10.8756
ম্ম	-10.8762
▁পিএসজি	-10.8765
জেন	-10.877
▁আজহার	-10.8771
▁ভাঙা	-10.8772
▁সাইটের	-10.8773
▁বাতাস	-10.8774
▁সরব	-10.8776
▁হেরোইন	-10.8778
▁কন্টেন্ট	-10.8778
▁বাবলু	-10.8778
▁রাব্বি	-10.8779
▁জন্যও	-10.878
লেও	-10.8781
▁মানতে	-10.8783
▁অর্থনীতির	-10.8783
▁জনতার	-10.8784
▁ওরা	-10.8791
▁কমতে	-10.8792
▁বৃষ্টিপাত	-10.8793
▁নই	-10.8796
▁মোবারক	-10.8797
▁তোমরা	-10.8797
▁জবানবন্দি	-10.88
▁সহায়তার	-10.8802
▁ছাড়ার	-10.8809
▁পাহাড়ি	-10.8812
▁ভাষণে	-10.8814
▁তোমাদের	-10.8816
▁মোকাবিলা	-10.8816
▁শেষের	-10.882
▁মেয়েটি	-10.8824
▁লেবু	-10.8829
▁নগরের	-10.883
▁মাহফিলে	-10.8831
▁সিদ্ধান্তে	-10.8832
▁ঝালকাঠি	-10.8832
▁ফিটনেস	-10.8834
▁নেতিবাচক	-10.8834
▁মশিউর	-10.8834
▁রওশন	-10.8835
▁অলিম্পিক	-10.8835
▁৯৩	-10.8836
▁কমান্ড	-10.8836
▁বরফ	-10.8836
▁প্রসঙ্গ	-10.8841
▁পার্কে	-10.8844
রিন	-10.885
মির	-10.8852
▁সুরক্ষিত	-10.8853
▁সফলতা	-10.8854
▁গড়তে	-10.8854
▁আসায়	-10.8862
▁হারাম	-10.8863
▁প্রস্তাবিত	-10.8864
▁ভরা	-10.8868
▁৪টার	-10.8871
▁আখ	-10.8871
▁থিম	-10.8873
▁রিটার্নিং	-10.8873
▁গ্রেড	-10.8874
▁মিনার	-10.8876
সান	-10.8877
▁পুরোনো	-10.8878
▁সাম	-10.8879
▁সবগুলো	-10.888
ম্বা	-10.8881
▁আনুষ্ঠানিকতা	-10.8883
কুমার	-10.8885
▁ধন	-10.8889
▁ফরোয়ার্ড	-10.8891
▁ভাঙ্গা	-10.8893
▁চেয়েও	-10.89
▁প্রকল্পে	-10.8906
▁অসম্ভব	-10.891
▁বন্ধুরা	-10.8915
▁কোরবানির	-10.8916
▁বুঝিয়ে	-10.8917
▁কমবে	-10.8918
▁ভোটারদের	-10.8918
▁ইলেকট্রনিক	-10.892
▁পুলিশি	-10.8922
▁সনাতন	-10.8923
▁আম্পায়ার	-10.8929
ীয়া	-10.8929
▁প্রতিকৃতিতে	-10.8931
▁ট্রেনিং	-10.8937
▁মুসলিমদের	-10.894
▁অক্টো	-10.8947
▁বখাটে	-10.8948
▁নিষেধাজ্ঞার	-10.8948
▁পল	-10.895
মালা	-10.8952
▁লালন	-10.8953
▁মারি	-10.8954
বনাম	-10.8955
▁বজ্রপাতে	-10.8958
খু	-10.8963
▁পেইজ	-10.8966
▁সুনীল	-10.8967
রূপ	-10.897
▁খায়	-10.897
▁ক্ষতিগ্রস্থ	-10.8976
সহকারী	-10.8977
▁তালিকার	-10.8979
▁সেক্টর	-10.8979
▁বান	-10.8981
▁ডো	-10.8984
▁ফারজানা	-10.8986
▁আমেরিকায়	-10.8986
▁৪টায়	-10.8986
▁লক্ষ্যমাত্রা	-10.8986
্যু	-10.8986
▁নির্	-10.8988
▁একদিকে	-10.8989
▁কাছেই	-10.899
▁সাজিয়ে	-10.8991
▁শীতে	-10.8991
▁রিকশা	-10.8993
▁অগ্নি	-10.8995
▁আউয়াল	-10.8995
▁দালাল	-10.8996
▁ক্রেতাদের	-10.8999
▁কল্যাণে	-10.8999
▁চাঞ্চল্য	-10.9004
▁ক্যালিফোর্নিয়া	-10.9005
▁সালাউদ্দিন	-10.9005
▁সার্জারি	-10.9005
▁প্লেয়ার	-10.9005
▁দলিল	-10.9006
▁বন্যার	-10.9006
জীবন	-10.9007
৯০	-10.9012
▁নাথ	-10.9012
▁নৃত্য	-10.9012
▁এয়ারলাইন্সের	-10.9012
▁পাবনার	-10.9015
খোলা	-10.902
হাটি	-10.902
▁পেমেন্ট	-10.9025
▁মিঠু	-10.9025
বুধবার	-10.9032
▁যোগে	-10.9039
▁টমেটো	-10.9043
জনের	-10.9043
▁আপত্তিকর	-10.9043
▁ফাঁসির	-10.9049
▁খাদে	-10.9049
▁বাজেটে	-10.9051
▁প্রান্ত	-10.9053
শৃঙ্খলা	-10.9057
▁আইপিএলে	-10.9058
▁দূতাবাসের	-10.906
▁অপরাধের	-10.9063
৫০০	-10.9066
▁মোহন	-10.9066
ওয়ান	-10.9072
▁বলেছি	-10.9072
▁খানম	-10.9073
▁জান্নাত	-10.9073
▁ব্যাটালিয়ন	-10.9079
▁রিলিজ	-10.9081
ন্দ্র	-10.9087
▁ঘটতে	-10.9088
সোমবার	-10.909
▁সূর্যের	-10.9094
▁ইতালিতে	-10.9095
▁গল্পের	-10.9098
▁এলাকাবাসীর	-10.9099
▁যুবরাজ	-10.91
▁উচ্চারণ	-10.91
▁এক্সিকিউটিভ	-10.91
▁অগ্রসর	-10.91
ফোন	-10.9101
▁তলব	-10.9101
▁প্রবাহ	-10.9102
▁মৃধা	-10.9103
▁ঘড়ি	-10.9104
▁কোয়ার্টার	-10.9106
▁সুন্দরবন	-10.9107
পতি	-10.9111
▁পেশাদার	-10.9116
▁সালাহ	-10.9121
▁নর	-10.9121
▁জলের	-10.9121
▁জটিলতা	-10.9125
▁সাংবাদিকরা	-10.9126
▁ভরসা	-10.9128
ৰি	-10.9129
▁ক্রিকেটাররা	-10.9129
▁দুজনকে	-10.9132
▁বিশেষজ্ঞদের	-10.9132
▁পারফরম্যান্স	-10.9134
▁রোডে	-10.9139
▁মোয়াজ্জেম	-10.9139
▁অগ্রাধিকার	-10.9139
▁উত্তাল	-10.9139
▁আলোকিত	-10.914
▁ধর্ষক	-10.914
▁পতন	-10.9142
▁একদিনের	-10.9143
▁সর্বদা	-10.9143
▁বহনকারী	-10.9145
কস	-10.9145
▁চেয়েছিলেন	-10.9146
য়েন	-10.9152
▁খোঁজে	-10.9155
▁বাঙালির	-10.9159
▁দুপুরের	-10.916
▁গাংনী	-10.9163
সকল	-10.9164
ঙ্গি	-10.9165
▁হাজিরা	-10.9167
▁বিপর্যয়	-10.9171
▁আলিম	-10.9172
▁ট্রাকটি	-10.9175
▁আজকাল	-10.9175
▁মেয়াদে	-10.9177
▁ব্রা	-10.9177
▁জেমস	-10.9179
▁তুলেছে	-10.9182
▁গণিত	-10.9184
▁দেখেছি	-10.9185
▁খণ্ড	-10.919
রহাট	-10.9192
▁টেলিভিশনে	-10.9192
▁নিলামে	-10.9194
▁ব্যাক	-10.9194
▁ক্ষমতার	-10.9195
▁ঋষি	-10.9197
▁দমকল	-10.9197
▁ক্রমশ	-10.9199
▁আজীবন	-10.9201
▁ফিরলেন	-10.9201
▁বাড়ীতে	-10.9204
▁লেখাটি	-10.9207
▁কুচি	-10.921
পন	-10.9211
▁সেবায়	-10.9216
▁ইলেকট্রিক	-10.9216
▁বর্ধিত	-10.9216
▁প্রোডাক্ট	-10.9217
▁রোকেয়া	-10.9217
▁সুব্রত	-10.9217
▁ক্রু	-10.9218
▁মুনাফা	-10.9218
▁পরিদর্শনে	-10.9218
▁কালার	-10.9219
▁পোস্টটি	-10.9219
▁ভালবাসা	-10.9219
িনী	-10.922
▁জগন্নাথ	-10.922
▁একযোগে	-10.9223
▁সময়সীমা	-10.9224
▁ধরন	-10.9224
▁জানাবেন	-10.9225
▁পারিনি	-10.923
▁মন্ত্রিসভার	-10.9234
▁লিয়াকত	-10.9236
▁আফজাল	-10.9236
▁কন্ঠ	-10.9236
▁খবরটি	-10.9237
▁রেখা	-10.9237
▁১১টি	-10.924
▁আলা	-10.925
▁র্যা	-10.9252
▁মুখ্যমন্ত্রীর	-10.9254
▁ঐক্যফ্রন্টের	-10.9257
▁উখিয়া	-10.9257
▁দাদা	-10.926
▁ছাদে	-10.926
▁আহ	-10.9261
▁স্পট	-10.9261
▁ৰ	-10.9261
▁মৃত্যুবার্ষিকী	-10.9262
▁পাইপ	-10.9262
দুর	-10.9265
ানা	-10.9265
কোভিড	-10.9267
▁জ্ঞাপন	-10.9267
▁হবিগঞ্জের	-10.9268
▁আটককৃতরা	-10.9271
▁টো	-10.9271
▁কয়েকবার	-10.9273
▁রবীন্দ্র	-10.9275
▁বর্ডার	-10.9275
▁মধ্যরাতে	-10.9281
▁আশাবাদী	-10.9282
▁দ্বি	-10.9286
▁পৌছে	-10.9286
▁জামায়াতের	-10.9287
▁পিএনএস	-10.9295
▁যুগ্ন	-10.9295
▁জর্জ	-10.9304
▁ঢেকে	-10.9305
▁মঈন	-10.9312
▁পেশা	-10.9315
▁বাসিন্দাদের	-10.9317
▁উপলব্ধ	-10.9317
▁নামার	-10.9319
▁প্রশ্নপত্র	-10.9321
▁প্রজন্ম	-10.9321
▁জাম	-10.9323
▁কিমি	-10.9328
▁ভাবতে	-10.9331
▁টিভিতে	-10.9332
▁শীতবস্ত্র	-10.9334
▁পরিসরে	-10.9335
▁আসছিলেন	-10.9336
▁অনার্স	-10.9337
▁মাঝ	-10.9337
▁হারানো	-10.9337
▁দ্বন্দ্ব	-10.9339
কিউ	-10.934
▁রহমত	-10.9345
▁জুতা	-10.9347
▁মহড়া	-10.9347
▁টিকেট	-10.9353
▁ক্ষতিপূরণ	-10.9354
▁মহসিন	-10.9354
▁লেনদেনের	-10.9355
▁মালয়েশিয়ায়	-10.9355
বেলা	-10.9355
▁তলিয়ে	-10.9355
▁সোজা	-10.9356
▁চেহারা	-10.9358
২০১৬	-10.9359
▁জিডি	-10.9362
▁সম্পৃক্ত	-10.9363
▁কাপে	-10.9369
▁চায়ের	-10.9373
▁পদোন্নতি	-10.9374
▁উইকেটের	-10.9376
▁রবিন	-10.9377
▁স্বদেশ	-10.938
▁এজেন্সি	-10.9382
▁বিস্তৃত	-10.9389
▁সুদ	-10.939
▁শাখায়	-10.9391
▁প্যারিস	-10.9393
▁ক্যালেন্ডার	-10.9393
▁ক্রেডিট	-10.9393
▁সমাজসেবা	-10.9394
▁কাঠামো	-10.9401
▁বিরতি	-10.9401
▁ফেল	-10.9402
▁জনপ্রতিনিধি	-10.9403
▁স্থাপনের	-10.9403
▁পেয়েছিল	-10.9405
▁সমাধানে	-10.9409
▁হুমায়ূন	-10.9413
▁দৌড়	-10.9413
হ্	-10.9414
▁বর্ণিত	-10.9415
▁ইউপির	-10.9416
▁আইকন	-10.9416
▁এ্যাড	-10.9417
ংক	-10.9421
জল	-10.9425
ক্	-10.9426
▁ভয়েস	-10.9429
র্ত	-10.9432
▁গৃহ	-10.9432
▁চার্জশিট	-10.9433
▁সম্পাদিত	-10.9433
▁বর্জ্য	-10.9433
▁লামা	-10.9433
▁বার্সা	-10.9435
টিং	-10.9436
▁ভৈরব	-10.9437
▁আগামীতে	-10.9445
▁ল্যা	-10.9449
খালি	-10.9451
▁কূটনৈতিক	-10.9453
▁টিকটক	-10.9454
▁নাজিম	-10.9455
▁হাতি	-10.9456
▁চন্দন	-10.9459
▁চেয়ারম্যানের	-10.9461
৯৯	-10.9462
▁ইন্টার	-10.9464
▁বসতে	-10.9467
চ্ছ	-10.9469
▁ব্যান্ড	-10.9469
▁হৃদরোগে	-10.9471
ভাব	-10.9471
▁তোফায়েল	-10.9473
▁গিয়াস	-10.9473
▁লিখুন	-10.9473
▁আনিসুর	-10.9474
▁ম্যাগাজিন	-10.9474
▁উঃ	-10.9475
▁গ্রে	-10.9486
▁শ্রীপুর	-10.9488
▁জনবল	-10.9491
▁ফিলিস্তিনি	-10.9491
▁এখানেই	-10.9494
▁সাম্প্রদায়িক	-10.9495
▁কোষ	-10.9496
▁২০টি	-10.9502
▁অ্যাসোসিয়েশনের	-10.9504
▁নু	-10.9508
▁নরম	-10.9508
▁চিত্রনাট্য	-10.9512
▁উদাহরণ	-10.9513
▁গুঁড়া	-10.9513
▁খলিল	-10.9513
▁শুনেছি	-10.9516
▁টুডে	-10.9518
সচিব	-10.9521
ারী	-10.9521
▁টেকটিউনস	-10.9521
▁তরুণীর	-10.9521
▁সেবন	-10.953
াহ	-10.9531
▁টেকনোলজি	-10.9532
▁গি	-10.9532
▁সরিষা	-10.9533
ৰা	-10.9533
বারের	-10.9534
▁অবসরপ্রাপ্ত	-10.9537
▁বন্যায়	-10.9543
গুলিকে	-10.9544
শুক্রবার	-10.9547
▁লাগাতে	-10.9549
▁মুম্বই	-10.955
▁বৈ	-10.955
▁ভেজাল	-10.9553
▁মাতৃভাষা	-10.9553
▁স্প্রে	-10.9553
▁হত্যাকাণ্ড	-10.9554
▁কাস্টমস	-10.9554
▁বিদায়ী	-10.956
▁ভাঙন	-10.9561
▁ফাঁসি	-10.9563
জুল	-10.9563
▁গাছে	-10.957
▁জিএম	-10.9571
পাতা	-10.9573
সেল	-10.9573
▁পহেলা	-10.9574
▁চু	-10.9574
ক্ল	-10.9575
তাম	-10.9576
▁মোকাবেলা	-10.958
▁এরশাদের	-10.9581
▁শিথিল	-10.9582
▁অন্যের	-10.9585
ুম	-10.9588
▁অপরের	-10.9588
▁কাশ্মীরে	-10.9589
▁পাত্র	-10.9589
▁সহ্য	-10.9591
যোগে	-10.9592
▁মতিঝিল	-10.9592
▁এরদোগান	-10.9594
▁কমলা	-10.9596
▁গে	-10.9602
▁১টা	-10.9604
▁কল্পনা	-10.9613
মনি	-10.9617
▁নামায	-10.9618
▁জামিনের	-10.9619
▁করেছিলাম	-10.962
▁কনফারেন্স	-10.9621
▁রবীন্দ্রনাথ	-10.9622
▁পাড়ায়	-10.9628
৭১	-10.9628
বিস্তারিত	-10.9629
▁রিসার্চ	-10.9634
▁ভাট	-10.9642
ারের	-10.9642
▁মনোযোগ	-10.9649
▁৩টা	-10.9652
▁কিবরিয়া	-10.9654
▁পরিস্কার	-10.9655
▁বিমানবন্দরের	-10.9658
ভাই	-10.9659
▁মিয়াকে	-10.966
▁কিশোরীর	-10.9661
▁রাষ্ট্রের	-10.9664
▁মধ্যকার	-10.9666
টের	-10.9667
টাকে	-10.9675
▁কার্বন	-10.9675
▁প্রেসিডেন্টের	-10.9675
জ্ঞ	-10.9675
▁পোড়া	-10.9677
▁ছোঁয়া	-10.9679
▁নরসিংদীর	-10.9681
▁আনন্দে	-10.9687
▁ওভারের	-10.9689
জাতীয়	-10.9693
পরের	-10.9694
▁দিনই	-10.9694
▁অনুমোদিত	-10.9695
▁প্রত্যাখ্যান	-10.9695
▁হেলপার	-10.9695
শ্র	-10.9696
▁মুহূর্ত	-10.9698
জো	-10.9698
▁মধ্যেও	-10.9699
▁ক্যাশ	-10.9702
▁শ্যামল	-10.9702
জেলা	-10.9703
▁আদি	-10.9704
▁ব্রীজ	-10.9706
▁শীল	-10.9709
▁সমর্থিত	-10.9709
▁প্রসাদ	-10.971
▁ইন্সপেক্টর	-10.9713
▁গবেষণার	-10.9714
▁জায়ান্ট	-10.9716
▁হলের	-10.9716
শাহ	-10.9721
▁কোহলির	-10.9729
▁পাঞ্জাব	-10.9729
▁ব্যবসায়িক	-10.9731
▁মুম্বাইয়ের	-10.9732
▁করাতে	-10.9732
কমার্স	-10.9735
▁গ্যালাক্সি	-10.9736
▁প্রাণিসম্পদ	-10.9736
▁প্রতারক	-10.9736
▁জাবেদ	-10.9737
▁দম্পতির	-10.9737
▁মুহূর্তের	-10.9739
▁বিসিবির	-10.9741
িশ	-10.9742
▁মামা	-10.9742
▁অমর	-10.9745
▁গোপাল	-10.9746
▁প্রতিষ্ঠানকে	-10.9748
▁প্রকৃতির	-10.9752
সম্পাদক	-10.9752
▁মিশ্র	-10.9755
কায়	-10.9755
▁উদযাপিত	-10.9757
▁রুখতে	-10.9757
▁সাবধান	-10.9761
্ড	-10.9764
▁তাপ	-10.9771
▁একাই	-10.9771
▁পিপিই	-10.9772
▁হামলাকারী	-10.9773
▁ঝড়ো	-10.9776
▁রক্তে	-10.9777
▁স্পন্সর	-10.9777
▁প্যাকেট	-10.978
▁অপূর্ব	-10.9785
▁তিনদিন	-10.9785
দহ	-10.9789
▁প্রতারণার	-10.9791
▁বরগুনার	-10.9794
ঝ	-10.9794
▁তুর্কি	-10.9798
▁হতদরিদ্র	-10.9798
▁খায়রুল	-10.9798
ডেন	-10.9799
▁শরীয়তপুর	-10.9802
কারীরা	-10.9803
স্প	-10.9803
▁বিষয়ের	-10.9803
▁বাটন	-10.9803
▁্যালি	-10.9804
▁সিল	-10.9805
▁ঝড়ের	-10.9805
▁কমানো	-10.9805
▁ছাপ	-10.9807
▁অন্ধকার	-10.9808
▁লেভেল	-10.981
▁মিরপুরে	-10.981
▁গাঁজাসহ	-10.981
▁পেস্ট	-10.981
▁বিয়েতে	-10.9811
▁ছুটিতে	-10.9811
▁প্রত্যেকের	-10.9811
▁অব্যাহতি	-10.9814
▁রক্ষাকারী	-10.9815
বিডি	-10.9816
▁২টা	-10.9817
▁চিনের	-10.9819
▁কাউন্টি	-10.9819
▁অনন্ত	-10.9821
▁আতঙ্কিত	-10.9823
▁এসোসিয়েশন	-10.9823
▁থাই	-10.9829
ন্ডার	-10.9831
▁হিল	-10.9834
▁বিবি	-10.9839
▁উপকূলীয়	-10.984
▁বর্ষা	-10.9843
▁আশায়	-10.9844
▁রূপে	-10.9846
▁ব্রিটেনের	-10.9849
▁রাজস্থান	-10.9855
▁বাক্য	-10.9857
▁অভিবাসী	-10.986
▁ব্যবস্থার	-10.986
▁শফিক	-10.9861
▁ভাস্কর্য	-10.9861
▁তারপরে	-10.9862
▁নিজেও	-10.9862
▁মূল্যবান	-10.9864
▁সীমানা	-10.9866
▁পাগল	-10.9866
বাড়িয়া	-10.9868
▁বৃক্ষ	-10.9875
▁মেট্রিক	-10.9878
▁যেটি	-10.9879
▁সাত্তার	-10.9881
▁প্যাক	-10.9884
▁পীর	-10.9884
▁বিদ্রোহী	-10.9885
▁বলুন	-10.9886
▁রাউন্ডে	-10.9886
▁দেয়াল	-10.9887
▁টাউন	-10.9889
▁গরমে	-10.9892
▁চাকা	-10.9894
▁অ্যাপস	-10.9894
দলীয়	-10.9896
▁পুর	-10.9901
▁উপযোগী	-10.9902
▁মোদীর	-10.9903
▁ফিল্ড	-10.9903
▁সজল	-10.9904
ফাই	-10.9906
▁হালদার	-10.9906
১টি	-10.9907
▁তাজা	-10.9909
▁কুলাউড়া	-10.991
▁পিলার	-10.9911
▁সুনাম	-10.9912
▁মান্না	-10.9913
▁সিরিয়ায়	-10.9914
▁কাঁধে	-10.9915
▁লক্ষ্মী	-10.9916
▁চত্বর	-10.992
▁ছাগল	-10.9921
▁আর্জেন্টাইন	-10.9922
▁হজরত	-10.9924
▁মিয়ানমারে	-10.9928
দেব	-10.9928
▁তাজ	-10.9931
▁পিঠা	-10.9932
▁হর	-10.9934
▁পেটের	-10.9938
▁রড	-10.9939
▁হুমকির	-10.9942
ডার	-10.9943
▁ক্যাসিনো	-10.9943
▁কসবা	-10.9944
িব	-10.9945
▁কিশোরীকে	-10.9949
▁আইপিএলের	-10.9949
▁অনেকদিন	-10.9951
▁বাক	-10.9953
▁স্কোয়াড	-10.9954
▁গুঁড়ো	-10.9957
্রো	-10.9962
▁যোগাযোগমাধ্যমে	-10.9963
▁সানা	-10.9964
পরি	-10.9967
▁অস্ত্রের	-10.9968
ওয়ালা	-10.9968
▁ছে	-10.9969
▁আফ্রিদি	-10.997
▁মোহাম্মদপুর	-10.9971
স্থল	-10.9972
িয়াল	-10.9983
▁সিরিয়া	-10.9984
▁সংগঠক	-10.9985
▁পাওনা	-10.9986
▁পরিবর্তিত	-10.9986
বন্ধ	-10.9988
▁পুনঃ	-10.9989
▁রেলের	-10.999
▁হরতাল	-10.9992
▁পড়ুয়া	-10.9992
প্রধান	-10.9993
▁চাইছেন	-10.9993
ষ্ঠ	-10.9994
▁গ্রাহকের	-10.9995
▁নিশ্চয়ই	-10.9997
▁মোটরসাইকেলের	-10.9998
▁ডিমের	-10.9999
▁অনশন	-10.9999
▁জোনের	-11.0003
সংক্রান্ত	-11.0006
▁ন্যূনতম	-11.0006
▁নবাগত	-11.0006
▁ইতি	-11.0007
▁পশ্চিমবঙ্গে	-11.0008
বিশেষ	-11.0009
▁দুর্গা	-11.0011
▁ইতোমধ্যেই	-11.0011
▁জেএসসি	-11.0012
▁ঘটনাকে	-11.0013
▁সেটে	-11.0013
▁৭টায়	-11.0014
▁তাকিয়ে	-11.0015
▁টাঙ্গাইলে	-11.0016
▁আর্কাইভ	-11.0018
▁আইজিপি	-11.0022
▁অঙ্গীকার	-11.0027
▁প্রেসিডিয়াম	-11.0028
▁সিএনএন	-11.0028
▁গণ্যমান্য	-11.0028
▁সন্দেহভাজন	-11.0028
▁ঋণের	-11.0029
▁পাড়ে	-11.0029
▁সিঙ্গাপুরে	-11.003
▁স্ট্রোক	-11.0032
ৰে	-11.0032
▁নিয়ন্ত্রন	-11.0033
▁চালুর	-11.0038
▁মন্ত্রিসভা	-11.0039
▁গোপনে	-11.0042
▁টেবিলে	-11.0043
▁পেরেছি	-11.0044
▁উদ	-11.0046
▁সঞ্চয়	-11.0048
▁গ্রেনেড	-11.0049
▁মাগফেরাত	-11.0049
▁গর্ভবতী	-11.0049
▁ডেট	-11.005
▁বাজ	-11.0053
▁গেইল	-11.0056
▁লাভের	-11.0069
সম্পাদনা	-11.0069
▁নির্মাতারা	-11.007
▁শোভন	-11.007
▁পারিশ্রমিক	-11.007
▁অ্যাপের	-11.0076
▁স্যানিটাইজার	-11.0077
▁আটকের	-11.0078
▁ক্যাটাগরিতে	-11.0081
▁বাহাদুর	-11.0087
েন্দ্র	-11.0088
▁গ্রহ	-11.0089
▁১টার	-11.009
▁প্রোটিন	-11.0091
▁দশকে	-11.0092
▁পায়রা	-11.0093
▁হতাশা	-11.0096
▁পৌঁছায়	-11.0096
ল্লাহ	-11.0097
▁মালিকের	-11.0099
ত্ৰ	-11.0104
▁পোশাকে	-11.0106
▁মেলেনি	-11.011
▁কনফারেন্সের	-11.011
বৃহস্পতিবার	-11.0112
▁হালনাগাদ	-11.0113
▁গণশিক্ষা	-11.0113
▁সমন্বয়ক	-11.0119
▁খায়ের	-11.012
▁বলব	-11.012
▁অন্যান্যরা	-11.0121
▁ফাস্ট	-11.0122
▁পেলেও	-11.0124
▁শান্তির	-11.0127
▁শতাংশের	-11.0128
▁কৃষকরা	-11.013
াঞ্চলীয়	-11.013
▁মরদেহটি	-11.0132
▁মোর্শেদ	-11.0134
টাঙ্গাইল	-11.0134
▁লাফিয়ে	-11.0135
▁মাহফুজুর	-11.0135
▁অ্যাটাক	-11.0137
▁বাদে	-11.0138
▁ফুলবাড়ী	-11.0152
কথা	-11.0153
▁নওয়াজ	-11.0155
▁গ্রেফতারি	-11.0155
▁প্রশ্নে	-11.0157
▁হাম	-11.0157
ত্রিদেশীয়	-11.0158
▁একইভাবে	-11.0158
▁বিবিসির	-11.0161
▁ডাউন	-11.0162
▁২০০৬	-11.0165
ফে	-11.0166
▁আমীন	-11.0168
▁সাহসী	-11.017
▁এসআর	-11.0173
বাবা	-11.0174
▁উঠেছিল	-11.0175
▁আস্তে	-11.0175
▁পাতায়	-11.0176
▁টেকসই	-11.0176
▁বালা	-11.0177
▁ডায়েরি	-11.0178
▁বারী	-11.0182
চালিত	-11.0183
▁সহীহ	-11.0185
▁জেড	-11.0186
▁ধরিয়ে	-11.0186
▁শাহেদ	-11.0188
▁আইসিইউতে	-11.0188
▁পাকিস্তানকে	-11.0189
ন্য	-11.019
▁প্রয়োজনীয়তা	-11.0191
মারা	-11.0195
▁ফুলে	-11.0196
▁ছাড়ে	-11.0196
▁শক্তির	-11.0197
▁মুসা	-11.0198
▁শৈলকুপা	-11.0198
▁খসড়া	-11.0198
▁নাসরিন	-11.0198
▁দারুন	-11.0198
▁খেজুর	-11.0199
▁সংশোধনী	-11.0202
▁অবস্থানরত	-11.0202
▁গেমস	-11.0205
▁মেতে	-11.0206
▁আফগানিস্তানে	-11.0208
▁অশান্তি	-11.0211
▁আমল	-11.0215
▁রুটি	-11.0216
▁গুলির	-11.0217
▁সিন্ডিকেট	-11.0219
▁লক্ষাধিক	-11.022
▁চিকেন	-11.022
▁প্রাইভেটকার	-11.0221
খানা	-11.0223
▁খোসা	-11.0231
▁মাইকেল	-11.0231
▁ওয়াল	-11.0234
▁গাজা	-11.0238
▁প্রযোজ্য	-11.0241
▁যৌতুক	-11.0241
▁স্মারকলিপি	-11.0241
▁ব্যায়াম	-11.0241
▁বছরখানেক	-11.0242
করা	-11.0243
াদি	-11.0249
▁বন্ধন	-11.0251
▁ইনিংসের	-11.0251
▁তামিল	-11.0254
▁প্রত্যয়	-11.0254
▁শাহ্	-11.0256
▁কৃতি	-11.0259
▁সীমান্তবর্তী	-11.0263
▁সর্দি	-11.0263
▁নজির	-11.0264
্রা	-11.0264
▁বায়তুল	-11.0264
▁দেহের	-11.027
▁ঘাটাইল	-11.0271
▁বয়ান	-11.0271
▁তালাক	-11.0272
▁বিচ্ছেদ	-11.0273
▁অর্থের	-11.0273
▁সততা	-11.0275
▁পিছু	-11.0275
ভাগ	-11.028
▁চাকরিতে	-11.0281
▁বিরোধের	-11.0281
▁তরিকুল	-11.0284
▁যুদ্ধবিমান	-11.0284
▁খাদ্যসামগ্রী	-11.0285
▁চেতনা	-11.0286
▁সবথেকে	-11.0287
▁ময়লা	-11.029
চিত্র	-11.0291
▁শিবিরে	-11.0292
▁রিং	-11.0302
▁নবীন	-11.0304
▁অবগত	-11.0305
▁বাবদ	-11.0306
▁দেবনাথ	-11.0307
▁বিবিধ	-11.0308
▁সদরে	-11.0322
▁অক্টোবরে	-11.0324
▁পাহাড়ের	-11.0325
▁ঃ	-11.0326
▁দর্শকরা	-11.0327
▁অত্যাধুনি	-11.0328
▁সাইদুল	-11.033
▁শুকিয়ে	-11.033
▁ডাক্তারের	-11.0331
বতী	-11.0334
▁জাদুঘর	-11.034
▁ফুটেজ	-11.0342
ন্ধ	-11.0342
▁বমি	-11.0343
জ্জ	-11.0345
▁ঈশ্বরগঞ্জ	-11.0345
▁অবকাঠামো	-11.0347
▁কাপুরের	-11.0348
▁স্থাপিত	-11.0349
▁সমাচার	-11.035
▁তাক	-11.035
▁নর্থ	-11.0351
▁কথাই	-11.0353
্ন	-11.0353
▁বাণিজ্যমন্ত্রী	-11.0356
▁কাজেই	-11.0358
▁কর্মচারীদের	-11.0359
▁দই	-11.036
▁সর	-11.0361
▁চেষ্টায়	-11.0363
▁উত্তরবঙ্গ	-11.0375
▁সময়সূচি	-11.0377
ধর	-11.0377
▁বাংলাদেশিদের	-11.0377
▁কালিহাতী	-11.0378
▁ইন্টারনেটে	-11.0378
▁টুইটে	-11.038
▁বৈজ্ঞানিক	-11.038
▁জুমার	-11.0383
▁খাঁ	-11.0384
▁বিজ্ঞ	-11.0386
▁নিলাম	-11.0386
টায়	-11.0387
▁শ্রীমঙ্গল	-11.0387
▁সংখ্যালঘু	-11.0388
▁পাচারের	-11.0388
▁নেহা	-11.039
▁ফাঁকে	-11.0393
▁মুহাম্মাদ	-11.0393
▁এএফপি	-11.0393
▁প্রখ্যাত	-11.0394
▁আয়তন	-11.0395
▁ক্যাপ	-11.0397
▁খালেদার	-11.0397
▁দাসের	-11.0403
৬৭	-11.0403
▁শিল্পের	-11.0406
▁স্থিতিশীল	-11.0408
্ত	-11.041
▁কোচের	-11.0412
▁অলি	-11.0413
▁মেহেদি	-11.0415
▁টেনিস	-11.0415
▁মোল্লার	-11.0416
ানী	-11.0417
▁হুয়াওয়ে	-11.0418
▁ঠিকই	-11.042
▁চুক্তিতে	-11.042
▁থা	-11.0423
▁সংসারে	-11.0424
টিয়া	-11.0426
▁বিজয়ের	-11.0426
▁সোসাইটির	-11.0426
ছো	-11.0428
▁ধানমন্ডি	-11.0429
▁কাঞ্চন	-11.043
▁মানবতার	-11.043
▁আসাম	-11.0432
▁লস	-11.0434
আল	-11.0436
▁ইমিগ্রেশন	-11.0437
▁কনটেন্ট	-11.0437
▁বিজয়নগর	-11.0437
▁ইউনুস	-11.0438
▁কাট	-11.0438
▁সাহেদ	-11.0438
▁পরিষদে	-11.044
িয়াম	-11.044
▁ইরানি	-11.044
▁প্রজ্ঞাপনে	-11.0441
▁ছুরিকাঘাতে	-11.0442
▁দপ্তরে	-11.0442
▁জানুন	-11.0443
▁কার্যক্রমে	-11.0444
▁ওয়াটার	-11.0444
▁ওয়ার্নার	-11.0447
ন্দি	-11.0449
▁বন্ধুত্ব	-11.0454
▁ঘাম	-11.0454
প্রযুক্তি	-11.0455
▁বাজি	-11.0457
▁সাক্ষাৎকার	-11.046
▁মুহিত	-11.0461
▁য	-11.0461
▁ইস	-11.0462
▁ইসরায়েল	-11.0464
গী	-11.0465
র্ন	-11.0467
২টি	-11.047
মারী	-11.0476
▁প্রচারে	-11.048
▁ঝড়ে	-11.0481
▁বিষাক্ত	-11.0481
পূর্বের	-11.0483
▁মেরামত	-11.0498
▁দক্ষিন	-11.0499
▁ওষুধের	-11.0502
▁তথ্যসূত্র	-11.0503
▁দৈনন্দিন	-11.0503
▁হিজরি	-11.0503
▁জাতের	-11.0504
▁প্রয়াস	-11.0504
শনিবার	-11.0508
▁সমৃদ্ধি	-11.0508
▁হাজারো	-11.0509
▁স্প	-11.0511
▁পশ্চিমা	-11.0512
্যে	-11.0515
▁স্বস্তি	-11.0519
▁ব্যতিক্রম	-11.0519
▁প্লাস্টিকের	-11.052
▁দাঁড়ানোর	-11.052
▁জিতেছেন	-11.052
▁দুইজনকে	-11.0521
▁আধিকারিক	-11.0523
▁২টার	-11.0524
▁দৃঢ়	-11.0525
▁অ্যাসিড	-11.0525
▁মেকআপ	-11.0525
▁টেক্সটাইল	-11.0526
▁বকেয়া	-11.0526
▁ট্রেনটি	-11.0526
▁ঝুলিয়ে	-11.0527
জয়	-11.053
▁নামা	-11.053
▁খুঁজতে	-11.0535
▁ফেটে	-11.0535
▁তৈরিতে	-11.0536
▁নিম	-11.0538
ধারী	-11.0538
▁শ্রাবন্তী	-11.0541
▁বাঘা	-11.0544
হী	-11.0546
চন্দ্র	-11.0547
▁ইলাইহি	-11.0548
▁সাদ্দাম	-11.0548
▁পাউন্ড	-11.0548
▁লিপ্ত	-11.0549
▁ঢাবি	-11.0549
▁আপেল	-11.055
ধু	-11.055
▁সাধন	-11.0559
▁রিয়া	-11.0561
▁নির্বাচনকে	-11.0562
▁বসেই	-11.0562
▁কৰা	-11.0562
বীর	-11.0565
▁বুথ	-11.0566
▁মেয়েটির	-11.0566
▁আর্ট	-11.0566
▁ধু	-11.0568
▁ব্যবহারকারীর	-11.0572
▁আওয়াজ	-11.0573
▁এনিয়ে	-11.0574
▁লাইনের	-11.0577
▁হারানোর	-11.0577
াঙ্গ	-11.0577
টিভি	-11.0577
▁গেজেট	-11.0579
▁পৌঁছান	-11.0582
▁সংশ্লিষ্টদের	-11.0584
▁প্রান্তিক	-11.0585
বুত	-11.0585
▁আতিকুল	-11.0587
▁লজ্জা	-11.0588
▁ফর্ম	-11.0589
▁ব্যয়ে	-11.059
▁স্মার্টফোনের	-11.059
▁মতলব	-11.0593
▁সারোয়ার	-11.0593
▁্যালী	-11.0593
▁সভাকক্ষে	-11.0593
▁জীবনযাপন	-11.0593
▁শোয়েব	-11.0593
▁গ্র্যান্ড	-11.0594
▁উৎসাহিত	-11.0595
ঁচ	-11.0596
▁উপকূলে	-11.0598
▁কিউ	-11.06
▁দিনেই	-11.0602
▁নামাজে	-11.0606
▁শিক্ষাগত	-11.0607
▁তাতেই	-11.0608
ছবি	-11.0611
▁২০০১	-11.0613
▁নিয়মে	-11.0614
▁মূলক	-11.0615
▁আকন্দ	-11.0615
▁ভাসমান	-11.0615
▁চাঞ্চল্যকর	-11.0615
▁মিলল	-11.0616
▁মাইক	-11.0616
▁প্রবাসীর	-11.0617
▁লেডি	-11.0618
▁বিপিএল	-11.0618
▁এআর	-11.0622
▁যাপন	-11.0626
▁কর্তৃপক্ষকে	-11.0626
▁বৈষম্য	-11.0627
:'	-11.0627
▁পাতার	-11.0628
▁যুবদল	-11.063
ওয়ে	-11.0633
▁কটাক্ষ	-11.0637
▁প্রক্টর	-11.0638
▁সেনাদের	-11.0638
▁প্রতিমা	-11.0639
▁কাসেম	-11.0641
গর	-11.0642
▁আগমন	-11.0642
▁জাগো	-11.0642
▁দায়িত্বশীল	-11.0642
▁সোনিয়া	-11.0643
▁দাখিলের	-11.0643
নিউজটাইম	-11.0647
▁সেদিকে	-11.0649
▁৬টার	-11.065
পথ	-11.0651
▁তারকাদের	-11.0652
▁মশার	-11.0654
▁নিধন	-11.0661
▁আমিরুল	-11.0663
▁ওবামা	-11.0667
▁প্রাইম	-11.0671
▁মৌসুমের	-11.0674
টোয়েন্টিতে	-11.0675
▁লাগা	-11.0675
▁ট্যাক্স	-11.0676
▁সংঘের	-11.068
৫টি	-11.068
▁গোলরক্ষক	-11.0682
▁শ্বাস	-11.0684
▁৮০০	-11.0685
▁মনিটরিং	-11.0685
▁চৌ	-11.0685
▁সরল	-11.0686
▁যশোরে	-11.0686
▁স্থল	-11.0687
▁কোষাধ্যক্ষ	-11.0687
▁প্রকাশিতঃ	-11.0695
জাত	-11.0696
াদ	-11.0697
স্তান	-11.0703
▁তোলপাড়	-11.0705
▁বিশেষভাবে	-11.0705
▁গোল্ডেন	-11.0705
▁পারায়	-11.0705
কিন্তু	-11.0712
▁ক্রেতারা	-11.0712
▁খেলবেন	-11.0713
▁আরমান	-11.0713
▁সংস্কারের	-11.0714
▁অবহেলা	-11.0715
র্ব	-11.0716
▁ডন	-11.0719
▁বৃদ্ধা	-11.072
▁ইন্ডিয়ার	-11.0721
▁গৌরীপুর	-11.0721
▁আমিও	-11.0726
▁যন্ত্রপাতি	-11.0727
্যান	-11.0728
▁রুজু	-11.0729
▁জানাচ্ছে	-11.0729
▁অপরাধী	-11.0737
▁কাপড়ের	-11.0742
▁সন্তুষ্ট	-11.0749
▁শার্শা	-11.075
▁পিক্সেল	-11.075
▁আজিজুর	-11.0754
▁ওয়ানডেতে	-11.0754
▁থ	-11.0757
▁ঠাকুরগাঁওয়ে	-11.0758
শক্তি	-11.0759
▁প্রবৃদ্ধি	-11.0759
৭৭	-11.0761
▁জানিয়েছিল	-11.0762
▁জাপানি	-11.0765
▁আজিম	-11.0765
৬৯	-11.0765
▁তিতাস	-11.0773
▁পর্যায়	-11.0773
▁জামা	-11.0775
▁নোমান	-11.0777
কর্মচারী	-11.0781
▁ট্রেলার	-11.0784
▁হারাতে	-11.0785
র্শ	-11.0787
ণী	-11.0791
▁চ্যাম্পিয়নস	-11.0792
▁অনেকেরই	-11.0795
এসপি	-11.0797
▁জ্বালা	-11.0799
▁ভুগছেন	-11.0799
▁শেয়ারবাজার	-11.08
▁উপপরিদর্শক	-11.0801
▁নেশা	-11.0802
বাণিজ্য	-11.0803
▁রাজনীতিবিদ	-11.0804
▁মহানগরীর	-11.0807
▁এইসব	-11.0809
▁পূজার	-11.0812
ুস	-11.0817
▁ইফতেখার	-11.0818
▁দাম্পত্য	-11.0818
▁ধূমপান	-11.0818
▁ফিল্টার	-11.0818
▁কাউন্টার	-11.0818
▁শনি	-11.082
▁ফ্রান্সে	-11.0823
▁ক্ষেত্রেও	-11.0824
▁বসত	-11.0826
▁কাদেরের	-11.0826
▁আসবাবপত্র	-11.0827
েম	-11.0828
▁সেভ	-11.0829
▁গণতন্ত্রের	-11.0831
সিন	-11.0832
▁পত্রিকায়	-11.0832
▁সেমি	-11.0834
▁জান	-11.0838
▁রংপুরের	-11.0839
▁ভোরের	-11.084
▁এবিষয়ে	-11.0841
▁বিপর্যস্ত	-11.0841
▁নেতৃস্থানীয়	-11.0841
▁তিস্তা	-11.0842
▁টেলিকম	-11.0843
জী	-11.0843
▁শর্তে	-11.0844
খান	-11.0846
▁বডি	-11.0847
▁ধা	-11.085
▁টোল	-11.085
▁গম	-11.085
▁বিপদে	-11.0853
▁বসা	-11.0853
▁অত্র	-11.0855
▁বাগানে	-11.0857
▁মাঝি	-11.0858
▁সংশ্লিষ্টরা	-11.0859
▁বিল্ডিং	-11.0862
▁মাঝামাঝি	-11.0863
▁তত্ত্বাবধায়ক	-11.0864
▁বাজেটের	-11.0865
▁সাইদুর	-11.0865
▁হৃদরোগ	-11.0867
▁অন্যত্র	-11.0869
ীত	-11.0871
▁তারাও	-11.0874
▁তিনবার	-11.0875
▁আমাদেরকে	-11.0877
▁শ্যুটিং	-11.0879
বার্ষিক	-11.0886
▁কৃতিত্ব	-11.0886
র্ট	-11.0887
▁খুচরা	-11.0887
▁পরিচর্যা	-11.0887
▁টেকনিক্যাল	-11.0887
৮টি	-11.0888
▁জান্নাতুল	-11.089
৬৮	-11.0891
▁ঘা	-11.0891
▁ডিসেম্বরের	-11.0892
▁বকুল	-11.0893
▁ঘি	-11.0898
▁গ্যা	-11.09
▁দুনিয়ার	-11.0901
বেল	-11.0901
▁সংগঠনটি	-11.0901
▁বড়ো	-11.0903
▁রূপগঞ্জ	-11.0906
▁উদ্ধারকৃত	-11.0907
▁সালাত	-11.0908
▁লিফলেট	-11.091
▁অন্তঃসত্ত্বা	-11.091
▁লোগো	-11.0911
▁রঙিন	-11.0911
▁নির্মূল	-11.0912
▁কাদির	-11.0912
▁কার্	-11.0912
▁পৰা	-11.0918
▁মার্কেটের	-11.0925
▁পরীক্ষার্থীদের	-11.0929
▁হত্যায়	-11.0929
▁ইন্সটল	-11.0933
▁রউফ	-11.0933
▁মাধ্যমেই	-11.0935
▁ইয়র্ক	-11.0936
এমপি	-11.0937
▁পরাজয়	-11.0938
▁কর্পোরেট	-11.0939
▁মহামারীর	-11.0939
▁নীলফামারী	-11.0942
▁ঠিকাদার	-11.0943
▁অভিনেতার	-11.0944
▁নগরীতে	-11.0948
কর্ম	-11.0948
▁প্রত্যেকটি	-11.095
▁আন্তঃ	-11.0951
▁পাঠিয়েছেন	-11.0953
▁কমায়	-11.0955
▁ক্যাপশনে	-11.0955
▁বিল্লাল	-11.0956
▁অ্যালবাম	-11.0956
▁চিত্রনায়ক	-11.0957
▁প্রতিযোগী	-11.0957
▁আতিকুর	-11.0957
▁রাঙ্গামাটি	-11.0963
▁মধুর	-11.0964
দিকে	-11.0965
▁এমনকী	-11.0966
▁লেখাপড়া	-11.0968
▁১৫টি	-11.0974
▁গ্রেপ্তারের	-11.0976
িরা	-11.098
নীয়	-11.0983
লেই	-11.0984
▁মার্চের	-11.0986
▁বর্ষণ	-11.0987
▁খাবেন	-11.0988
▁চড়	-11.099
▁রিপোর্টার্স	-11.099
ক্রি	-11.0994
▁যেই	-11.0994
▁রাশিয়ান	-11.0995
▁জব	-11.0996
নীতি	-11.0997
▁ছাত্রের	-11.0997
▁ওয়ার	-11.1
▁যেনো	-11.1
▁মজিবুর	-11.1003
পথে	-11.1003
▁রিক্সা	-11.1003
▁প্রতিনিধিরা	-11.1005
▁রাখলে	-11.1006
▁পারাপার	-11.1006
▁টেকনাফে	-11.1008
▁উত্তরের	-11.1008
িনা	-11.1011
ডব্লিউ	-11.1012
মার্চ	-11.1014
▁দামের	-11.1014
টিও	-11.1017
বান্ধব	-11.102
▁রোনালদোর	-11.102
▁পর্দার	-11.1022
▁অভিভাবকদের	-11.1022
চক্র	-11.1023
▁জুডিশিয়াল	-11.1026
▁শাপলা	-11.1026
▁রংপুরে	-11.1027
▁কার্ডের	-11.1029
দাতা	-11.1036
▁ট্যাংক	-11.1037
▁বাড়িতেই	-11.1044
▁গঙ্গা	-11.1052
▁চালককে	-11.1054
▁ডিস	-11.1054
সমূহের	-11.1055
▁দায়েরের	-11.1056
দুদক	-11.1058
▁তরল	-11.106
▁তাণ্ডব	-11.1061
▁স্টল	-11.1063
▁আবাসন	-11.1065
বছর	-11.1065
▁পাড়	-11.1066
▁বাচ্চাদের	-11.1067
▁হাঁস	-11.1071
▁পুষ্পস্তবক	-11.1073
▁পেনাল্টি	-11.1073
▁সোবহান	-11.1073
▁অংশগ্রহন	-11.1074
▁সাজাপ্রাপ্ত	-11.1074
▁বেলজিয়াম	-11.1074
ন্ডি	-11.1074
ফাত	-11.1076
▁প্রত্যেককে	-11.1077
▁সুত্র	-11.1079
▁গল্পে	-11.108
▁নিয়েছিল	-11.1081
▁বেলায়	-11.1084
▁ইভেন্ট	-11.1086
সিসি	-11.1088
লিং	-11.1088
▁উপকূল	-11.1093
▁বেশির	-11.1094
▁ক্ষেত্রেই	-11.1094
▁দেশগুলো	-11.1094
্ম	-11.1095
▁মাশরাফির	-11.1096
▁সুনির্দিষ্ট	-11.1096
▁মুমিনুল	-11.1098
▁জহুরুল	-11.1098
▁এলেন	-11.1098
▁প্রথমার্ধে	-11.1099
▁মেদ	-11.1101
▁কর্মীর	-11.1101
▁পাম্প	-11.1101
▁স্প্যান	-11.1103
▁সেলাই	-11.1104
অ্যা	-11.1105
▁নিয়ন্ত্রিত	-11.1105
▁বিক্ষোভে	-11.1108
▁দুবাইয়ে	-11.1108
▁ফলের	-11.1109
এটি	-11.111
▁চক	-11.1112
টিক	-11.1112
▁দেই	-11.1112
▁বিশ্বনাথ	-11.1114
র্ষ	-11.1117
▁তবু	-11.112
▁দ্বিতীয়ার্ধে	-11.112
▁খনন	-11.112
৬৬	-11.1121
▁ঘুমের	-11.1122
দিনের	-11.1123
▁তপন	-11.1124
▁হয়রানির	-11.1126
▁অগ্নিকাণ্ডে	-11.1134
▁পেছন	-11.1135
রান	-11.1136
▁একাংশ	-11.1141
কাম	-11.1148
▁রয়ে	-11.1149
▁মেঘলা	-11.1151
▁শেরপুরে	-11.1151
▁মহম্মদ	-11.1152
মেন	-11.1152
সদস্য	-11.1154
লাইট	-11.1154
িদের	-11.1158
▁দামি	-11.1158
লির	-11.1164
▁পাপন	-11.1166
▁মওদুদ	-11.1167
▁যুক্তরাজ্যে	-11.1167
▁বিলম্ব	-11.1169
▁আনেন	-11.1171
▁দায়িত্বরত	-11.1173
▁দৈর্ঘ্য	-11.1173
ল্ড	-11.1173
▁সাংবাদিকতা	-11.1174
ধার	-11.1174
▁সেবক	-11.1176
▁মেগা	-11.1178
▁জয়পুরহাট	-11.1178
▁শাহবাগ	-11.1179
▁তরুণীকে	-11.118
▁সম্মতি	-11.1181
▁মিশ্রণ	-11.1183
▁জনসাধারণের	-11.1183
▁রিয়ার	-11.1191
▁ইবাদত	-11.1191
▁ব্যাটালিয়নের	-11.1194
সদর	-11.1196
হিত	-11.1197
▁আঘাতের	-11.1203
▁মহলে	-11.1204
▁শব্দের	-11.1204
▁ভিসি	-11.1207
ধান	-11.1209
▁উড়োজাহাজ	-11.121
▁আসামীদের	-11.1211
▁ট্রাইব্যুনাল	-11.1211
▁ক্যান	-11.1211
▁সুস্বাদু	-11.1215
▁প্রক্রিয়ায়	-11.1215
▁মাল্টি	-11.1215
▁দীর্ঘদিনের	-11.1217
▁দৃশ্যমান	-11.1218
▁ইনস্টিটিউটের	-11.1219
▁পরিবহণ	-11.122
▁ফলাফলে	-11.1222
▁আনন্দিত	-11.1228
জাল	-11.1228
▁সূ	-11.1229
▁সৌজন্যে	-11.1231
▁হোটেলের	-11.1236
▁ম্যাচেই	-11.1236
▁মুহুর্তে	-11.1236
▁শিশির	-11.1239
▁বানাতে	-11.1239
নতুন	-11.1239
▁বসবাসরত	-11.124
▁নামকরণ	-11.124
ইন্না	-11.124
▁প্রবাহিত	-11.1241
▁ট্রে	-11.1241
▁ইউনিভার্সিটির	-11.1243
বিজ্ঞান	-11.1249
▁দেখছি	-11.1252
▁বুলেটিনে	-11.1253
▁রমনা	-11.1255
▁জং	-11.1255
▁চেসবিডি	-11.1262
▁লিওন	-11.1265
▁চারপাশে	-11.1267
▁লগ	-11.1268
্ল	-11.1268
▁চারজনকে	-11.1271
নিরীক্ষা	-11.1275
▁শব্দটি	-11.1276
বিন	-11.1276
▁সেপ্টেম্বরে	-11.1277
▁সংঘাত	-11.1278
▁পুন	-11.1279
▁কোয়ারেন্টিনে	-11.1282
পুত্র	-11.1283
▁অভিবাসন	-11.1284
▁খসরু	-11.1286
▁রসায়ন	-11.1287
▁সচল	-11.1288
৭৮	-11.129
▁নাতি	-11.1295
▁প্রাক	-11.1295
▁এমআর	-11.1304
▁অভিমান	-11.1304
টেন	-11.1307
▁লাশের	-11.1308
▁পথচারী	-11.1309
!!	-11.131
▁চলন্ত	-11.131
▁শীর্ষস্থানীয়	-11.1311
▁বশির	-11.1311
ভিন	-11.1312
▁নারায়ণ	-11.1313
খে	-11.1315
▁জননেত্রী	-11.1316
▁আয়াত	-11.1317
▁শিক্ষকরা	-11.1317
▁মহি	-11.1318
▁এ্যা	-11.1318
▁ডিউটি	-11.1321
▁পাখির	-11.1322
▁জেগে	-11.1324
্রি	-11.1326
ারে	-11.1332
▁উৎপাদনের	-11.1332
▁চলাচলে	-11.1333
▁প্রিমিয়াম	-11.1334
▁মাগফিরাত	-11.1334
ণি	-11.1335
▁পুতুল	-11.1335
▁কর্মকান্ড	-11.1336
▁আশ	-11.1341
▁ক্ষেত্র	-11.1345
▁ইউক্রেন	-11.1346
▁মন্ত্র	-11.1348
▁লেন	-11.1348
▁বিষয়টা	-11.1349
িপ	-11.1349
▁ওমান	-11.135
▁ব্যাটে	-11.1351
ীতে	-11.1353
▁অনুভূত	-11.1357
▁উপার্জন	-11.1358
▁ইস্পাত	-11.1358
▁দোকানপাট	-11.1359
▁স্পিড	-11.136
▁অয়েল	-11.1363
▁শুক্র	-11.1363
▁শুয়ে	-11.1363
▁ছড়িয়েছে	-11.1365
িকে	-11.1366
ত্তা	-11.1366
▁ডাকে	-11.1367
▁নভে	-11.1368
▁পাথরঘাটা	-11.137
▁সাদিয়া	-11.1371
▁পপি	-11.1372
▁নয়াপল্টনে	-11.1373
▁সেনারা	-11.1373
আমিন	-11.1376
▁মিনারে	-11.1377
▁লড়াইয়ের	-11.1378
▁ঐক্যফ্রন্ট	-11.1381
র্স	-11.1381
▁চ্যাম্পিয়নশিপ	-11.1382
▁ইজিবাইক	-11.1382
▁কায়েস	-11.1385
▁শেখের	-11.1386
▁বাহার	-11.1389
▁পূর্ণিমা	-11.139
▁বিপিএলের	-11.1391
খন	-11.1392
▁প্রেমিকা	-11.1392
▁৬টায়	-11.1393
▁বাতাসে	-11.1394
ঘটনায়	-11.1394
▁ক্যারিয়ারে	-11.1397
▁গণহত্যা	-11.1397
দীপ	-11.1398
▁!!	-11.14
▁বিরক্ত	-11.1401
▁ছয়জন	-11.1406
▁ক্ষত	-11.1406
বাজারে	-11.1406
▁পারফর্ম	-11.1407
▁অং	-11.1409
▁প্রেসক্লাবে	-11.1411
▁মৌলভীবাজারের	-11.1411
▁কর্মসূচীর	-11.1413
▁বন্ড	-11.1415
▁ট্যাব	-11.1415
▁দাউদ	-11.1417
▁দুস্থ	-11.142
ময়মনসিংহ	-11.1422
▁তারকারা	-11.1424
▁ওয়াচ	-11.1424
▁জানাচ্ছেন	-11.1424
▁ভাবছেন	-11.1424
▁ফেলি	-11.1427
▁ক্যানসার	-11.1429
▁দুনিয়ায়	-11.143
▁রাণী	-11.1431
▁আষাঢ়	-11.1431
▁প্রত্যাবর্তন	-11.1431
▁হুসেইন	-11.1431
▁সাক্ষ্য	-11.1431
▁কণ্ঠশিল্পী	-11.1432
▁স্টিল	-11.1432
▁ঢল	-11.1433
▁সংযোজন	-11.1435
▁বিনিয়োগকারীদের	-11.1437
▁অশ্লীল	-11.1437
▁দাঁড়ালো	-11.1437
▁চায়না	-11.1438
▁এটির	-11.1439
▁শার্ট	-11.1442
▁ভোলার	-11.1444
র্ম	-11.145
েবল	-11.1452
হাই	-11.1452
▁বান্দরবানে	-11.1454
▁প্রদত্ত	-11.1455
▁নবাব	-11.1456
▁কারেন্ট	-11.1456
শিয়া	-11.1457
▁জন্মের	-11.1462
▁ফাঁকি	-11.1467
য়ন	-11.1468
▁হতাহত	-11.1469
▁পারলেও	-11.1469
▁নেইমারের	-11.1472
▁টিটু	-11.1473
াংশ	-11.1473
▁বলবেন	-11.1478
▁উদ্বিগ্ন	-11.148
▁অনিয়মের	-11.1482
▁উচ্চশিক্ষা	-11.1483
▁সেভাবে	-11.1484
▁আত্মবিশ্বাসী	-11.1485
শার	-11.1486
▁পুল	-11.1487
▁কিশোরের	-11.1487
▁১১০	-11.1489
▁আমের	-11.1492
৬২	-11.1493
▁পৌঁছাতে	-11.1496
▁গৃহবধূকে	-11.1496
▁উদ্ভাবন	-11.1496
▁সুখী	-11.1496
বেসরকারি	-11.1496
৬৩	-11.1497
▁তিল	-11.1497
ত্	-11.1499
▁ফজলুর	-11.1499
▁ব্র্যান্ডের	-11.15
▁ডিফেন্স	-11.1503
▁পাশেই	-11.1504
▁ভিডিয়ো	-11.1504
৭৩	-11.1505
▁ঘাঁটি	-11.1511
▁সঙ্গীয়	-11.1512
ালি	-11.1514
▁হজম	-11.1515
িষ্ট	-11.1516
▁মারে	-11.1521
▁ধারে	-11.1522
▁বাস্তবে	-11.1522
▁চল	-11.1522
▁ছাত্রদের	-11.1524
▁রাখছেন	-11.1525
▁পেরেছে	-11.1526
ণে	-11.1527
▁দফতরে	-11.1527
▁কমছে	-11.1527
▁ব্রিজের	-11.1528
▁প্রণব	-11.1529
▁মাল্টিমিডিয়া	-11.1529
▁হাতেনাতে	-11.1529
▁শিরীন	-11.1529
▁অন্তর্গত	-11.1529
▁শিশুসহ	-11.1532
▁ইসলামপুর	-11.1532
▁বানান	-11.1533
▁যুগের	-11.1535
▁২০০৫	-11.1542
▁মানুষজন	-11.1544
ক্তি	-11.1544
▁সেনার	-11.1545
ডিপি	-11.1549
▁বালক	-11.155
▁প্রবাস	-11.1552
▁চক্ষু	-11.1554
▁মধ্যদিয়ে	-11.1554
▁বর্জন	-11.1554
▁উইথ	-11.1555
৬৪	-11.1557
▁আরবি	-11.1557
▁রোমান	-11.1563
▁বিড়াল	-11.1564
▁শ্রীলংকা	-11.1568
▁০১৭	-11.1578
▁আশংকা	-11.1578
▁চেয়ারপার্সন	-11.1578
▁মোহাম্মাদ	-11.1579
▁ছুড়ে	-11.1582
▁অংশের	-11.1583
▁বসেন	-11.1585
▁মুস্তাফিজ	-11.1588
▁৭০০	-11.1589
▁ময়মনসিংহে	-11.1589
▁ঘটেনি	-11.1591
▁বুদ্ধি	-11.1592
▁ত্বকে	-11.1592
ঘাটা	-11.1593
▁হাটহাজারী	-11.1593
▁হাতিয়ে	-11.1594
ঘাত	-11.1596
▁তর	-11.1599
উপ	-11.16
▁সাহায্যের	-11.1601
▁বেপরোয়া	-11.1603
▁মাইলফলক	-11.1603
▁অ্যাম্বুলেন্স	-11.1603
▁ফয়েজ	-11.1603
▁ডিএসইতে	-11.1603
▁নড়াইলে	-11.1603
▁স্নান	-11.1604
গ্র	-11.1605
▁জন্মবার্ষিকী	-11.1605
▁মোসাদ্দেক	-11.1606
▁রেফারি	-11.1608
▁গড়া	-11.1614
▁আপনিও	-11.1614
▁আহতরা	-11.1614
▁প্রথমেই	-11.1615
▁যন্ত্রণা	-11.1615
▁নিউইয়র্কে	-11.1616
▁সুরে	-11.1619
▁অসীম	-11.1625
▁রেজাল্ট	-11.1628
▁হিংসা	-11.1633
▁সংবাদমাধ্যমের	-11.1634
য়েট	-11.1635
▁বক্তব্যের	-11.1637
▁শ্রীনগর	-11.1641
▁অংশগ্রহণকারী	-11.1643
▁মার্চে	-11.1643
▁অভিযোগপত্র	-11.1648
▁জানুয়ারিতে	-11.165
▁বাদশাহ	-11.1651
▁আঙুল	-11.1651
▁প্রভৃতি	-11.1652
▁সৃজিত	-11.1652
▁চঞ্চল	-11.1652
▁ট্রায়াল	-11.1652
▁পলি	-11.1653
▁উন	-11.1653
▁প্রণয়ন	-11.1654
▁সম্পদের	-11.1655
▁মধুপুর	-11.1655
কিছু	-11.1657
▁পড়লেন	-11.1659
...-	-11.1661
▁রীতি	-11.1661
র্থ	-11.1663
▁ক্রিম	-11.1665
▁ব্যানার	-11.1667
▁সুরক্ষার	-11.1667
▁ইনস্টল	-11.1675
▁ভাবা	-11.1675
▁খে	-11.1675
ত্য	-11.1676
▁সংস্পর্শে	-11.1677
▁তওহীদ	-11.1677
▁গুইমারা	-11.1677
▁বাইপাস	-11.1677
▁ঘোড়া	-11.1679
▁তাস	-11.168
▁মাজার	-11.1683
▁রোগীকে	-11.1684
▁নয়াদিল্লি	-11.1686
▁দেখেই	-11.1688
▁ব্যাক্তি	-11.1694
▁ফলো	-11.1698
৯৮	-11.17
▁বৃহৎ	-11.1702
▁হেক্টর	-11.1702
▁পাল্টে	-11.1702
▁রোপন	-11.1703
▁লুৎফর	-11.1704
▁য়ে	-11.1705
ম্	-11.1708
▁লিঙ্গ	-11.1708
▁পাপ	-11.1708
▁নাগ	-11.171
▁মৃ	-11.1711
▁মনো	-11.1712
▁মর	-11.1712
▁মোটরসাইকেলে	-11.1713
▁রানার	-11.1713
▁রমজানের	-11.1714
▁ছুঁয়ে	-11.1716
▁কৃষিবিদ	-11.172
▁পিঠে	-11.1721
▁ওয়াজ	-11.1725
▁উৎপাদিত	-11.1727
▁পুনর্বাসন	-11.1727
▁আবাদ	-11.1727
▁পরিচ্ছন্ন	-11.1728
▁জিনিসপত্র	-11.1729
▁শিখতে	-11.173
▁প্লেট	-11.173
▁কাঠের	-11.1731
▁ইডি	-11.1732
▁নৌকায়	-11.1733
▁কোনোভাবেই	-11.1733
▁চটি	-11.1735
▁জিম	-11.1739
▁প্রশান্ত	-11.1739
▁অবাধ	-11.1744
▁একাডেমিক	-11.1745
▁আইসোলেশন	-11.1748
▁লিভার	-11.1752
▁স্ট্যান্ডার্ড	-11.1752
▁মুক্তিযুদ্ধে	-11.1753
▁পপ	-11.1759
সময়	-11.1767
▁দেশবাসীর	-11.1768
▁ওয়েবসাইটের	-11.1769
▁বরাবরই	-11.177
▁ছড়ায়	-11.1772
▁নিচ	-11.1777
▁পাটোয়ারী	-11.1777
▁মেডিসিন	-11.1777
▁সিসিটিভি	-11.1777
▁বান্ধবী	-11.1782
▁ক্লিনিক	-11.1788
▁যাত্রীর	-11.1789
▁একটাই	-11.1791
▁বিধবা	-11.1802
▁চিংড়ি	-11.1802
▁হিন্দুস্থান	-11.1804
▁কলারোয়া	-11.1804
▁বসার	-11.1805
▁মোংলা	-11.1805
▁এক্সচেঞ্জে	-11.1806
▁শ্বাসরোধ	-11.1806
▁ডাকসু	-11.181
▁মিরর	-11.1813
ক্কা	-11.1814
▁বিবাহিত	-11.1815
ট্রা	-11.1818
▁বন্দী	-11.182
▁ভাঙার	-11.1822
ছিলো	-11.1822
▁লোকাল	-11.1823
▁মৌখিক	-11.1825
▁অর্	-11.1826
▁পলক	-11.1827
▁জাকারিয়া	-11.1828
▁প্রণোদনা	-11.1828
▁সংগীতশিল্পী	-11.1828
▁সুবাদে	-11.1828
▁হিসেব	-11.1828
▁১৩টি	-11.183
▁২০০৪	-11.183
▁আলহাজ	-11.183
▁প্রতিকার	-11.1833
▁আইনজীবীরা	-11.1834
ভাল	-11.1835
হো	-11.184
দিক	-11.1842
দ্দ	-11.1842
▁সাতক্ষীরায়	-11.1843
▁আত্মবিশ্বাস	-11.1847
▁কোরবানি	-11.1848
▁ইভিএম	-11.1852
▁প্রদর্শিত	-11.1853
▁মর্তুজা	-11.1853
▁আমানত	-11.1854
▁পূর্বের	-11.1856
স্ত্রী	-11.1858
▁সামর্থ্য	-11.1858
িও	-11.186
উট	-11.1862
▁লোকেরা	-11.1863
▁১৪টি	-11.1864
▁ইরাকের	-11.1865
▁আলীকে	-11.1868
▁প্রাপ্তি	-11.187
▁পার্টিতে	-11.187
▁দিনাজপুরে	-11.1871
''	-11.1876
▁করিনি	-11.1877
▁সমর্থনে	-11.1877
▁নোংরা	-11.1878
▁পুনরুদ্ধার	-11.1878
▁গর্বিত	-11.188
▁তানিয়া	-11.1881
▁সেমিনারে	-11.1884
▁প্রসব	-11.1885
▁মোস্তাফিজ	-11.1888
▁ঢাকাগামী	-11.1889
গেট	-11.1891
পক্ষ	-11.1893
▁মর্যাদায়	-11.1903
▁বিহারের	-11.1903
▁সাভারের	-11.1903
▁সমুদ্রের	-11.1905
▁অবধি	-11.1906
▁এজাহার	-11.1909
▁মেহের	-11.1911
▁ব্র্যাক	-11.1912
▁সমাপ্তি	-11.1913
▁শাশুড়ি	-11.1919
▁নিই	-11.1919
▁বাদি	-11.192
▁রানি	-11.1924
▁নির্দেশিকা	-11.1924
▁ব্রেকিং	-11.1924
▁নবীগঞ্জ	-11.1924
মূল	-11.1926
▁শিক্ষককে	-11.1928
▁চিৎকারে	-11.1929
▁দড়ি	-11.1929
খো	-11.193
স্বাস্থ্য	-11.1931
▁হাইকমিশনার	-11.1933
▁তদারকি	-11.1936
▁কর্মীকে	-11.1936
▁ভঙ্গ	-11.1941
▁ইসরায়েলের	-11.1941
▁বিএম	-11.1943
▁ফ্রী	-11.1943
াপ	-11.1943
▁ভবিষ্যত	-11.1948
মিয়া	-11.1949
৮৬	-11.1951
▁এএসপি	-11.1953
▁ধাওয়ান	-11.1953
৮৫	-11.1954
▁অনুপ্রেরণা	-11.1955
▁এব্যাপারে	-11.1955
▁ব্যাহত	-11.1955
▁আখতারুজ্জামান	-11.1956
▁রবার্ট	-11.1959
▁তারকার	-11.1959
কলা	-11.196
▁গোলটি	-11.1963
▁বকর	-11.1965
▁ফলন	-11.1967
মেয়ে	-11.1967
বদ্ধ	-11.1968
▁হেয	-11.1971
▁বছরই	-11.1971
▁বাতাসের	-11.1973
▁লেক	-11.1973
▁গঠনে	-11.1976
▁পূ	-11.1977
▁শুধুই	-11.1979
▁অংশগ্রহণে	-11.198
▁এবারে	-11.198
▁মুরগির	-11.198
▁ইমতিয়াজ	-11.198
▁মহোদয়	-11.198
▁কাতারের	-11.1981
▁চুক্তিবদ্ধ	-11.1981
▁বাড্ডা	-11.1986
৯৫	-11.199
মূল্য	-11.1995
▁বেপারী	-11.1995
তন্ত্র	-11.1996
▁৫টায়	-11.1997
▁১৩০	-11.1997
▁পরিণতি	-11.2001
▁নিরসনে	-11.2004
▁ডিন	-11.2005
▁রহস্যজনক	-11.2006
▁প্রক্রিয়াধীন	-11.2007
▁মাস্টার্স	-11.2008
▁সাশ্রয়ী	-11.2008
▁বোরো	-11.201
▁প্রচারের	-11.2012
▁গাইবান্ধার	-11.2015
▁সৈয়দপুর	-11.2015
▁এমএস	-11.2016
▁শার	-11.2018
▁হাওড়া	-11.2019
▁পিএসসি	-11.202
৩টি	-11.2024
▁বাড়ীর	-11.2026
▁চুপ	-11.2026
▁নির্মাণাধীন	-11.2033
▁মালিকানা	-11.2034
▁নুন	-11.2035
▁আলমডাঙ্গা	-11.2038
▁তারিক	-11.204
▁ছাত্রীদের	-11.204
▁কচুয়া	-11.2042
▁ছি	-11.2042
▁লেন্স	-11.2044
▁জাজিরা	-11.2046
▁মানচিত্র	-11.2047
▁টসে	-11.2048
▁ঈদগাহ	-11.2052
▁ধার	-11.2053
▁প্রেমিকের	-11.2056
▁জুবায়ের	-11.2058
▁পৌঁছেছেন	-11.206
▁ক্রস	-11.206
সাই	-11.2062
▁খাতা	-11.2065
তির	-11.2065
ছড়া	-11.2067
▁বেতার	-11.2071
স্কি	-11.2072
▁ঢেউ	-11.2073
▁নারায়ণগঞ্জে	-11.2073
▁সোহান	-11.2074
▁আখের	-11.2075
মুল	-11.2076
▁আহাদ	-11.2077
▁মুদি	-11.2079
ীম	-11.2083
▁আশীর্বাদ	-11.2084
▁পাউডার	-11.2084
▁লেফটেন্যান্ট	-11.2084
▁ওমরাহ	-11.2084
▁সাজে	-11.2085
▁প্রতীকে	-11.2085
▁ক্ষয়	-11.2089
ক্রম	-11.2089
▁উত্তরপ্রদেশের	-11.2091
▁কণ্ঠে	-11.2092
▁যতটা	-11.2094
▁পর্ষদের	-11.2095
▁করানোর	-11.2096
▁শচীন	-11.2096
▁ভাইকে	-11.2097
▁টেলি	-11.2101
▁ভিশন	-11.2104
বাসস	-11.2105
▁প্যান্ট	-11.2108
যোগ	-11.2109
▁কোতোয়ালি	-11.211
▁সোহরাব	-11.211
▁অপহৃত	-11.211
৯টি	-11.211
▁রিচার্জ	-11.211
▁মুস্তাফিজুর	-11.2111
▁দূত	-11.2115
▁বৃষ্টিপাতের	-11.2117
▁শর	-11.2117
▁বুদ্ধ	-11.212
▁বিতরণী	-11.2124
▁বিছানা	-11.2124
▁শেয়ারের	-11.2127
ক্ষা	-11.2132
▁বয়	-11.2133
▁সামনেই	-11.2135
▁পৌরসভায়	-11.2135
▁পাল্লা	-11.2135
▁ক্রমাগত	-11.2136
▁সম্প্রদায়	-11.2136
▁কাটাকাটি	-11.2136
▁পার্টনার	-11.2139
▁সেগুলি	-11.214
▁নাচোল	-11.2141
৮৩	-11.2142
▁বিরতির	-11.2142
▁ভবনটি	-11.2143
▁আনন্দবাজার	-11.2146
▁প্রতিভা	-11.215
▁ফিলিস্তিন	-11.2152
ক্রমে	-11.2159
গঞ্জে	-11.2159
▁খোকা	-11.216
৭২	-11.2161
▁মুন্সী	-11.2161
▁ফুটে	-11.2161
▁সিলভার	-11.2162
▁নিম্নলিখিত	-11.2162
▁সমাজকল্যাণ	-11.2162
▁সংস্থাটির	-11.2164
কালের	-11.2164
▁বিতর্কের	-11.2165
▁স্বচ্ছ	-11.2166
▁লোকসান	-11.2166
▁আভাস	-11.2167
▁আয়কর	-11.2167
▁শিল্পীদের	-11.2168
▁দিলাম	-11.2168
▁সোনারগাঁয়ে	-11.2168
▁সাহিত্যিক	-11.2169
▁ফুটিয়ে	-11.2176
াচ্ছে	-11.2177
ব্যা	-11.2177
▁প্রিয়া	-11.2178
▁অসুস্থতার	-11.218
▁কানাডায়	-11.2182
▁উষ্ণ	-11.2183
▁কর্মস্থলে	-11.2183
৯৬	-11.2183
▁প্রস্তুতকারকের	-11.2184
▁কান্না	-11.2184
▁ত্রান	-11.2189
▁খনিজ	-11.2191
▁মেদিনীপুর	-11.2195
কুর	-11.2199
▁রুহ	-11.2199
৪টি	-11.2199
▁সদস্যবৃন্দ	-11.2202
৮৮	-11.2207
▁ইসরাইলি	-11.2208
▁জিহাদ	-11.221
সামাজিক	-11.221
▁আয়ারল্যান্ড	-11.221
ছন	-11.221
▁মিট	-11.2211
▁এদেশের	-11.2211
৭৯	-11.2212
▁জোরপূর্বক	-11.2215
▁শেরেবাংলা	-11.2215
ণের	-11.2215
▁বেঞ্চে	-11.2215
▁হলরুমে	-11.2215
▁৫ম	-11.2216
▁মহাখালী	-11.2217
▁গোপালপুর	-11.2217
▁সুবিধার	-11.2224
▁বদর	-11.2226
▁আখাউড়া	-11.2228
▁থাক	-11.2228
৭টি	-11.2232
▁পদত্যাগের	-11.2233
▁হিসেবেই	-11.2234
▁সন্ধানে	-11.2234
▁কাতারে	-11.2238
▁নৌবাহিনী	-11.2238
দ্রুত	-11.2239
▁নামছে	-11.224
▁আহম্মদ	-11.224
▁খাদিজা	-11.224
▁মকবুল	-11.2241
▁নেয়নি	-11.2241
▁আন্ত	-11.2241
▁মহেশপুর	-11.2244
▁বিটিআরসি	-11.2244
▁স্তন	-11.2244
▁চাবি	-11.2244
▁সেলিনা	-11.2244
▁গোল্ড	-11.2246
৭৬	-11.2246
▁জামিনে	-11.2247
▁সিমেন্ট	-11.2247
াইয়া	-11.2248
▁ঠিকানায়	-11.2249
ল্ট	-11.225
▁ঢামেক	-11.2251
▁আরিয়ান	-11.2258
▁মধ্যরাত	-11.2258
ুই	-11.2259
▁শুরুটা	-11.2259
▁সাইটটি	-11.226
▁রেলপথ	-11.2262
▁মাদ্রাসায়	-11.2263
▁মিথিলা	-11.2264
▁ঘটিয়ে	-11.2265
▁নভেম্বরে	-11.2266
▁মটর	-11.2267
▁মাঝেই	-11.2267
▁ফেব্রুয়ারিতে	-11.2267
▁ধাপের	-11.2269
▁কানে	-11.2273
▁নাগরপুর	-11.2274
▁টয়লেট	-11.2275
▁আক্রমণে	-11.2277
▁জামাই	-11.2283
▁শ্লোগান	-11.2284
▁জানালা	-11.2287
▁সেজে	-11.2287
▁লিপি	-11.2288
▁ব্যাপকভাবে	-11.229
▁প্রাঙ্গনে	-11.2293
▁লাইব্রেরি	-11.2293
▁ভয়ংকর	-11.2294
▁ইয়াসিন	-11.2294
▁কৌ	-11.2294
▁পাচ্ছি	-11.2295
▁বিজেপিতে	-11.2296
▁মাধবপুর	-11.2297
▁পাহাড়ে	-11.2298
▁খুললেন	-11.2298
▁কালী	-11.23
▁মামুনু	-11.23
▁হেরেছে	-11.2301
▁পালনে	-11.2302
▁বেসরকারী	-11.2304
োন	-11.2308
▁আজহা	-11.2309
▁চেয়েছে	-11.2309
▁ফারহানা	-11.231
সিস	-11.2311
▁বৈধতা	-11.2311
▁স্বা	-11.2312
▁জোরে	-11.2313
▁সেসময়	-11.2315
▁ফারিয়া	-11.2315
▁অ্যাপে	-11.2315
▁গুলশানের	-11.2316
▁স্তরে	-11.232
▁চোরাচালান	-11.232
▁মুস্তফা	-11.232
▁হেলমেট	-11.232
▁চরিত্রের	-11.2323
▁বিল্লাহ	-11.2324
▁নাগরিকের	-11.2329
▁যোগী	-11.2331
ওয়াল	-11.2331
▁পাঠকদের	-11.2338
▁বুকিং	-11.2341
▁সমতা	-11.2344
▁বিচারপতির	-11.2346
▁কেমিক্যাল	-11.2346
▁দিনমজুর	-11.2346
▁জন্মশতবার্ষিকী	-11.2347
▁ভগবান	-11.2347
▁অবিশ্বাস্য	-11.2347
৯৭	-11.2347
▁শিখা	-11.2348
▁ভাজা	-11.2349
▁লোহার	-11.235
আমরা	-11.2352
▁নির্মাণে	-11.2352
▁জীবাণু	-11.2354
▁সায়	-11.2355
পন্থী	-11.2357
▁হেফাজত	-11.2359
▁আড়ালে	-11.236
▁মোবাইলের	-11.2361
সিক	-11.2362
▁ভারি	-11.2365
▁বিনিয়োগের	-11.2369
ট্র	-11.2369
▁কুষ্টিয়ায়	-11.2371
চক	-11.2372
▁ওড়না	-11.2374
▁লাগান	-11.238
▁দুইজনের	-11.238
▁জঙ্গিদের	-11.2381
▁টম	-11.2381
▁খাগড়াছড়িতে	-11.2381
▁ইজতেমা	-11.2383
পান	-11.2384
▁ক্যামেরায়	-11.2388
বর্তী	-11.239
▁আমন	-11.2392
▁মন্ডলের	-11.2392
▁ঘরবাড়ি	-11.2393
▁বোলারদের	-11.2393
▁দুজনেই	-11.2394
▁ছুরিকাঘাত	-11.2394
▁আত্মপ্রকাশ	-11.24
সংলগ্ন	-11.2401
▁দমকা	-11.2402
▁জওয়ান	-11.2404
▁ভাইরাসটি	-11.2404
▁মজুরি	-11.2407
▁খ্রিস্টান	-11.2408
▁জ্যোতি	-11.2408
▁পেন	-11.241
স্ট্র	-11.2413
▁১৪০	-11.2417
িভ	-11.2418
▁জ্যাক	-11.2418
▁চাপের	-11.242
▁ডুব	-11.2425
▁পোস্টের	-11.2426
দ্	-11.2426
▁ঢালিউড	-11.2427
▁কাক	-11.2428
▁সাহার	-11.2428
▁মিনা	-11.243
▁অস্থায়ীভাবে	-11.2432
▁ফিরবেন	-11.2432
▁কোস্ট	-11.2432
▁অস্ত	-11.2433
▁মহিষ	-11.2433
▁মিলছে	-11.2434
▁সহকর্মী	-11.2434
▁ডিলার	-11.2435
কিয়া	-11.2441
▁সমীক্ষা	-11.2441
▁বাসস	-11.2442
াশ	-11.2444
▁উদ্ভিদ	-11.2453
▁ভূষিত	-11.2454
▁রাউজান	-11.2454
▁ভাঁজ	-11.2454
▁স্ট্রিট	-11.2454
প্রকাশ	-11.2455
বস	-11.2455
▁আপডেটঃ	-11.246
▁''	-11.246
▁আর্মি	-11.2463
▁গোলাগুলি	-11.2463
▁নগরী	-11.2464
স্বজন	-11.2464
▁জগত	-11.2465
পাকিস্তান	-11.2465
▁ভূমিকম্পে	-11.2466
৬টি	-11.2466
মানের	-11.2467
▁সত্যিকার	-11.2467
তান	-11.2468
লন	-11.2471
কিন	-11.2473
▁হরিণ	-11.2474
জিয়া	-11.2475
▁মরিয়া	-11.2476
▁তিনিই	-11.2477
▁নাটোরে	-11.2478
নূর	-11.248
বাছাই	-11.2481
▁ওয়াসিম	-11.2482
▁অধীন	-11.2483
▁ডিফেন্ডার	-11.2485
▁বাক্স	-11.2487
▁ইইউ	-11.2487
▁দাও	-11.2488
▁সাথী	-11.2488
▁জীবনী	-11.2491
▁অভ্যন্তরে	-11.2492
▁চড়ে	-11.2494
▁পেরেছেন	-11.2495
ট্রি	-11.25
াট	-11.2502
▁রাবার	-11.2503
▁রান্নার	-11.2503
হাম	-11.2507
▁অনিক	-11.2507
▁আসানসোল	-11.2508
▁অক্সফোর্ড	-11.2508
▁ফিরছিলেন	-11.2508
ালী	-11.2508
▁মিড	-11.251
▁ব্লকের	-11.2511
▁কনফারেন্সে	-11.2514
▁ছিনতাইকারী	-11.2517
▁সাইড	-11.2518
▁তেজগাঁও	-11.2527
▁ভালোই	-11.2532
সুবিধা	-11.2534
▁সংশোধিত	-11.2535
▁মঠবাড়িয়া	-11.2535
▁মুঠোফোনে	-11.2535
▁সোম	-11.2535
▁গনি	-11.2535
▁ঈমান	-11.2536
বিসিবি	-11.2537
▁বিক্রম	-11.2538
▁বাহিরে	-11.2539
▁স্থলবন্দর	-11.254
▁জেতা	-11.254
▁ঐশ্বরিয়া	-11.2541
জ্জা	-11.2544
যাত্রা	-11.2548
▁প্যান	-11.2549
▁দুইদিন	-11.2553
িউ	-11.2554
▁আমায়	-11.2556
▁দুর্ভোগ	-11.2556
▁উহান	-11.2558
▁নিষ্পত্তি	-11.2561
▁আবদ্ধ	-11.2566
▁আমিরাতে	-11.2567
▁শিক্ষিত	-11.2567
ানি	-11.257
▁চারদিন	-11.2574
পের	-11.2574
▁আক্তারের	-11.2578
ুত	-11.2579
▁পরিবেশের	-11.2584
▁উন্নীত	-11.2584
মোঃ	-11.2585
মাল	-11.2586
▁এলার্ম	-11.2589
▁হিজরী	-11.2589
▁সাপের	-11.2589
▁নারকেল	-11.2589
▁সুমি	-11.259
▁অজ্ঞান	-11.2591
▁জেলেদের	-11.2591
▁ব্যাথা	-11.2591
▁৫০টি	-11.2593
▁ঘাস	-11.2594
▁দায়িত্বপ্রাপ্ত	-11.2595
▁অর্থনীতিতে	-11.2596
সেবা	-11.2597
▁নন্দী	-11.2599
▁সিরিয়াল	-11.2599
মিল	-11.2601
▁দ্বীন	-11.2603
▁প্রকাশে	-11.2604
গুন	-11.2606
ব্যাপী	-11.2606
▁চিনে	-11.2607
▁জার্নাল	-11.2613
▁পদ্ধতির	-11.2613
স্থান	-11.2614
কন্যা	-11.2614
ভু	-11.2614
এসডি	-11.2616
▁সর্ববৃহৎ	-11.2616
▁উত্থান	-11.2616
▁মালিকানাধীন	-11.2616
▁স্বয়ং	-11.2617
▁কিছুতেই	-11.2617
▁ডাই	-11.2618
▁কাকে	-11.2618
▁হাওর	-11.2621
▁সাইন	-11.2627
▁মশলা	-11.2627
▁গণধর্ষণ	-11.2627
▁ক্যাবল	-11.263
চ্ছেন	-11.263
ীক	-11.263
ালে	-11.2631
▁মনোভাব	-11.2632
▁সুস্থতার	-11.2633
▁নেব	-11.2633
▁চুমু	-11.2633
কির	-11.2634
▁সমাবেশের	-11.2635
▁ফাইনালের	-11.2636
▁পিপিএম	-11.2637
▁দখলের	-11.2637
▁মিন	-11.2641
▁নিবিড়	-11.2641
▁ধারাবাহিকতা	-11.2641
▁ক্ষেত	-11.2643
▁আক্রমণের	-11.2643
▁উৎক্ষেপণ	-11.2644
▁প্রজনন	-11.2644
▁দেখেছে	-11.2644
▁অরুণ	-11.2645
▁রয়েল	-11.2649
▁গাইড	-11.2649
▁জামায়াতে	-11.2649
বিশ্ব	-11.2657
▁জাপানে	-11.2658
▁সুস্থতা	-11.2659
▁বাটনে	-11.2662
▁নাইম	-11.2664
▁কীর্তি	-11.2667
সিম	-11.2667
▁সেটাও	-11.2668
▁পরিচয়ে	-11.2671
▁মরিয়ম	-11.2671
▁মারপিট	-11.2671
▁দেখানোর	-11.2672
▁উঠা	-11.2672
▁জানাগেছে	-11.2673
▁নারীসহ	-11.2673
▁ঝুঁকিতে	-11.2677
▁কঙ্গনা	-11.2678
▁দম	-11.2679
▁বসেছে	-11.2679
▁পর্তুগাল	-11.2683
▁ফাহিম	-11.2684
▁ব্রাউজার	-11.2684
▁কালা	-11.2685
▁ব্রিটেন	-11.2687
▁খাট	-11.2688
▁প্রশিক্ষণের	-11.2691
▁ফ্রিজ	-11.2694
▁নাচের	-11.2698
▁দীপক	-11.2698
▁খো	-11.2699
▁লিল্লাহি	-11.2699
▁পরিমাপ	-11.2699
▁জাজ	-11.2699
▁ক্যারেট	-11.2699
▁শাওমি	-11.2699
▁ফার্ম	-11.27
▁পরিপূর্ণ	-11.27
▁উদ্যানে	-11.2704
▁দুইবার	-11.2705
▁খাতুনের	-11.2708
▁এখানকার	-11.2709
▁নিখোঁজের	-11.271
▁দাওয়াত	-11.271
▁গ্রামীণফোন	-11.2711
্নি	-11.2713
▁মহিলাকে	-11.2714
▁প্রতিনিধিত্ব	-11.2715
▁খ্যাতি	-11.2715
▁শত্রুতা	-11.2716
▁মেটাতে	-11.2718
▁এমডি	-11.272
▁আটককৃতদের	-11.2722
▁ঠা	-11.2723
▁হিলি	-11.2725
▁করান	-11.2725
▁সফলভাবে	-11.2726
▁উত্তেজিত	-11.2726
▁উত্তপ্ত	-11.2726
▁আলামত	-11.2727
এবং	-11.2728
▁জনগোষ্ঠীর	-11.2729
▁মাষ্টার	-11.2729
▁ইউজার	-11.2729
▁সর্বত্র	-11.2729
▁কারিনা	-11.273
▁বিলের	-11.2731
পুল	-11.2733
▁বিকাশের	-11.2735
▁বীরভূম	-11.2735
▁প্রত্যক্ষ	-11.2736
▁তিশা	-11.2736
▁আশার	-11.2737
প্রা	-11.2737
▁কোল	-11.2737
▁দেখান	-11.2739
▁ফাঁদে	-11.2741
৯৩	-11.2744
▁ভিকটিম	-11.2744
▁অনুমোদনের	-11.2747
▁ইরাক	-11.2748
▁গতির	-11.275
র্ড	-11.275
▁নির	-11.2751
ফাঃ	-11.2753
▁ক্ষুধা	-11.2754
▁সন্তোষ	-11.2754
ীকরণ	-11.2754
▁অজ্ঞাতনামা	-11.2755
▁জয়লাভ	-11.2756
▁ভিক্ষু	-11.2756
▁নৌবাহিনীর	-11.2758
ধন	-11.2759
▁গুলোর	-11.2761
▁রাখাইন	-11.2761
▁পৌঁছানোর	-11.2762
▁দাঁড়	-11.2762
▁গায়িকা	-11.2762
▁হয়েই	-11.2762
▁নিরব	-11.2764
▁লোকমান	-11.2766
▁বঙ্গোপসাগর	-11.2773
বোর্ড	-11.2773
▁নল	-11.2774
▁বেস	-11.2776
▁রহ	-11.2778
▁সাল্লাল্লাহ	-11.2781
▁অনুষ্টিত	-11.2782
▁সংহতি	-11.2782
▁হুসাইন	-11.2782
▁১৬০	-11.2782
▁তুলনামূলক	-11.2784
▁সুফল	-11.2785
▁সম্মত	-11.2786
▁বার্সার	-11.2786
চেয়ারম্যান	-11.2787
▁ইউনিটি	-11.2788
▁শিলা	-11.2792
▁বিপিএলে	-11.2792
▁এনায়েত	-11.2793
▁এন্ট্রি	-11.2793
▁গোষ্ঠীর	-11.2794
▁ব্লগার	-11.2794
▁শিবপুর	-11.2794
▁মাহবুবুল	-11.2796
▁সেক্টরে	-11.2796
▁মুরগি	-11.2802
▁খাগড়াছড়ির	-11.2803
▁সনি	-11.2805
▁প্রজাতন্ত্র	-11.2808
▁জিজ্ঞেস	-11.281
▁ফ্র্যাঞ্চাইজি	-11.281
▁জোরালো	-11.281
▁ভাড়াটিয়া	-11.2811
▁দিনভর	-11.2812
▁রাবি	-11.2814
▁আবির	-11.2818
▁লোড	-11.2821
▁বগি	-11.2823
▁ঢাল	-11.2823
যান	-11.2827
▁গুম	-11.2828
▁বৃন্দ	-11.2832
▁দেখাবে	-11.2835
▁উনার	-11.2837
▁বলবে	-11.2838
▁বায়ার্ন	-11.2838
▁সাখাওয়াত	-11.2838
▁স্নাতকোত্তর	-11.2838
▁চেইন	-11.2845
োনা	-11.2846
▁বিশ্বস্ত	-11.2846
▁মধ্যবিত্ত	-11.2847
▁বানানোর	-11.2849
▁সংবিধানের	-11.2852
▁২নং	-11.2856
▁লরি	-11.2856
▁আইপি	-11.2859
▁এইচডি	-11.2859
▁আমা	-11.286
▁শুভশ্রী	-11.2863
▁হোন	-11.2864
▁চিন্তিত	-11.2866
▁মোরশেদ	-11.2866
▁হীরা	-11.2867
▁আশাবাদ	-11.2868
▁জামালপুরের	-11.2871
করোনা	-11.2872
▁হিসেবেও	-11.2873
▁পরিকল্পনার	-11.2873
▁এসিড	-11.2875
▁মাইন	-11.2876
▁সিজন	-11.2876
▁জনসন	-11.2876
▁বিভক্ত	-11.2876
▁বেগে	-11.2876
▁সাক্ষাত	-11.288
▁দেড়টা	-11.288
▁বক্সে	-11.2884
▁খরচে	-11.2884
প্লে	-11.2888
▁সলমন	-11.2894
▁ইরানে	-11.2895
▁জামিল	-11.2896
▁রেস্টুরেন্ট	-11.2897
▁খানিকটা	-11.2897
▁সোনারগাঁও	-11.2897
প্রথম	-11.2899
▁সমন্বয়কারী	-11.2901
▁হিম	-11.2902
▁বাল্য	-11.2903
▁পরিচালকের	-11.2905
র্গ	-11.291
▁স্বাস্থ্যকর	-11.291
▁১নং	-11.2912
▁সাতজন	-11.2912
ভেন	-11.2918
▁আকাশের	-11.292
▁বাগানের	-11.292
▁সাটুরিয়া	-11.2922
▁কায়সার	-11.2922
▁জনৈক	-11.2922
▁বিশ্বসেরা	-11.2923
▁সঙ্গেও	-11.2923
▁মাউস	-11.2926
দ্ব	-11.2931
▁কল্যান	-11.2934
▁ইন্টারনেটের	-11.2934
▁মাঝখানে	-11.2938
▁কাঁঠাল	-11.2939
▁দূর্ঘটনা	-11.294
▁ঝা	-11.2944
▁নাসা	-11.2945
▁পটুয়াখালীর	-11.2946
▁কখনই	-11.2947
▁প্লাবিত	-11.295
▁সাব্যস্ত	-11.295
▁বাইসাইকেল	-11.295
▁সভানেত্রী	-11.2951
▁সুভাষ	-11.2953
পিপি	-11.2954
▁আচার	-11.2957
৭৪	-11.2959
▁অস্ত্রসহ	-11.2959
▁লোকদের	-11.2964
▁শুনানিতে	-11.2967
গ্রস্ত	-11.2968
▁গোবিন্দ	-11.2969
▁প্রতিবার	-11.2975
▁রাজপথে	-11.2976
▁টানে	-11.2977
▁রিপাবলিকান	-11.2979
▁নম্বরঃ	-11.298
াবে	-11.298
▁আর্টিকেল	-11.298
▁টার্মিনাল	-11.2982
▁হকি	-11.2985
▁রুটিন	-11.2985
▁ত্রিশাল	-11.2986
▁ফরিদপুরে	-11.2995
পাত	-11.2997
▁ইসলামাবাদ	-11.2998
কান্ত	-11.2999
▁আসলেই	-11.3002
▁হলিউড	-11.3004
▁যথা	-11.3007
▁অংশীদার	-11.3007
▁অপপ্রচার	-11.3007
▁মুন্সি	-11.3008
▁অংশগ্রহণের	-11.3015
▁ফেয়ার	-11.3015
▁বাঁশখালী	-11.3015
▁বিজিএমইএ	-11.3016
ীরা	-11.3016
পড়া	-11.3017
▁সিঙ্গাপুরের	-11.3018
▁সুইচ	-11.3019
▁পাত্রে	-11.302
▁যেগুলো	-11.3021
▁শুটিংয়ে	-11.3021
▁ধোনির	-11.3022
ব্র	-11.3027
সূত্র	-11.3029
▁থি	-11.3034
▁স্বীকৃত	-11.3035
▁নাশকতা	-11.3039
▁বটে	-11.3043
▁জেতার	-11.3044
▁ধোয়ার	-11.3048
▁পরিচ্ছন্নতা	-11.3051
▁শিরিন	-11.3051
▁কমার্স	-11.3052
ধি	-11.3052
▁ফেস	-11.3053
▁ডক্টর	-11.3054
▁মক্কা	-11.3057
নিউজ২৪	-11.3058
▁র্	-11.3061
▁চো	-11.3062
▁আঁকা	-11.3063
▁সঙ্কট	-11.3064
▁কার্টুন	-11.3064
▁দ্বাদশ	-11.3064
▁কুয়াকাটা	-11.3064
▁উদ্ধারে	-11.3064
▁খেতাব	-11.3064
▁কুড়িগ্রামে	-11.3066
▁করুক	-11.3066
শিল্প	-11.307
▁১শ	-11.3071
▁রাজাকার	-11.3071
▁প্রতিপাদ্য	-11.3073
▁খেল	-11.3073
▁ইভেন্টে	-11.3075
▁দৃশ্যের	-11.3075
▁তৌহিদ	-11.3076
ভাতা	-11.3076
▁প্রভাবিত	-11.3078
মতি	-11.308
▁সাংবাদিকের	-11.3081
▁আর্থ	-11.3082
▁আকারের	-11.3082
▁সিইসি	-11.3086
▁মাদারীপুরে	-11.3086
▁নৃশংস	-11.3087
▁অশোক	-11.3088
▁চেকপোস্ট	-11.3089
▁শাহরুখের	-11.309
▁তৌফিক	-11.309
▁মুজাহিদ	-11.3092
▁আরেকজন	-11.3092
▁বিপজ্জনক	-11.3093
▁শীর্ষকাগজ	-11.3093
▁কৌতুক	-11.3093
▁অর্জিত	-11.3093
ায়িত	-11.3094
▁রাশেদুল	-11.31
▁স্কুটার	-11.3104
▁বাংলাদেশির	-11.3104
৮৭	-11.3104
▁তরুণদের	-11.3105
▁পড়ুনঃ	-11.3108
▁সিপিসি	-11.3108
▁তৎপর	-11.311
▁খেলাধুলার	-11.311
▁প্রতিযোগীতা	-11.311
▁২০০৩	-11.3112
▁জুটির	-11.3114
▁এসোসিয়েশনের	-11.3115
▁সরেজমিনে	-11.3116
▁দ্রুততম	-11.3117
▁মাহ	-11.3119
▁রাখায়	-11.312
▁পর্ণ	-11.3121
▁হ্যাটট্রিক	-11.3121
▁খ্রীষ্টাব্দ	-11.3121
▁নির্ণয়	-11.3121
▁জয়নুল	-11.3121
▁কতটুকু	-11.3123
▁চিকিত্সা	-11.3123
▁চার্ট	-11.3124
্যান্স	-11.3124
▁সূরা	-11.3125
▁১৪২৭	-11.3125
াকে	-11.3129
ফোর্ড	-11.3129
▁ভাতিজা	-11.313
▁মসলা	-11.313
▁ভারসাম্য	-11.3131
▁চারজনের	-11.3136
▁রিয়েল	-11.314
▁কুক	-11.3141
▁১৬টি	-11.3145
▁ফলোয়ার	-11.3147
▁গোয়াল	-11.3148
▁শাজাহান	-11.3149
▁গণপিটুনি	-11.315
▁প্রতিশোধ	-11.315
▁প্রত্যন্ত	-11.315
▁আহমদের	-11.3151
▁পেনশন	-11.3152
▁আড়াইহাজার	-11.3155
▁যাবো	-11.3159
▁হব	-11.316
ধর্ম	-11.3161
▁এবিএম	-11.3164
রুপ	-11.3166
▁পুলিস	-11.3167
▁অনিল	-11.3172
মেল	-11.3176
▁আইসি	-11.3178
▁হিউম্যান	-11.3179
▁অ্যামাজন	-11.3179
▁অ্যালুমিনিয়াম	-11.3179
▁শোবিজ	-11.3179
▁মাহাবুব	-11.3181
▁রামগঞ্জ	-11.3181
▁রায়পুরা	-11.3181
▁প্রান	-11.3182
▁এতিম	-11.3183
▁বাগেরহাটের	-11.3183
▁ব্যাচের	-11.3183
জিৎ	-11.3185
▁আসামীকে	-11.3185
ঙ্গে	-11.3186
▁খুনি	-11.319
াইন	-11.3192
▁১২৮	-11.3196
▁ফিরেছে	-11.3196
▁আনুশকা	-11.3196
▁নির্মান	-11.3198
▁বিচারিক	-11.3198
▁বুয়েট	-11.3202
▁ইম	-11.3203
▁সৌর	-11.3203
রুম	-11.3204
▁ক্রিকেটারের	-11.3204
▁মাত্রার	-11.3206
▁গাই	-11.3207
▁পরতে	-11.3208
▁বুলেট	-11.3208
▁কার্যকলাপ	-11.3208
▁জিল্লুর	-11.3208
▁ব্রিগেডিয়ার	-11.3208
▁মাজহারুল	-11.3208
৬১	-11.3209
▁বরুণ	-11.3209
্সের	-11.3211
▁স্থলে	-11.3214
▁সংবাদমাধ্যমে	-11.3215
দ্বীপ	-11.3215
আউট	-11.3218
▁নিবেন	-11.3218
▁মুক্তা	-11.322
▁খুঁটি	-11.322
▁যো	-11.3223
▁চাইলেন	-11.3224
▁রাসূল	-11.3237
▁ডিপ্লোমা	-11.3237
▁কালকিনি	-11.3237
▁পরিধান	-11.3238
▁নৌযান	-11.3238
▁এমদাদুল	-11.3238
▁চার্চ	-11.324
▁বিঘা	-11.324
▁সম্প্রীতি	-11.3242
▁শরিক	-11.3244
▁কুমারখালী	-11.3245
▁প্রশাসনকে	-11.3245
▁সাইজ	-11.3246
▁১২৫	-11.3246
▁আতিক	-11.3249
▁গণভবন	-11.3254
▁এয়ারলাইন্স	-11.3255
▁বাবুর	-11.3258
▁ইসরায়েলি	-11.3259
▁এসো	-11.3259
▁প্লাটফর্ম	-11.326
▁লুইস	-11.3261
গুণ	-11.3262
জনকে	-11.3264
▁ইনশাআল্লাহ	-11.3266
▁ঠিকঠাক	-11.3266
▁বুবলী	-11.3266
কেট	-11.3267
▁গ্রীন	-11.3267
▁ঘটবে	-11.3268
▁সিদ্দিকুর	-11.327
▁শ্যামনগর	-11.3271
▁সেইসঙ্গে	-11.3271
▁চলচ্চিত্রটি	-11.3271
রচর	-11.3273
▁সাজু	-11.3273
▁ওয়ে	-11.3273
ফু	-11.3275
▁মাহে	-11.3276
▁মোড	-11.3277
▁স্ট্যান্ড	-11.3279
কাশি	-11.328
▁মাইক্রোবাস	-11.3284
কোর	-11.3285
▁ওয়াহিদ	-11.329
েন্দু	-11.329
▁মজবুত	-11.3296
▁সেনাপ্রধান	-11.3297
▁দের	-11.3298
▁কর্মকার	-11.33
▁ওদের	-11.3303
▁পেশাগত	-11.3305
▁উঠলে	-11.3307
যার	-11.3307
বহ	-11.3312
▁মাহমুদুর	-11.3313
▁মহারাষ্ট্র	-11.3314
▁রাইডার্স	-11.3315
▁রোম	-11.3315
▁মাত	-11.3315
▁যানবাহনের	-11.332
▁সময়েই	-11.3321
▁দরবারে	-11.3322
▁আনছে	-11.3323
▁প্রতিনিধিদল	-11.3324
▁সরস্বতী	-11.3325
▁হুইপ	-11.3325
▁দুঃস্থ	-11.3325
ৰণ	-11.3326
▁পন্য	-11.3327
▁আগামি	-11.3328
▁গেয়ে	-11.3328
▁জানাযা	-11.333
▁চাউল	-11.3333
▁প্রার্থীকে	-11.3334
ইপিএস	-11.3336
▁হায়াত	-11.3336
▁বিসিসিআই	-11.3337
▁স্পোর্টিং	-11.3337
▁ছু	-11.334
▁প্রতিরোধের	-11.3346
ানন্দ	-11.3347
▁বক্তৃতায়	-11.3347
▁মেনু	-11.3347
জিন	-11.3349
▁তুলা	-11.3351
▁ক্ষিপ্ত	-11.3354
▁মুর্তজা	-11.3354
▁আওতাধীন	-11.3354
▁পাঠাগার	-11.3355
▁হাইস্কুল	-11.3355
▁ডিলিট	-11.3355
▁অবরুদ্ধ	-11.3356
▁বৃদ্ধের	-11.3357
▁ফুটবলে	-11.3359
গড়া	-11.336
▁কদর	-11.336
চল	-11.3362
▁সরবরাহের	-11.3364
▁রামু	-11.3366
▁আবেদনপত্র	-11.3366
ষণ	-11.3371
▁ম্যাক্স	-11.3372
▁প্রস্তাবে	-11.3373
পল	-11.3374
▁আছড়	-11.3375
▁১৮০	-11.3376
▁নদ	-11.3377
▁জনসভা	-11.3381
▁একমত	-11.3383
▁মাদকাসক্ত	-11.3384
▁সজিব	-11.3384
▁হৃদয়ে	-11.3385
▁যোদ্ধা	-11.3385
▁পকেট	-11.3388
▁সাইফুর	-11.3388
▁মিটিং	-11.3389
▁লাফ	-11.3393
▁কপালে	-11.3393
▁প্রযুক্তিগত	-11.3394
▁মেয়েটিকে	-11.3397
▁উদ্ধৃতি	-11.3397
▁চেনা	-11.3401
হাব	-11.3402
▁উপকৃত	-11.3403
▁লিভারপুল	-11.3404
▁মাদার	-11.3404
▁সহযোগীতা	-11.3405
▁করুণ	-11.3405
▁পূর্তি	-11.3411
তিয়া	-11.3411
▁সংশয়	-11.3413
▁সেনগুপ্ত	-11.3413
▁ট্রলি	-11.3414
▁ফির	-11.3416
▁বাহিনীকে	-11.3419
ইড	-11.3419
▁কবলিত	-11.3425
▁প্যাড	-11.3432
▁মোস্তাক	-11.3432
▁এবি	-11.3433
▁কই	-11.3434
▁সচেতনতামূলক	-11.3436
▁আফ	-11.3438
▁ট্রাকে	-11.3439
▁ক্যান্সারের	-11.3439
▁নাশকতার	-11.344
▁ধারার	-11.3441
▁আদ	-11.3441
▁ফার	-11.3443
▁বিনাশ্রম	-11.3443
▁ক্রিসেন্ট	-11.3444
▁প্রশিক্ষক	-11.3444
ঙ্কা	-11.3445
▁অন্ধ	-11.3445
▁গ্যালারি	-11.3446
▁সিটিতে	-11.3447
▁রোশন	-11.3449
▁রাখছে	-11.3449
▁আগস্টে	-11.345
▁ডিজি	-11.3452
▁পাইনি	-11.3455
▁স্পিন	-11.3455
▁আখ্যা	-11.3456
▁আদেশের	-11.3458
▁কাঁটা	-11.346
ড্র	-11.3461
ঙ্গী	-11.3464
▁নবজাতক	-11.3464
▁পরম	-11.3465
▁অনুশীলনে	-11.347
▁উল্লেখিত	-11.3471
▁স্টোকস	-11.3473
▁দ্বিপাক্ষিক	-11.3473
▁প্রেরন	-11.3475
▁ফরম্যাটে	-11.3476
▁কর্মশালার	-11.3477
▁শাহজাদপুর	-11.3478
্লা	-11.3478
▁পুঁজিবাজার	-11.348
▁মহল্লা	-11.348
▁দাঁড়ানো	-11.3484
▁বিকাশে	-11.3487
▁গুপ্ত	-11.3489
▁অভিযুক্তদের	-11.3489
▁জগৎ	-11.349
▁এলজি	-11.3492
▁১৪৪	-11.3493
▁বিতর্কে	-11.3496
▁দাঁতের	-11.3499
▁হংকং	-11.35
▁কর্মবিরতি	-11.3503
▁চৈত্র	-11.3503
▁আলতাফ	-11.3503
▁তীর	-11.3503
▁সম্বলিত	-11.3503
▁আলোচক	-11.3504
▁রাইড	-11.3504
▁রোজিনা	-11.3505
▁লিস্ট	-11.3508
▁প্রতিহত	-11.3508
▁খোদ	-11.3509
▁উদ্য	-11.351
৮৯	-11.3511
▁খাস	-11.3516
বাহ	-11.3518
▁নাজমা	-11.3519
▁ভাবি	-11.352
▁ছক	-11.3521
▁বুদ্ধিজীবী	-11.3523
▁বিলে	-11.3525
▁অতীতে	-11.3526
▁রোদ	-11.3527
▁ভিক্ষুক	-11.3531
▁কপিল	-11.3531
ঙা	-11.3532
জানা	-11.3533
▁বিষয়বস্তু	-11.3533
▁ফান্ডের	-11.3535
▁মুর্শিদাবাদ	-11.3536
ভান	-11.3537
▁রচিত	-11.3537
▁ঘু	-11.354
▁স্বেচ্ছায়	-11.354
▁পুরানো	-11.3541
াফ	-11.3542
▁সার্ভার	-11.3542
▁জেরা	-11.3542
▁মিশে	-11.3542
নামা	-11.3546
ব্যবস্থা	-11.3549
▁হাতির	-11.3551
▁জ্বরে	-11.3553
▁সহিংসতার	-11.3554
▁বরাতে	-11.3559
কোট	-11.3562
▁মোটামুটি	-11.3563
▁নুরুজ্জামান	-11.3566
ধারা	-11.3567
▁সামাল	-11.3569
▁ওয়ার্ক	-11.3571
▁কেস	-11.3574
▁শুদ্ধ	-11.3577
▁ক্লিন	-11.3578
িফ	-11.3578
▁অনা	-11.3579
ক্ট	-11.358
▁ছবিগুলো	-11.3583
টিভ	-11.3586
▁ফিলিস্তিনের	-11.3586
▁সাতদিন	-11.3589
▁বৃদ্ধিতে	-11.359
্দ	-11.359
▁পিছ	-11.359
সেট	-11.3591
আমার	-11.3592
▁টোয়েন্টিফোর	-11.3593
▁উদীয়মান	-11.3593
▁টোকিও	-11.3593
▁মোতালেব	-11.3593
▁ম্যাজিষ্ট্রেট	-11.3593
▁এনার্জি	-11.3593
▁ঋতু	-11.3593
▁রুখে	-11.3593
▁ইউরোপিয়ান	-11.3593
▁আহমাদ	-11.3594
▁নির্মম	-11.3594
▁আক	-11.3596
▁লেগ	-11.3601
▁গুলশানে	-11.3603
▁দর্পণ	-11.3605
▁অন্ধকারে	-11.361
▁ডিজাইনার	-11.361
ডিএমপি	-11.361
▁বাড়িয়েছে	-11.3611
▁মুর	-11.3611
▁নবাবগঞ্জ	-11.3611
▁এমনটি	-11.3613
▁ফাল্গুন	-11.3615
▁এপ্রিলে	-11.3615
▁পরস্পর	-11.3616
▁মানিকগঞ্জের	-11.3616
▁প্রতিনিধিদের	-11.3617
জুর	-11.3618
▁মস্কো	-11.362
▁সেমিফাইনাল	-11.3623
▁ন্যায্য	-11.3623
▁অরফানেজ	-11.3623
▁ইন্সটিটিউট	-11.3623
▁ইব্রাহীম	-11.3623
▁একত্রিত	-11.3623
▁কিনুন	-11.3623
▁চালালে	-11.3625
▁রাজাপুর	-11.3627
বায়	-11.3627
▁নেটিজেনরা	-11.3628
▁কেনো	-11.3628
▁পল্লবী	-11.3629
▁কামড়	-11.3631
▁বিশুদ্ধ	-11.3634
▁পুলিশিং	-11.3637
▁ব্যাকটেরিয়া	-11.3645
▁দ্রুতই	-11.3645
▁কথাবার্তা	-11.3649
স্টিক	-11.3649
▁ঘটল	-11.365
▁ভাগাভাগি	-11.3653
▁তেলাওয়াত	-11.3653
▁মুন্সীগঞ্জের	-11.3654
▁যু	-11.3655
▁আফরোজ	-11.3656
▁লায়ন	-11.3656
ফো	-11.3656
▁কার্যদিবস	-11.3657
▁গ্রামবাসী	-11.3658
▁টেলিফোন	-11.3659
▁চাঁদপুরের	-11.3659
▁তাহিরপুর	-11.366
▁ব্র	-11.3667
▁ঘেরাও	-11.3669
▁গ্রহণযোগ্য	-11.3673
▁এনডিটিভি	-11.3674
▁স্যা	-11.3675
▁সন	-11.3675
ফিক	-11.3675
▁লুটপাট	-11.3676
▁পদক্ষেপের	-11.3679
▁জার্সিতে	-11.368
সিটি	-11.368
▁নামঞ্জুর	-11.3684
▁সমুদ্রবন্দর	-11.3684
▁রণ	-11.3685
▁রেশন	-11.3686
▁অস্কার	-11.3686
বাই	-11.3687
▁দুর্বলতা	-11.3687
▁উপপরিচালক	-11.3691
্বা	-11.3691
▁প্রে	-11.3691
▁সমুদ্রে	-11.3693
▁এমনিতেই	-11.3695
▁আনোয়ারা	-11.3695
▁স্তর	-11.3697
▁গুল	-11.3697
▁কিশোরগঞ্জের	-11.3702
▁পাব	-11.3703
▁ব্রেক	-11.3703
▁ইউরোপে	-11.3703
▁গণস্বাস্থ্য	-11.3705
▁বাউল	-11.3708
▁অনেকগুলো	-11.3709
ঘা	-11.3709
▁আইইডিসিআর	-11.371
▁কোয়ারেন্টাইন	-11.3711
▁মন্তব্যের	-11.3712
▁ববি	-11.3712
▁তরুন	-11.3713
▁স্ট্র	-11.3714
▁অপমৃত্যু	-11.3714
▁মানবতাবিরোধী	-11.3714
▁গুঁড়ি	-11.3714
▁দিশা	-11.3718
▁ইংল্যান্ডে	-11.3719
▁মেডিকেলে	-11.3721
▁সঞ্চালনা	-11.3721
▁বিজ	-11.3722
▁দেবার	-11.3723
▁থাইল্যান্ডের	-11.3724
▁প্রযোজনায়	-11.3724
▁প্রতিষ্ঠানগুলো	-11.373
▁মহানবী	-11.3732
▁মদন	-11.3733
▁প্রেক্ষাপটে	-11.3733
▁!!!	-11.3734
▁কারবারি	-11.3735
▁সতীর্থ	-11.3735
ক্ষেত্রে	-11.3738
ওএস	-11.3738
৯৪	-11.3738
▁শীষ	-11.3738
▁নির্মল	-11.3739
▁নায়েক	-11.374
বুর	-11.374
▁উদ্বুদ্ধ	-11.3743
▁করেসপন্ডেন্ট	-11.3745
▁খলিফা	-11.3745
▁গণসংযোগ	-11.3745
▁জিম্মি	-11.3745
▁মনিটর	-11.3746
▁বিবাদ	-11.3747
▁লোভ	-11.3748
▁বিলি	-11.375
করণের	-11.3751
▁অর্জনে	-11.3753
▁গোমস্তাপুর	-11.3754
▁রোযা	-11.3755
▁মৃদু	-11.3757
ারা	-11.376
▁প্রতিবেদকঃ	-11.3761
▁দক্ষিণে	-11.3764
▁জনসভায়	-11.3769
▁জোয়ার	-11.3771
▁দলই	-11.3772
▁উৎপাদনে	-11.3774
▁ফলাফলের	-11.3775
▁কোচবিহার	-11.3776
▁গাওয়া	-11.3777
▁মন্টু	-11.3777
রেন	-11.3779
▁সাবিনা	-11.3779
▁অস্ট্রেলিয়ায়	-11.378
▁কওমি	-11.378
টিন	-11.378
▁নিরাপত্তায়	-11.3781
পর্ব	-11.3782
▁বিক্ষোভকারীদের	-11.3786
▁মুজিববর্ষ	-11.3787
পুকুর	-11.3788
▁চোরাই	-11.3789
বক	-11.379
▁স্কোয়াডে	-11.3791
▁বাকিদের	-11.3792
▁আজগর	-11.3792
▁সাভারে	-11.3792
স্থানে	-11.3794
জেল	-11.3798
▁ক্রোম	-11.3799
▁মর্মে	-11.38
▁ভুটান	-11.3801
▁পঞ্চ	-11.3806
▁প্রত্যাবাসন	-11.3806
▁ঠেলে	-11.3806
কণ্ঠ	-11.3808
▁যাত্রাবাড়ী	-11.3809
▁নাকচ	-11.3811
▁বলল	-11.3815
নেস	-11.3815
▁রাব্বানী	-11.3816
নব	-11.3817
▁প্রাতিষ্ঠানিক	-11.3818
▁তালে	-11.3821
হেল্প	-11.3823
▁অঙ্কের	-11.3827
হত	-11.3827
▁অঙ্গনে	-11.3827
▁আড়াইটার	-11.3829
▁বেগমকে	-11.3832
▁উদ্যান	-11.3834
▁শংকর	-11.3835
▁রুমা	-11.3835
▁প্রথা	-11.3836
▁সৌমিত্র	-11.3837
▁অর্ধশতাধিক	-11.3837
▁মইনুল	-11.3838
ড়ী	-11.3838
াণ	-11.3842
▁পূরণের	-11.3842
ুব	-11.3843
ানু	-11.3844
▁মহকুমা	-11.3844
▁পরীমনি	-11.3847
▁১৮টি	-11.3848
বেশ	-11.385
▁ভিন	-11.3855
চামচ	-11.3855
▁জুনে	-11.3855
▁কাহিনি	-11.3856
মতো	-11.3856
▁অনুপস্থিত	-11.3856
বিএনপি	-11.3857
▁প্রমান	-11.3859
▁পর্যবেক্ষণে	-11.386
▁সবজির	-11.386
▁বিপ্লবী	-11.3868
▁রক্তদান	-11.3868
কর্মচারীদের	-11.3868
▁প্রাধান্য	-11.3868
▁অলআউট	-11.3868
▁দুঃখজনক	-11.3868
▁বিষয়শ্রেণী	-11.3868
▁স্ট্রাইক	-11.3869
▁সুযোগে	-11.387
▁অধি	-11.387
▁যোগাযোগমাধ্যম	-11.3871
▁হারান	-11.3872
▁বারসিক	-11.3872
▁আলোকচিত্রী	-11.3875
হারা	-11.3875
করে	-11.3877
▁কাস্টম	-11.3877
▁পাতলা	-11.3877
▁হিন্দুদের	-11.3881
▁মাহফিলের	-11.3882
▁খাই	-11.3883
▁সেলস	-11.3884
▁চিন্তার	-11.3885
▁মোড়ক	-11.3885
অন্যান্য	-11.3886
▁আমতলী	-11.3887
▁মাজ	-11.3889
▁লিখেন	-11.3889
ৃত	-11.3891
▁ভিজিটর	-11.3891
ছু	-11.3894
▁স্মার্টফোনে	-11.3894
▁সময়টা	-11.3896
পাশে	-11.3897
▁মুন্সিগঞ্জের	-11.3899
▁অনৈতিক	-11.39
▁বেগ	-11.3902
▁প্রশংসায়	-11.3905
▁গার্ল	-11.3906
▁নির্যাতিত	-11.3909
▁চালকদের	-11.3912
▁মাইকিং	-11.3913
▁রেখেছিলেন	-11.3915
▁গণধর্ষণের	-11.3918
চ্ছা	-11.3921
▁মুক্তিযোদ্ধার	-11.3922
▁খাবারে	-11.3924
▁আকস্মিক	-11.3924
কলেজ	-11.3924
▁কোমর	-11.3925
▁পিসিআর	-11.3928
▁স্ট্রাইকার	-11.3929
শের	-11.3929
টস	-11.3929
▁অতঃপর	-11.393
▁কালিয়াকৈর	-11.3933
▁শীতল	-11.3933
▁আলাপকালে	-11.3933
▁মিরসরাই	-11.3934
▁হেয়ার	-11.3938
▁বারে	-11.3939
▁সৈন্য	-11.3939
▁চ্যানেলের	-11.3939
▁সংখ্যায়	-11.394
উড	-11.394
খি	-11.3944
▁মালদা	-11.3944
মোহন	-11.3947
হাল	-11.3951
▁গুদাম	-11.3953
▁ধস	-11.3954
▁পড়েছিলেন	-11.3955
▁ফসলের	-11.3956
▁টুল	-11.3956
▁লোকজনকে	-11.3959
▁ক্লাসে	-11.396
কাপ	-11.3965
ননি	-11.3965
▁দুটির	-11.3965
▁বিলুপ্ত	-11.3966
ভাবেই	-11.3967
▁ডায়েট	-11.3968
▁ভোলায়	-11.397
লিয়ান	-11.3973
▁দোল	-11.3977
▁ইন্দোনেশিয়ার	-11.3978
▁সিট	-11.398
পাস	-11.3984
▁ফ্যা	-11.3986
▁পেছনের	-11.3987
▁জনগনের	-11.3992
▁উৎসর্গ	-11.3993
▁পালানোর	-11.3994
েক্স	-11.3996
▁সালথা	-11.3997
▁জীবননগর	-11.3997
▁হাব	-11.3998
▁এসএস	-11.3999
▁জনমত	-11.3999
▁পল্টন	-11.4
ুরিয়া	-11.4
▁ব্যতিক্রমী	-11.4001
▁বিয়ানীবাজার	-11.4001
▁শতকরা	-11.4003
▁ইনকাম	-11.4004
▁উর	-11.401
শিশু	-11.4016
▁আনু	-11.402
▁শেরে	-11.4021
▁অনুপম	-11.4021
▁অনির্দিষ্টকাল	-11.4021
▁শিক্ষাবর্ষে	-11.4023
▁পাগলা	-11.4023
▁বাথরুম	-11.4023
▁কেলেঙ্কারি	-11.4024
▁ডিপার্টমেন্ট	-11.4024
▁বংশোদ্ভূত	-11.4024
▁থাকুক	-11.4025
▁জাফরুল্লাহ	-11.4026
▁মজাদার	-11.4026
শ্ব	-11.4027
স্তি	-11.4027
▁ভোগান্তি	-11.4032
▁ঢাকাই	-11.4032
▁পীরগঞ্জ	-11.4038
▁মাংসের	-11.404
▁৮ম	-11.4042
ঢামেক	-11.4043
▁শাল	-11.4045
▁অ্যাল	-11.4046
ওয়ার্ড	-11.4046
▁জনই	-11.4047
▁জঙ্গিরা	-11.405
▁সুন্দরবনের	-11.405
কোন	-11.4052
▁উচ্ছ্বসিত	-11.4056
▁ব্যালট	-11.4056
▁ফিফটি	-11.4056
▁চাচাতো	-11.4057
▁একশ	-11.4058
▁প্রভা	-11.4059
▁মারামারি	-11.4059
▁কৈ	-11.406
▁অন্ত	-11.4063
▁১৯৭৫	-11.4063
▁নিবন্ধনের	-11.4064
▁শিখে	-11.4065
▁ছড়ানো	-11.407
▁যৌনতা	-11.4074
▁বিজ্ঞানীদের	-11.4076
▁ছোটবেলা	-11.4079
জনক	-11.408
কিশোর	-11.4084
▁ভিক্টোরিয়া	-11.4087
▁কর্ণফুলী	-11.4087
▁চুনারুঘাট	-11.4087
▁পলিথিন	-11.4087
▁র্যাপিড	-11.4087
▁কর্তব্য	-11.4088
▁বাঁচিয়ে	-11.4088
▁অধীর	-11.4088
▁অভিহিত	-11.4088
▁প্রক্রিয়ার	-11.4092
▁বুঝি	-11.4092
▁পেস	-11.4093
স্য	-11.4093
▁পোশাকের	-11.4093
▁সাহ	-11.4096
ষ্টি	-11.4096
▁এদেশে	-11.4098
গাও	-11.4098
▁বিএনপিকে	-11.4099
মামুন	-11.4099
▁র্যালী	-11.4101
▁অসুখ	-11.4102
▁লং	-11.4104
'-	-11.4105
▁নেতৃত্বের	-11.4105
▁ট্রাইব্যুনালের	-11.4106
সেই	-11.4106
▁চাঁদাবাজি	-11.4108
আদালত	-11.4108
ইংরেজি	-11.4108
▁সফলতার	-11.4109
▁যুগল	-11.4111
াও	-11.4111
▁দশা	-11.4115
▁নেপালে	-11.4117
▁রেমিট্যান্স	-11.4119
▁আফতাব	-11.4119
▁সিডি	-11.4121
▁ব্রাজিলিয়ান	-11.4121
▁মালিককে	-11.4123
▁আমেজ	-11.4124
ংগা	-11.4127
▁ইল	-11.4127
▁কিস্তি	-11.4127
▁চিনা	-11.4129
সিয়া	-11.4133
▁১৪২৩	-11.4133
▁হেসে	-11.4136
▁এনআরসি	-11.4138
থু	-11.4139
সভা	-11.414
▁জীব	-11.4141
▁বায়ো	-11.4141
ভারপ্রাপ্ত	-11.4141
ংগ	-11.4143
▁মোছা	-11.4143
মন্ত্রীর	-11.4144
▁তৎ	-11.4145
▁বাসস্ট্যান্ড	-11.4149
▁পরিযায়ী	-11.4151
▁বিক্ষুব্ধ	-11.4151
▁উধাও	-11.4151
▁দুধের	-11.4153
▁মাতৃ	-11.4153
▁জীবিকা	-11.4154
▁দাড়ি	-11.4154
▁অপরকে	-11.4154
ফর	-11.4156
▁মধ্যপ্রাচ্যের	-11.4158
▁৪র্থ	-11.416
ুদ্দীন	-11.4161
▁ঘটায়	-11.4162
▁পুঁজি	-11.4163
▁নিবন্ধিত	-11.4164
ষ্ক	-11.4165
নির্বাচন	-11.4167
▁কূটনীতিক	-11.417
▁কান্ড	-11.4171
▁জঙ্গী	-11.4171
দক্ষিণ	-11.4172
মায়ের	-11.4175
উস	-11.4182
▁খলিলু	-11.4183
▁স্থির	-11.4183
▁উপস্থাপনা	-11.4183
▁আমন্ত্রিত	-11.4183
▁বার্ধক্যজনিত	-11.4183
▁হাবীব	-11.4183
▁রেহাই	-11.4184
▁শফিকুর	-11.4185
▁কিতাব	-11.4186
▁শান	-11.4186
▁মুল	-11.4187
▁বাড়িটি	-11.4187
▁বেস্ট	-11.4191
য়ারি	-11.4192
▁নাসার	-11.4195
▁যোগদানের	-11.4195
▁একাডেমী	-11.4197
দিনে	-11.4198
পাই	-11.4199
▁নেতৃবৃন্দের	-11.42
▁জানাযায়	-11.42
হুল	-11.4201
▁শফি	-11.4201
▁কালীগঞ্জে	-11.4203
▁ছেলেরা	-11.4204
▁নির্বাচক	-11.4205
৮৪	-11.421
▁উন্নতির	-11.4212
▁কুশল	-11.4213
▁আশ্চর্য	-11.4215
▁লঘুচাপ	-11.4215
▁মুকুট	-11.4215
সুর	-11.4221
▁জনপদ	-11.4222
▁চেয়েছিল	-11.4222
ধরনের	-11.4223
▁ফার্মা	-11.4224
▁তারপরই	-11.4226
▁স্টে	-11.4229
▁হাটে	-11.423
ন্	-11.4231
▁খুশির	-11.4231
▁ট্যা	-11.4233
▁বিচ্ছেদের	-11.4233
▁বনে	-11.4233
▁বোলিংয়ে	-11.4235
▁সোনালি	-11.4236
মিউচ্যুয়াল	-11.4247
▁অটোরিক্সা	-11.4247
▁জৈব	-11.4247
▁অগ্রণী	-11.4247
োয়ার	-11.4249
▁মালি	-11.4252
▁হিজাব	-11.4252
▁একটানা	-11.4254
▁৩০টি	-11.4256
▁পার্লামেন্ট	-11.4258
▁ভালোবাসেন	-11.4263
▁কোটচাঁদপুর	-11.4263
▁রোদে	-11.4263
ডেস্ক	-11.4265
▁বিজ্ঞাপনে	-11.4268
▁অস্ট্রেলিয়ান	-11.4268
তারিখ	-11.427
▁মহাপরিদর্শক	-11.427
▁পার্কের	-11.4271
▁হার্ড	-11.4271
৯২	-11.4273
▁১০৫	-11.4274
▁শিক্ষাবর্ষের	-11.4275
▁ভ্রমণে	-11.4277
▁সবমিলিয়ে	-11.4279
▁গঙ্গোপাধ্যায়	-11.4279
▁সিলেবাস	-11.4279
▁কনে	-11.428
▁প্রশ্নোত্তর	-11.4281
▁জুতো	-11.4282
▁অপমান	-11.4282
▁মহাকাশে	-11.4282
▁তালেবানের	-11.4283
▁নীরব	-11.4284
▁উপচে	-11.4288
▁থামিয়ে	-11.4288
▁পেলো	-11.429
▁মানসিকভাবে	-11.4294
▁লক্ষ্মীপুরে	-11.43
▁সিএস	-11.4301
▁করিমের	-11.4303
ঁট	-11.4305
▁কোটির	-11.4307
▁থাকত	-11.4308
মেলা	-11.4309
▁গিল	-11.4311
▁বিয়ার	-11.4312
▁্যা	-11.4312
▁বিবেচিত	-11.4312
▁মিডফিল্ডার	-11.4312
▁দুরন্ত	-11.4312
▁চর্বি	-11.4312
▁শামসুজ্জামান	-11.4312
▁কেরিয়ার	-11.4312
▁পাঠদান	-11.4317
▁করিনা	-11.4321
িয়ায়	-11.4326
▁অতীত	-11.4326
▁সাইদ	-11.433
▁প্রেমিকার	-11.433
▁ডিএমপির	-11.4331
▁দিতেই	-11.4333
▁হজযাত্রী	-11.4335
▁মারধরের	-11.4337
ঈ	-11.434
▁এপি	-11.434
▁মোটেও	-11.4341
বিধি	-11.4343
▁সৌভাগ্য	-11.4344
▁ককটেল	-11.4344
▁কারফিউ	-11.4344
▁লিডার	-11.4346
▁ওখানে	-11.4346
▁দারিদ্র্য	-11.4347
▁যুবতী	-11.4352
কার্ড	-11.4355
হাজ	-11.4356
▁হাজি	-11.4356
▁অভিনয়ে	-11.4357
▁মারতে	-11.4359
▁ফুসফুস	-11.4361
▁৯৯৯	-11.4362
▁স্বয়ংক্রিয়	-11.4364
▁লাখো	-11.4368
▁সেলে	-11.4372
▁প্ল্যাটফর্মে	-11.4372
য়াত	-11.4373
▁রানু	-11.4376
▁নান্দাইল	-11.4377
▁গোল্ডকাপ	-11.4377
▁সুমাইয়া	-11.4377
▁ট্র্যাক	-11.4377
▁ঝরে	-11.438
▁বজ্রসহ	-11.4384
ন্টি	-11.4386
জম	-11.4388
▁ন্যা	-11.4388
▁পিন	-11.439
▁স্পেনে	-11.4392
▁কোয়েল	-11.4392
▁মেনন	-11.4394
বিয়া	-11.4397
▁ধরেছেন	-11.4398
পরবর্তী	-11.4398
▁সুখের	-11.4398
▁কুকুরের	-11.44
সেপ্টেম্বর	-11.4401
▁দিগন্ত	-11.4402
▁ক্ষেতে	-11.4402
▁রেস	-11.4403
▁জুস	-11.4404
▁বসবে	-11.4404
▁রুমের	-11.4404
গ্রাফ	-11.4406
্যান্ট	-11.4408
▁ঘোষের	-11.4409
▁আগ্নেয়াস্ত্র	-11.441
▁গীতিকার	-11.441
▁ডোমেইন	-11.441
▁ভ্লাদিমির	-11.441
▁বাঁহাতি	-11.441
▁তরঙ্গ	-11.4411
▁বাংলালিংক	-11.4412
স্থলে	-11.4413
▁সুশীল	-11.4414
▁করাই	-11.4414
টেল	-11.4414
পাঠ	-11.4415
▁ব্যাপারটা	-11.4418
▁ইন্দোনেশিয়া	-11.442
▁জননী	-11.4423
▁রাইস	-11.4424
▁বাবে	-11.4424
▁মাদ্রিদের	-11.4424
▁অতিথিদের	-11.4426
যাত্রী	-11.4426
▁লাউ	-11.4427
▁ছড়ানোর	-11.443
▁পুরোটাই	-11.443
▁টিজার	-11.4432
▁বিআরটিএ	-11.4435
▁রাশিয়ায়	-11.4436
▁ইবি	-11.4436
▁লেবানন	-11.4437
ত্ম	-11.444
▁প্রলোভন	-11.4441
▁সিদ্ধ	-11.4442
▁রহনপুর	-11.4442
▁আধার	-11.4442
্যাপ	-11.4443
▁স্বাস্থ্যকর্মী	-11.4444
▁মরে	-11.4444
প্রধানমন্ত্রী	-11.4446
▁জ্যোতিষ	-11.4447
▁করিয়া	-11.4448
▁জ্যা	-11.4448
তুর	-11.4449
▁সাময়িকভাবে	-11.4449
টাকা	-11.445
▁দাঙ্গা	-11.445
▁নিয়ন্ত্রণের	-11.4451
▁রেলওয়ের	-11.4455
▁নবীনগর	-11.4458
▁পেলেই	-11.4459
▁মুন্সিগঞ্জ	-11.4459
তথ্য	-11.4461
▁ছাতক	-11.4462
াগ	-11.4462
▁চেস	-11.4464
▁ফিড	-11.4465
▁মেক্সিকো	-11.4465
শূন্য	-11.4466
▁পরী	-11.4469
▁লাগানোর	-11.4473
▁দেশেই	-11.4473
▁রায়গঞ্জ	-11.4475
▁আলাইকুম	-11.4475
▁দুর্গন্ধ	-11.4475
▁অগ্রিম	-11.4476
▁সিএনএস	-11.4476
▁আমদানির	-11.4477
▁নায়িকার	-11.4478
াউ	-11.448
বিদ্যা	-11.448
▁যতদিন	-11.448
▁খেলেছে	-11.448
াঞ্চল	-11.4482
▁কলাপাড়া	-11.4482
▁পৰি	-11.4482
গ্রি	-11.4483
▁শ্যাম	-11.4484
▁তাইজুল	-11.4485
▁কিন্ত	-11.4486
▁উবার	-11.4487
▁ব্যবস্থায়	-11.449
▁পথেই	-11.4492
ফের	-11.4493
▁অবমুক্ত	-11.4494
▁চারে	-11.4494
▁শোনার	-11.4497
▁অস্থিরতা	-11.45
ফেভারিট	-11.4501
▁আসছি	-11.4501
▁মিডিয়াতে	-11.4503
▁লাইভে	-11.4504
পাক	-11.4504
▁সিরাজগঞ্জে	-11.4506
▁কীটনাশক	-11.4508
▁আঙ্গুল	-11.4508
▁কণ্ঠস্বর	-11.4508
▁হরমোন	-11.4508
▁আফিফ	-11.4508
▁ট্রান্স	-11.4509
▁দেখলাম	-11.4509
▁তামিমের	-11.4509
▁খেলোয়াড়রা	-11.4509
▁শায়েস্তাগঞ্জ	-11.4509
▁পঞ্চাশ	-11.451
▁বিপাশা	-11.4511
▁কুয়েতে	-11.4511
▁শবে	-11.4512
▁শাহিনুর	-11.4512
▁টিক	-11.4514
▁উপমন্ত্রী	-11.4514
▁জাহাঙ্গীরনগর	-11.4517
▁মাদকবিরোধী	-11.4518
▁শ্রীলংকার	-11.452
▁সাঁতার	-11.4523
▁অক্ষর	-11.4524
▁বিছানায়	-11.4524
▁ইজ	-11.4525
▁শুনলে	-11.4528
▁বাড়া	-11.4529
পাড়	-11.4529
▁নিচ্ছি	-11.4531
িচ	-11.4535
▁আত্মসাতের	-11.4535
থী	-11.4536
▁জ্বলে	-11.454
গাছা	-11.4541
ট্টা	-11.4541
▁ইনকিলাব	-11.4541
▁টিউমেন্ট	-11.4541
▁ডিভোর্স	-11.4541
▁প্রচন্ড	-11.4541
▁বাঁকুড়া	-11.4541
▁কাশিমপুর	-11.4542
অক্সিডেন্ট	-11.4542
▁ময়দা	-11.4542
▁বিবেক	-11.4543
▁শাহা	-11.4546
▁দাতা	-11.4546
▁নাও	-11.4549
▁খেলছেন	-11.4549
▁বিক্ষোভের	-11.455
▁কেরানীগঞ্জ	-11.4552
▁টিকাদান	-11.4552
▁আলীম	-11.4553
জন্য	-11.4554
▁গণ্য	-11.4556
▁অবলম্বনে	-11.4556
▁দাবির	-11.4559
▁স্বরূপ	-11.456
▁গর্ত	-11.4566
বন্ধু	-11.4567
▁কাটছে	-11.4573
▁ইন্ডাস্ট্রির	-11.4574
▁কমিউনিস্ট	-11.4575
▁বাঙালী	-11.4575
▁বণিক	-11.4575
▁চড়া	-11.4575
▁ইনফরমেশন	-11.4575
▁রাবেয়া	-11.4575
▁মেইন	-11.4575
▁নির্ভরযোগ্য	-11.4576
ফিল	-11.4576
▁কোর্সের	-11.4577
▁রেস্টুরেন্টে	-11.4577
▁থাকতো	-11.4579
▁ডাচ	-11.458
য়ি	-11.4582
▁গণেশ	-11.4583
▁করোনাকালে	-11.4586
াধীন	-11.4587
▁ফ্যাট	-11.4588
▁প্রাণে	-11.4591
▁ওয়াট	-11.4594
▁টিন	-11.4594
কান্দা	-11.4595
▁নিয়ন্ত্রনে	-11.46
▁বাড়িঘর	-11.4604
▁ত্যা	-11.4604
▁পকেটে	-11.4605
৯১	-11.4606
▁ইদ্রিস	-11.4608
▁লোহাগড়া	-11.4608
▁সিদ্ধার্থ	-11.4608
▁মোস্তাফা	-11.4609
▁ড্রেন	-11.4612
▁কায়দায়	-11.4612
▁জুয়ার	-11.4612
▁মনু	-11.4614
▁হবো	-11.462
▁থিয়েটার	-11.4623
▁শিবিরের	-11.4624
▁ডিজেল	-11.4625
▁সেলিমের	-11.4626
▁ক্রমেই	-11.4626
ফেল	-11.4626
▁দিনেও	-11.4629
▁অফিসারের	-11.463
▁আমলা	-11.4631
গঠিত	-11.4635
▁মুসল্লি	-11.4635
হেল	-11.4637
▁ক্লান্তি	-11.4639
▁কমলগঞ্জ	-11.464
▁পর্যবেক্ষক	-11.4641
▁অপব্যবহার	-11.4641
▁আংটি	-11.4642
▁গোপালগঞ্জে	-11.4642
▁কামড়ে	-11.4645
▁লোন	-11.4646
▁জানায়নি	-11.4647
▁উজ্জল	-11.4649
▁বিদ্যুৎস্পৃষ্ট	-11.4656
▁বোকা	-11.4657
▁ব্রাশ	-11.4658
চন	-11.466
▁বর্	-11.4662
শিল্পী	-11.4662
▁মেরিন	-11.4665
▁রাজন	-11.4666
ক্ষন	-11.4667
▁গন্তব্য	-11.4671
▁জাত	-11.4672
বিজিবি	-11.4672
▁খড়	-11.4672
▁গোবিন্দগঞ্জ	-11.4674
▁কনভেনশন	-11.4675
▁পেট্রল	-11.4675
▁বাপ্পী	-11.4675
▁কৌশিক	-11.4675
▁সাজঘরে	-11.4675
▁রোপণ	-11.4675
▁সর্বপ্রথম	-11.4675
▁অভিজ্ঞতার	-11.4676
▁মিসাইল	-11.4676
▁বিপত্তি	-11.4676
▁বিরোধীদের	-11.4679
▁জিরা	-11.4681
▁মহলের	-11.4683
▁নট	-11.4689
▁ধোঁয়া	-11.4692
▁উইং	-11.4693
▁সৃজনশীল	-11.4695
▁জরিপে	-11.4697
▁হাঁটতে	-11.4697
ভূক্ত	-11.4697
▁বেগুন	-11.4699
িয়াস	-11.4701
▁কৃতজ্ঞ	-11.4701
▁জিতলে	-11.4702
▁জামিয়া	-11.4703
আলোচনা	-11.4704
বার্ষিকী	-11.4704
িংয়ে	-11.4706
আইসি	-11.4707
র্ণ	-11.4708
▁চাকুরি	-11.4708
ধী	-11.4709
▁জনসমাগম	-11.4709
▁বিলাসবহুল	-11.4709
▁আরেফিন	-11.4709
▁মিথুন	-11.4709
বত	-11.4709
▁পিন্টু	-11.471
▁মোহা	-11.471
দাম	-11.471
▁ভাঙ্গন	-11.4711
▁সামলাতে	-11.4713
▁তথ্যমতে	-11.4715
▁মিছিলটি	-11.4715
▁নিকটতম	-11.4717
▁আচমকা	-11.4717
▁মাত্রায়	-11.4718
▁লতা	-11.4718
▁জাহাজটি	-11.472
▁পৌঁছলে	-11.472
▁আটজন	-11.472
▁হজে	-11.4722
▁সূত্রঃ	-11.4725
▁আসমা	-11.4726
▁প্রতিক্রিয়ায়	-11.4726
রামপুর	-11.4728
▁পরার	-11.4729
▁মতই	-11.4729
▁সিংয়ের	-11.4731
▁ম্যাট	-11.4731
▁আদায়ে	-11.4733
▁দিদি	-11.4733
নীর	-11.4737
▁রাইট	-11.4737
▁প্রণয়	-11.474
▁আসসালামু	-11.4742
▁মিলিমিটার	-11.4742
▁ঝুলে	-11.4743
▁সর্বাত্মক	-11.4743
▁ইয়াসির	-11.4743
▁হৈছে	-11.4744
▁ছানা	-11.4745
▁চার্জিং	-11.4749
▁সমমান	-11.4749
▁গুলোতে	-11.4755
▁দেখিয়েছেন	-11.4756
▁স্ক	-11.4757
▁গুড়	-11.4759
দির	-11.4763
▁গুজরাট	-11.4764
▁খাওয়ানো	-11.4768
▁শর্মার	-11.4768
▁গ্রেফতারকৃতরা	-11.4769
▁কম্পিউটারের	-11.4772
▁২শ	-11.4773
▁চলাফেরা	-11.4776
▁ছুঁড়ে	-11.4776
▁তলার	-11.4777
▁গুটিয়ে	-11.4777
▁চক্রান্ত	-11.4777
পেন	-11.4778
▁জানলে	-11.4781
▁প্রচারণায়	-11.4782
▁এলাচ	-11.4783
▁কেশবপুর	-11.4784
▁নওগাঁয়	-11.4785
▁অগ্র	-11.4785
মস	-11.4787
▁শিয়া	-11.4789
▁ব্ল	-11.479
▁কারিগর	-11.4792
▁স্কিন	-11.4793
▁সেশন	-11.4797
▁বিজ্ঞাপনের	-11.4798
▁রী	-11.4801
▁বোট	-11.4803
▁দফার	-11.4806
ব্রা	-11.4807
▁কোলেস্টেরল	-11.481
▁আগরতলা	-11.4811
▁জাভেদ	-11.4811
▁নিবে	-11.4811
▁আগ্রাসন	-11.4811
▁ভেন্যু	-11.4813
▁হায়দরাবাদ	-11.4814
বাজি	-11.4814
▁রজব	-11.4815
▁পলিসি	-11.4818
▁বংশ	-11.4826
▁চৌধুরীকে	-11.4827
▁কন্ডিশন	-11.4829
▁মধ্যম	-11.483
▁শফী	-11.4831
▁তহবিলে	-11.4834
বাল	-11.4834
দায়	-11.4834
▁ব্যাঙ্কের	-11.4835
সার্বিক	-11.484
▁শিমুলিয়া	-11.4841
▁অতিথিরা	-11.4841
▁হ্যায়	-11.4842
▁ত্রিপুরার	-11.4843
▁গেইট	-11.4845
▁বঙ্গমাতা	-11.4845
▁নবায়ন	-11.4846
পেশার	-11.4847
াজ	-11.4848
▁আনবে	-11.4849
▁জুম	-11.485
▁মসজিদটি	-11.485
▁৩৫০	-11.4851
▁বিভ্রান্তি	-11.4852
▁রাকিবুল	-11.4852
▁নম্বরের	-11.4853
▁মহিলারা	-11.4854
▁নিশ্চয়তা	-11.4854
▁মৈত্রী	-11.4858
মারি	-11.4858
দন	-11.4858
▁কম্পিউটারে	-11.486
▁মুদ্রার	-11.4862
▁জুনের	-11.4862
্লি	-11.4865
▁ব্রি	-11.4866
▁ধোয়া	-11.4869
পন্ন	-11.4871
চাপায়	-11.4875
সাংগঠনিক	-11.4875
▁কনসার্ট	-11.4878
বিডিলাইভ২৪	-11.4879
▁সন্দেহজনক	-11.4879
▁সর্বকালের	-11.4879
▁কারাবন্দি	-11.4879
▁ধারাবাহিকের	-11.4879
▁দেশবাসীকে	-11.4881
▁উদযাপনের	-11.4882
▁সুগার	-11.4884
▁প্রোডাকশন	-11.4887
▁জোড়	-11.4887
▁ফেললেন	-11.4888
▁কর্মকাণ্ডে	-11.4889
▁ধরণ	-11.4893
র্ধ	-11.4894
▁মেরি	-11.4894
▁দমনে	-11.4894
▁নামেন	-11.4897
▁ম্যাপ	-11.4897
▁গোলাপি	-11.4899
▁ভোররাতে	-11.4899
এসসি	-11.4901
▁নাম্বারে	-11.4901
সাম	-11.4902
▁ইংরেজিতে	-11.4902
▁গুহ	-11.4904
▁বাকিরা	-11.4904
▁কলার	-11.4905
▁আমিনুর	-11.4906
ালয়	-11.4909
লক্ষ	-11.4911
▁পিপি	-11.4913
▁পারস্পরিক	-11.4913
▁সার্বক্ষণিক	-11.4913
▁স্বর্ণপদক	-11.4913
▁সাবরিনা	-11.4913
▁গতিবেগ	-11.4913
জিবি	-11.4913
▁তোফাজ্জল	-11.4913
▁শাওয়াল	-11.4914
▁সাউন্ড	-11.4914
মাকে	-11.4914
▁ভুইয়া	-11.4915
▁বারাক	-11.4915
শার্ট	-11.4915
িলা	-11.4916
▁বিশ্বজিৎ	-11.4916
▁আশপাশে	-11.4916
▁শতক	-11.4916
▁সুদের	-11.4917
িমা	-11.4917
▁দণ্ড	-11.4917
ঞ্জি	-11.4919
▁সারি	-11.492
▁মহেন্দ্র	-11.4922
▁রমজানে	-11.4922
▁অধিনায়কত্ব	-11.4923
▁রেডমি	-11.4923
ইউপি	-11.4927
▁সবসময়ই	-11.4927
প্ট	-11.4928
▁ছড়াচ্ছে	-11.4928
▁খাইয়ে	-11.493
▁চাক	-11.4931
স্ত্র	-11.4933
▁রোহিঙ্গারা	-11.4934
সাস	-11.4935
▁শুভ্র	-11.4938
▁নামানো	-11.4939
কেন্দ্র	-11.494
▁ট্রাস্টের	-11.494
▁বিচারে	-11.4941
▁ছিনতাইয়ে	-11.4943
▁জবাই	-11.4943
▁ট্রফির	-11.4944
▁রিটার্ন	-11.4945
▁আটটা	-11.4947
▁অনিশ্চয়তা	-11.4947
▁মজনু	-11.4948
▁মিলার	-11.4948
▁সারওয়ার	-11.4949
গাড়ি	-11.495
▁ভিত্তিহীন	-11.495
▁নাসের	-11.495
▁স্কেল	-11.495
▁কোট	-11.4951
▁কুরআনের	-11.4951
▁দারুল	-11.4952
্টার	-11.4953
▁বিকৃত	-11.4954
▁মানুষেরা	-11.4954
্না	-11.4955
▁দিকেই	-11.4956
▁কামার	-11.4957
য়াং	-11.4959
▁৫শ	-11.4959
▁মেয়রের	-11.4959
▁ট্রা	-11.4961
▁হাতিয়ার	-11.4966
▁পড়বেন	-11.4966
▁জারির	-11.4966
▁দেখাচ্ছে	-11.4971
▁খুজে	-11.4971
বর্ষ	-11.4977
▁টাই	-11.4978
▁শিক্ষাবিদ	-11.498
▁অ্যাপলের	-11.4981
▁প্রশিক্ষন	-11.4982
▁সিগন্যাল	-11.4982
▁পুঠিয়া	-11.4982
▁ভাবমূর্তি	-11.4982
▁অপশনে	-11.4983
▁তাজমহল	-11.4984
▁নও	-11.4985
▁কর্নার	-11.4987
ুদ	-11.4988
টর	-11.4989
ুরা	-11.4989
▁দাপট	-11.4991
▁মাছটি	-11.4991
▁দুশ্চিন্তা	-11.4993
▁শেরপুরের	-11.4994
▁ইসলামসহ	-11.4998
এবার	-11.4998
▁ইত্তেফাক	-11.4999
▁জনস্বাস্থ্য	-11.5001
মুন	-11.5003
▁কম্প	-11.5011
ষে	-11.5012
▁সিদ্ধিরগঞ্জ	-11.5013
▁প্রচেষ্টায়	-11.5013
▁নখ	-11.5016
▁লিকুইড	-11.5017
▁সয়াবিন	-11.5017
▁নিবেদিত	-11.5017
▁তৈমুর	-11.5017
▁পেঁপে	-11.5017
▁জমজমাট	-11.5017
▁উচ্চমাধ্যমিক	-11.5017
▁দ্বারস্থ	-11.5017
ডেন্ট	-11.5021
শ্বর	-11.5021
▁কোয়া	-11.5026
▁প্রবাসীরা	-11.5028
▁ফেরাতে	-11.5028
ম্ভ	-11.5029
▁সঙ্গ	-11.5032
▁১০১	-11.5032
▁আজই	-11.5033
▁ফিরত	-11.5033
▁ডেল	-11.5035
▁কালিয়া	-11.5036
▁সমতায়	-11.5036
▁থাকাকালীন	-11.5038
▁চুলে	-11.5045
▁ছবিটিতে	-11.5047
▁সিংড়া	-11.5047
তিক	-11.505
▁অসাধু	-11.5052
▁প্রিন্সিপাল	-11.5052
▁সাবমেরিন	-11.5052
▁ভালোবেসে	-11.5052
▁দিল্লী	-11.5052
▁সিঙ্গেল	-11.5052
▁পেইজে	-11.5053
▁স্ক্যান	-11.5053
▁টুকরা	-11.5053
▁লীগে	-11.5053
▁জানু	-11.5054
▁ঢোকার	-11.5057
▁সরকারিভাবে	-11.5057
▁ইন্স্যুরেন্স	-11.5058
▁বহুদিন	-11.5058
▁পান্না	-11.5058
▁জনসচেতনতা	-11.5059
▁মনোয়ার	-11.5059
▁নাটকটির	-11.5062
▁মুসল্লিদের	-11.5062
কর্তা	-11.5063
▁ক্লিনিকে	-11.5064
তক	-11.5067
▁মেসেঞ্জার	-11.5068
▁কাপ্তাই	-11.5072
▁নেক	-11.5073
▁সিস্টেমের	-11.5075
▁ইসির	-11.5077
গির	-11.5078
▁ব্রাজিলে	-11.508
▁পুনর্	-11.5083
▁অনিশ্চিত	-11.5087
▁জেসমিন	-11.5087
▁ব্যতীত	-11.5087
▁কোয়ালিটি	-11.5087
▁শ্যাম্পু	-11.5087
▁হায়	-11.5087
▁শোকসন্তপ্ত	-11.5087
▁ডিস্ক	-11.5088
▁অশেষ	-11.5089
▁প্রতিবেশি	-11.509
▁ধুলো	-11.5092
▁কাভার্ডভ্যান	-11.5094
▁প্রেক্ষাগৃহে	-11.5095
্টন	-11.5095
▁দার	-11.5097
▁গম্ভীর	-11.5097
▁কেনাকাটা	-11.5098
▁ব্যাটসম্যানদের	-11.5099
▁অসুস্থতা	-11.5099
▁গল	-11.5103
্টা	-11.5105
▁কর্মকর্তাবৃন্দ	-11.5105
▁অস	-11.5108
▁পদ্ম	-11.5108
▁অন্যকে	-11.5109
িনি	-11.5109
▁এডিট	-11.511
▁কৰি	-11.511
▁নিলেও	-11.5111
▁মিলি	-11.5114
গাছ	-11.5114
▁এসএল	-11.5117
উদ্দীন	-11.512
খাগড়াছড়ি	-11.5121
▁উত্থাপন	-11.5122
▁ডিটারজেন্ট	-11.5122
▁অগ্নিসংযোগ	-11.5122
▁সকালের	-11.5122
▁উর্ধ্বতন	-11.5124
যুগ	-11.5124
▁সাজিদ	-11.5126
▁মূল্যবোধ	-11.5126
▁সোনম	-11.5126
অনু	-11.5127
▁ছন্দে	-11.5131
▁সংখ্যার	-11.5131
▁ব্যাটার	-11.5132
হাত	-11.5132
ছাত্রীদের	-11.5134
▁পড়েনি	-11.5135
▁পাবনায়	-11.5147
বাব	-11.5148
ল্য	-11.5148
্রতিষ্ঠাবার্ষিকী	-11.5151
▁সুরক্ষায়	-11.5153
▁মুখার্জি	-11.5153
▁বেআইনি	-11.5154
স্থা	-11.5157
▁যানজটের	-11.5157
▁২টায়	-11.5158
▁গার্ডিয়ান	-11.5158
▁জ্বালিয়ে	-11.5161
▁স্টোরি	-11.5162
▁১৯৯৬	-11.5162
▁নাইক্ষ্যংছড়ি	-11.5162
▁শুটিংয়ের	-11.5165
▁সুইস	-11.5166
▁অটোরিকশার	-11.5167
▁মিডল	-11.5171
▁হ্যান্ডসেট	-11.5171
▁অস্বস্তি	-11.5173
▁বাউন্ডারি	-11.5174
▁রাসেলের	-11.5178
▁দোকানদার	-11.5178
▁ক্যাডার	-11.5179
▁অত	-11.5181
▁ষড়যন্ত্রের	-11.5182
▁উভয়ের	-11.5183
▁ভদ্র	-11.5184
্মা	-11.5185
▁প্রতিবেশীরা	-11.5186
▁বেড	-11.5187
▁থাইল্যান্ড	-11.5188
▁বিশ্বকে	-11.5189
▁হৈ	-11.519
▁বিসর্জন	-11.5192
▁মজিবর	-11.5192
▁উপনির্বাচনে	-11.5193
▁সবারই	-11.5193
▁পূর্বক	-11.5195
▁আশুগঞ্জ	-11.5195
▁গুড	-11.5196
▁হেল	-11.5197
▁পার্লামেন্টে	-11.5201
▁টলিউড	-11.5206
▁ফকিরের	-11.5208
▁স্বাভাবিকভাবেই	-11.521
▁অপরাধীদের	-11.521
▁অবস্থানের	-11.5211
▁কৃষিমন্ত্রী	-11.5213
▁সায়েম	-11.5213
▁সেচ	-11.5215
▁ঘটিকা	-11.5216
▁শোধ	-11.5218
▁পার্শ্ব	-11.5221
▁গণি	-11.5222
▁অনুপ্রবেশ	-11.5222
▁ব্যাক্তির	-11.5223
▁কাইফ	-11.5225
▁শিখর	-11.5225
▁মার্টিন	-11.5227
▁বাড়ল	-11.5228
▁চশমা	-11.5228
▁শৈশব	-11.5228
▁শরণখোলা	-11.5228
▁আন্দ্রে	-11.5228
▁ব্যয়বহুল	-11.5228
অভিযোগ	-11.5228
▁্য	-11.5229
কট	-11.523
▁জুট	-11.523
▁খুদে	-11.5231
▁ডেস্কটপ	-11.5231
▁বিশ্বাসী	-11.5235
মায়	-11.5235
৪০০	-11.5237
▁যথাযথভাবে	-11.5238
▁৩৭০	-11.5242
▁সন্ত্রাসবাদ	-11.5244
▁হারুনু	-11.5245
▁শ্রীলঙ্কায়	-11.5245
▁আযহা	-11.5246
ঝা	-11.5247
▁মালিকরা	-11.525
▁সংবাদমাধ্যমকে	-11.5251
▁ফিচারটি	-11.5251
▁এরপরে	-11.5252
▁মিনিটেই	-11.5252
▁মহেশ	-11.5254
সিং	-11.5256
▁কভার	-11.5259
▁সেকেন্ডে	-11.526
▁দিই	-11.526
মৃত্যু	-11.5261
▁বৃক্ষরোপণ	-11.5263
▁বক্কর	-11.5263
▁বর্ষসেরা	-11.5263
▁বুট	-11.5264
▁পড়ালেখা	-11.5264
▁রাশিফল	-11.5265
▁সুস্মিতা	-11.5266
পরিকল্পনামন্ত্রী	-11.5266
▁ভালোবাসি	-11.5267
চাল	-11.5269
▁সুনামগঞ্জে	-11.5272
বর্ণ	-11.5272
▁তেহরান	-11.5272
▁কুষ্ঠি	-11.5273
▁ইংরেজী	-11.5274
▁সমাজকে	-11.5277
▁বলবো	-11.5278
▁নৈতিক	-11.5279
কৈ	-11.5283
▁গর্ব	-11.5284
▁অর্থে	-11.5285
▁স্বভাব	-11.5287
▁অতীতের	-11.5291
▁শামস	-11.5294
▁আপা	-11.5295
▁রহিমের	-11.5295
▁নড়াইলের	-11.5295
লগ	-11.5295
▁চারদিকে	-11.5295
▁রয়্যাল	-11.5296
▁গোপনীয়তা	-11.5296
▁মুম্বইয়ের	-11.5297
▁ধ্রুব	-11.5299
▁সাংবিধানিক	-11.5299
▁ভাষ্য	-11.5299
▁এয়ারটেল	-11.53
▁সরাইল	-11.5302
▁বিচ	-11.5302
েক্ট	-11.5303
▁গ্লাভস	-11.5303
▁লাভবান	-11.5304
▁স্টেডিয়ামের	-11.5306
▁শিবগঞ্জে	-11.5309
▁দুর্	-11.531
▁গেমটি	-11.531
▁মেগাপিক্সেলের	-11.531
▁সিপিএম	-11.531
▁রঙে	-11.5311
▁মনোজ	-11.5313
▁হ্যারি	-11.5314
▁পিএসজির	-11.5315
▁ডিএনসিসি	-11.5317
▁ব্রিফিং	-11.5322
▁মণ	-11.5323
▁সিন	-11.5324
▁বাঁধন	-11.5326
▁মেষ	-11.5328
▁যেতেই	-11.5329
শিক্ষক	-11.5333
▁প্যারা	-11.5334
প্রো	-11.5334
▁কাইয়ুম	-11.5335
▁রক্তক্ষরণ	-11.5335
▁সুপারভাইজার	-11.5335
▁মেসার্স	-11.5335
▁স্পেসিফিকেশন	-11.5335
▁সোনাগাজী	-11.5335
▁ওয়ার্কার্স	-11.5335
▁সরোয়ার	-11.5335
▁রিজেন্ট	-11.5335
▁জাহানারা	-11.5336
▁প্রতিস্থাপন	-11.5336
▁ভিভো	-11.5336
ভাঙ্গা	-11.5337
▁বেলুন	-11.5337
▁বড়লেখা	-11.5338
▁বলেছিল	-11.5341
▁ভরপুর	-11.5344
▁ডঃ	-11.5344
▁নিম্নচাপ	-11.5345
ছাত্রী	-11.5345
▁এনবিআর	-11.5347
▁উদ্বোধনের	-11.5349
রোধ	-11.535
▁বিএসএফের	-11.535
▁হার্টের	-11.5351
▁ফ্রিজে	-11.5352
▁প্লট	-11.5354
▁চাকুরী	-11.5355
▁ফোনটিতে	-11.5356
▁ঘটিকায়	-11.5358
▁স্টিভ	-11.5358
▁ব্যাস	-11.5358
▁সুখে	-11.5359
বাড়িতে	-11.5362
▁ইয়েমেনের	-11.5363
▁সুস্থ্য	-11.5368
▁এডুকেশন	-11.5371
▁সেন্টিমিটার	-11.5371
▁ডেন্টাল	-11.5371
▁বেবি	-11.5372
▁দূ	-11.5373
চী	-11.5373
▁২০০২	-11.5375
হিল	-11.5377
▁নার্সিং	-11.5377
▁পিপলস	-11.5378
▁পেয়ারা	-11.5379
গ্রহণ	-11.538
ত্রা	-11.5384
▁অ্যানসারস	-11.5384
▁কাবা	-11.5384
▁ফর্মে	-11.5386
ঢ়	-11.5386
▁জীবনযাত্রা	-11.5386
▁জনিত	-11.5387
▁লিখা	-11.5387
▁কুড়ি	-11.5389
▁ছাপা	-11.539
▁তারিখঃ	-11.5391
দূর	-11.5392
▁নারাজ	-11.5393
▁তেলে	-11.5394
জাই	-11.5395
▁পুরসভার	-11.5395
▁সৌদিতে	-11.5396
▁ইলেকট্রনিক্স	-11.5397
টিসি	-11.54
▁কাউ	-11.5401
▁উদ্যোগের	-11.5402
সাল	-11.5404
▁রায়কে	-11.5404
▁কোনটি	-11.5405
▁এটাকে	-11.5405
▁আবশ্যক	-11.5407
▁জেরুজালেম	-11.5407
▁আর্সেনাল	-11.5407
▁তান	-11.5408
▁ঘুমাতে	-11.5408
▁ইকবালের	-11.5409
গুরু	-11.5409
▁নেটিজেনদের	-11.541
দশ	-11.5411
▁ধাতু	-11.5412
▁মেনেই	-11.5414
এখন	-11.5415
▁ইন্ডাস্ট্রিজ	-11.5416
▁শিল্পীর	-11.5416
▁মৃতদের	-11.5418
▁হইতে	-11.5421
▁দিপু	-11.5422
▁গৃহকর্মী	-11.5422
▁কামরান	-11.5425
▁পড়	-11.5427
▁শপ	-11.5428
▁আকা	-11.5429
▁সারির	-11.543
▁মিশনে	-11.5431
▁চ্যান্সেলর	-11.5432
বাগান	-11.5434
▁১০২	-11.5436
▁নভেম্বরের	-11.5436
▁চবি	-11.5437
ন্টু	-11.5438
▁নাসিরনগর	-11.5438
▁আফরোজা	-11.544
▁চক্রবর্তীর	-11.544
▁কামালের	-11.5441
সন্তান	-11.5441
▁অফিশিয়াল	-11.5443
▁জেলহাজতে	-11.5443
▁প্রার্থিতা	-11.5443
▁মজুত	-11.5443
▁চকলেট	-11.5443
▁যন্ত্রাংশ	-11.5443
▁সাগরের	-11.5444
▁অনুসন্ধানে	-11.5444
▁ওড়িশা	-11.5444
▁আলামিন	-11.5444
ঘরে	-11.5445
▁আতঙ্কের	-11.5445
▁সবকটি	-11.5446
▁জালিয়াতির	-11.5447
▁প্রকল্পটি	-11.5449
▁কনক	-11.5452
▁ধারাবাহিকে	-11.5454
▁অভিভাবকরা	-11.5454
রক্ষা	-11.5455
▁আফ্রিকায়	-11.5455
▁স্ট্যা	-11.5455
▁নিউজের	-11.5457
▁হানে	-11.5457
▁দূর্ঘটনায়	-11.5459
▁রাজ্যপাল	-11.5459
েটেড	-11.546
▁দিলেই	-11.546
▁জাহাজের	-11.546
মল	-11.5461
পক্ষের	-11.5461
পির	-11.5464
▁বললেই	-11.5465
▁দৃশ্যে	-11.5466
▁উইন	-11.5468
▁দ্বীপে	-11.547
▁নভেল	-11.5473
▁রুটের	-11.5479
▁অচেতন	-11.548
▁এক্সক্লুসিভ	-11.548
▁শাহাদত	-11.548
▁প্রস্রাব	-11.548
▁সংঘবদ্ধ	-11.548
▁গৃহহীন	-11.5481
▁বানর	-11.5482
▁মাসুদু	-11.5482
ওয়াই	-11.5483
▁স্মরণীয়	-11.5483
▁বিদ্যুত	-11.5485
▁ভিজিয়ে	-11.5485
▁কর্মস্থল	-11.5488
▁পুজা	-11.549
▁বোনকে	-11.549
হল	-11.5492
▁লেবার	-11.5493
▁বেসিক	-11.5495
▁প্রত্যাশী	-11.5498
▁১৪২৪	-11.5499
▁সামি	-11.55
▁চলি	-11.55
▁সেভেন	-11.5501
▁কাই	-11.5501
ঙ্গু	-11.5503
▁অকাল	-11.5506
▁তির	-11.5512
নান	-11.5513
▁ঝাল	-11.5515
▁ইহুদি	-11.5516
▁এন্টারপ্রাইজ	-11.5516
▁রোমান্টিক	-11.5516
▁দুর্গাপূজা	-11.5516
▁সম্বন্ধে	-11.5516
▁সর্বভারতীয়	-11.5516
▁তাহসান	-11.5516
▁ক্রিয়া	-11.5517
▁স্বর	-11.5518
পরিচয়	-11.5519
▁মাসব্যাপী	-11.552
গ্রামের	-11.5522
▁৪০০০	-11.5526
মান্য	-11.5527
▁দ্র	-11.5527
▁বুখারী	-11.5529
!!!	-11.553
▁সুফিয়ান	-11.553
▁রায়পুর	-11.5531
বিদেশে	-11.5531
গল	-11.5531
জয়ী	-11.5534
▁মন্ত্রিসভায়	-11.5537
▁আকৃতির	-11.5538
▁১৪৪০	-11.5538
ত্তি	-11.5543
▁আটা	-11.5543
▁ঈশ্বর	-11.5544
সাগর	-11.5544
▁বিহারে	-11.5545
▁ঘটিয়েছে	-11.5546
মুলক	-11.5549
▁কিছুক্ষণের	-11.5552
▁অগ্রহায়ণ	-11.5553
▁ওয়াসাল্লাম	-11.5553
▁ক্যারিবিয়ান	-11.5553
▁ওয়াইফাই	-11.5553
▁হোসেনসহ	-11.5555
▁বক	-11.5556
▁বদরুল	-11.5557
▁শারদীয়	-11.5557
▁ততদিন	-11.556
▁পরামর্শে	-11.5561
▁বোল্ট	-11.5561
▁এলইডি	-11.5564
▁আফ্রিকান	-11.5565
তৃ	-11.5566
▁টেন	-11.5567
▁গতবছর	-11.5569
▁সিরিজটি	-11.5569
নেতা	-11.557
্রী	-11.5571
▁শ্যামলী	-11.5572
আইএস	-11.5575
▁চট্রগ্রাম	-11.5575
▁নৃ	-11.5575
▁ইটভাটা	-11.5577
▁ফ্লোরিডা	-11.5577
▁পরামর্শক	-11.5579
▁দিব	-11.558
▁চেলসি	-11.558
▁চিপ	-11.5584
▁বজলুর	-11.5586
▁বেইজিং	-11.5587
▁বিস্ময়	-11.5589
▁নিঃসন্দেহে	-11.5589
▁ফেডারেল	-11.5589
▁অন্যথায়	-11.5589
▁তল্লাশী	-11.559
▁বরকত	-11.559
▁কার্গো	-11.559
িদ	-11.5591
▁খন্ড	-11.5591
ইসলাম	-11.5592
রাজ্য	-11.5593
▁বহুমুখী	-11.5593
ুনি	-11.5594
▁মানুষই	-11.5595
ভর্তি	-11.5595
▁বুঝবেন	-11.5595
▁উগ্র	-11.5595
▁বিশৃঙ্খলা	-11.5595
▁বিধ্বংসী	-11.5597
▁শুন	-11.5597
▁ছিঁড়ে	-11.5598
▁ইভান	-11.5599
▁কৃষকলীগ	-11.5599
▁মদিনা	-11.56
▁ছবিও	-11.56
▁বুধ	-11.5601
▁বাঁচা	-11.5602
▁হাঁট	-11.5602
▁প্রসার	-11.5603
▁গান্ধীর	-11.5603
▁সিকিউরিটিজ	-11.5605
▁মান্দা	-11.5606
▁খানেক	-11.5607
▁অঙ্ক	-11.561
প্প	-11.5611
▁আয়ু	-11.5612
▁শনির	-11.5614
▁পূরণে	-11.562
মদ	-11.562
চ্ছি	-11.562
▁কেরল	-11.5622
▁আগস্টের	-11.5623
োভ	-11.5624
▁খোঁজাখুঁজি	-11.5626
▁ক্যালসিয়াম	-11.5626
▁মুশকিল	-11.5626
▁রাষ্ট্রায়ত্ত	-11.5626
▁গুণগ্রাহী	-11.5626
▁সমাগম	-11.5626
▁লায়লা	-11.5627
▁গ্রাফিক্স	-11.5627
▁লিফট	-11.5627
▁ধর্মপ্রাণ	-11.5627
▁দেবশ্রী	-11.5628
▁বোল্ড	-11.5629
▁কাটাচ্ছেন	-11.5631
▁ফুলবাড়িয়া	-11.5632
ম্পা	-11.5633
▁অর্ধশত	-11.5638
▁বয়সি	-11.5641
▁পরকীয়া	-11.5642
▁ফটোগ্রাফি	-11.5643
ভী	-11.5643
▁নাজির	-11.5644
য়ায়	-11.5644
লান	-11.5645
▁পরিকল্পিত	-11.5646
র্প	-11.5646
▁কুর	-11.565
২০২১	-11.565
▁মমতার	-11.5654
▁রাহাত	-11.5655
▁বিভ্রান্ত	-11.5656
▁মেসিকে	-11.5658
▁কারি	-11.5659
▁বর্ধমানের	-11.566
▁শুক	-11.5661
▁নিট	-11.5663
▁নির্বিশেষে	-11.5663
▁কেন্দুয়া	-11.5663
▁বাল্যবিবাহ	-11.5663
▁ম্যাসেজ	-11.5664
▁গ্রা	-11.5664
মণি	-11.5664
▁ট্রুডো	-11.5664
▁খোঁজখবর	-11.5665
▁কানাইঘাট	-11.5665
▁লাগাতার	-11.5665
▁রাসুল	-11.5666
▁ক্লান্ত	-11.5666
ইফতার	-11.5668
▁জাই	-11.5669
▁নিজেরাই	-11.567
▁রেহানা	-11.5677
▁নবজাতকের	-11.5678
▁সম্পত্তির	-11.5679
▁বেশিরভাগই	-11.5679
▁দুর্ঘটনাটি	-11.5681
ঁক	-11.5682
▁একমাস	-11.5694
▁অনার	-11.5695
▁তিনিও	-11.5695
মিক	-11.5697
▁চালাচ্ছেন	-11.5699
▁দাঁড়াবে	-11.5699
▁এমতাবস্থায়	-11.5701
▁পাড়ুকোন	-11.5701
▁যান্ত্রিক	-11.5701
▁সর্দার	-11.5701
▁ডেমোক্র্যাট	-11.5701
▁তুলসী	-11.5701
▁ওয়াদুদ	-11.5701
▁ম্যাজিক	-11.5701
▁ঝলক	-11.5702
▁কোথা	-11.5702
সম্পন্ন	-11.5703
▁শোভা	-11.5703
▁গার্ডেন	-11.5704
রোববার	-11.5706
▁পিরোজপুরের	-11.5706
রবিবার	-11.5707
▁তামাক	-11.5709
▁রেশ	-11.5709
▁ইনস্টিটিউটে	-11.571
▁কয়েকজনকে	-11.571
▁শাহিদ	-11.5712
▁বর্ষে	-11.5716
▁দ্বীপের	-11.5718
মিটার	-11.572
পাট	-11.5722
▁পাঁচজনের	-11.5725
▁ঘটা	-11.5726
াভ	-11.5727
▁ছক্কায়	-11.5727
প্রায়	-11.5728
▁অধিনায়কের	-11.5729
▁যখনই	-11.5729
▁যশ	-11.5731
▁গেছি	-11.5731
▁যাননি	-11.5732
োত্তর	-11.5733
▁কন্	-11.5736
▁টুটুল	-11.5738
▁ভৌমিক	-11.5738
▁অনুচ্ছেদ	-11.5738
▁এসেই	-11.5739
▁রামপাল	-11.5739
▁অনুষ্কা	-11.5741
▁লবন	-11.5742
▁ছিটিয়ে	-11.5744
▁সামিল	-11.5744
▁আরাম	-11.5744
▁সদস্যসহ	-11.5745
▁হারি	-11.5747
োল	-11.5748
▁তাগিদ	-11.5749
ধর্মী	-11.5749
কাত	-11.5752
▁টি২০	-11.5756
▁জানাজানি	-11.5758
টক	-11.576
▁জেন	-11.576
▁সেঞ্চুরির	-11.5761
▁কানের	-11.5763
বাংলার	-11.5768
এমএস	-11.5768
▁মোহনপুর	-11.5768
▁১৬৪	-11.5769
নার্স	-11.5769
▁ট্যুইট	-11.5771
▁ঘোষণায়	-11.5771
▁রাজার	-11.5773
▁দেশগুলোতে	-11.5774
▁আচরণের	-11.5774
▁স্ট্যাটাসে	-11.5775
▁প্রযোজিত	-11.5775
▁রক্ষণাবেক্ষণ	-11.5775
▁শাহাদাৎ	-11.5775
▁ছোড়া	-11.5775
▁চৌরাস্তা	-11.5775
▁মিঞা	-11.5776
▁কালেকশন	-11.5776
▁বিদেহ	-11.5779
▁সৌদির	-11.578
▁নক	-11.5782
▁এরআগে	-11.5785
▁গুদামে	-11.5786
▁মির	-11.5788
▁দিনগত	-11.5791
গ্রহ	-11.5792
▁অংকের	-11.5792
▁রেললাইন	-11.5792
▁পিটার	-11.5794
▁নীলা	-11.5796
▁হৃদয়ের	-11.5797
▁টুপি	-11.5799
▁রিয়ালের	-11.5799
▁কভিড	-11.5799
▁প্রস্তুতির	-11.58
ক্তা	-11.5804
▁পোকা	-11.5807
▁ঝি	-11.5807
▁সাকিবকে	-11.5809
▁জীবনকে	-11.5809
▁এলোপাতাড়ি	-11.5813
▁জ্যৈষ্ঠ	-11.5813
▁কেঁপে	-11.5813
▁সুবিধাবঞ্চিত	-11.5813
▁অ্যালেক্স	-11.5813
পিএস	-11.5815
▁সম্পাদন	-11.5816
▁প্রতিষ্ঠায়	-11.5816
▁রোনাল্ডো	-11.5817
▁ব্যর্থতার	-11.5819
▁হাউসে	-11.582
▁সুরকার	-11.5821
▁উদ্ধারকারী	-11.5823
▁পড়ছেন	-11.5825
▁রাইটস	-11.5828
▁সমা	-11.583
▁তীব্রতা	-11.583
▁মস্তিষ্কের	-11.5831
এমসি	-11.5835
▁নিত্যপ্রয়োজনী	-11.5835
▁পোষণ	-11.5837
টেক্স	-11.5839
পূর্বক	-11.5841
▁পিবিআই	-11.5841
▁লিঃ	-11.5843
▁লাগতে	-11.5843
ক্ষু	-11.5848
▁নান্নু	-11.5851
▁ইহুদিবাদী	-11.5851
▁গয়না	-11.5851
▁শেষবার	-11.5852
▁পরীক্ষামূলক	-11.5852
▁চন্দ	-11.5853
▁অনাদায়	-11.5854
ংশ	-11.5854
▁গন্তব্যে	-11.5855
▁কষ্টের	-11.5856
বোঝাই	-11.5858
▁ঠোঁট	-11.5858
াকার	-11.5859
▁ট্রেডিং	-11.5859
▁বিআরটিসি	-11.5861
▁কর্মচারীরা	-11.5865
▁চট	-11.5865
▁ফ্ল্যাশ	-11.5868
▁টিসিবি	-11.587
▁মুসল্লিরা	-11.5871
▁ফ্যাক্টরি	-11.5872
কৃতি	-11.5873
▁ঘটাতে	-11.5875
রাষ্ট্র	-11.5883
▁কতো	-11.5885
▁অনলাইনের	-11.5888
▁গাঙ্গুলি	-11.5888
▁দ্বৈত	-11.5888
▁প্রতিবন্ধকতা	-11.5888
▁সামুদ্রিক	-11.5888
▁ছোড়ে	-11.5889
▁বিপণন	-11.5889
▁তামান্না	-11.5889
▁অভিজিৎ	-11.5889
▁ভিডিওর	-11.5889
▁পদপ্রার্থী	-11.5889
েদ	-11.5889
▁মারার	-11.5889
▁লগইন	-11.589
ড়িয়া	-11.5892
৮২	-11.5895
▁হুইল	-11.5897
বাহিনী	-11.59
▁তোপ	-11.5903
▁হতাহতদের	-11.5903
মহা	-11.5904
▁জুভেন্টাস	-11.5904
য়ী	-11.5904
এনএ	-11.5905
ন্তি	-11.591
▁৩নং	-11.5911
▁১৪৪১	-11.5913
▁স্বাগতম	-11.5913
সমাজ	-11.5915
ৰো	-11.5916
▁প্রতীকী	-11.5917
▁খাদ্যমন্ত্রী	-11.5918
▁মুল্য	-11.5921
▁মাগুরায়	-11.5922
▁ইউনিভার্স	-11.5923
▁জুটিতে	-11.5925
রোগ	-11.5925
▁হত্যাকাণ্ডে	-11.5926
নাই	-11.5926
▁প্রসিকিউটর	-11.5927
শিপ	-11.5927
▁ধুনট	-11.5927
▁বায়োপিক	-11.5927
▁আকৃষ্ট	-11.5927
▁অনুদানের	-11.5928
▁আদৌ	-11.5928
▁এরপরেই	-11.5928
▁বাঁধে	-11.5929
▁রাজনগর	-11.5929
▁দর্শনা	-11.5931
▁হলি	-11.5933
বিশিষ্ট	-11.5934
▁জাতকদের	-11.5935
াইড	-11.5936
▁লাকসাম	-11.5936
▁প্রাণীর	-11.5937
▁দুবার	-11.5939
▁ট্রাক্টর	-11.5942
▁১৯৯৯	-11.5943
▁তত্ত্ব	-11.5943
লুক	-11.5945
▁বাংলাদেশেও	-11.5946
এসময়	-11.5947
▁জাতিসংঘে	-11.595
▁ল্যান্ড	-11.5954
▁দুজনই	-11.5954
▁কমলাপুর	-11.5956
িড	-11.5957
▁চাষের	-11.5961
▁সেখানেও	-11.5962
▁এলিজাবেথ	-11.5965
▁কথোপকথন	-11.5965
▁মিউনিখ	-11.5965
▁পুরুলিয়া	-11.5965
▁আনিছুর	-11.5965
▁বিস্ময়কর	-11.5965
মহল	-11.5965
▁খেটে	-11.5966
▁উপগ্রহ	-11.5967
▁ইডেন	-11.5969
▁মন্দ	-11.5973
▁ড্রাম	-11.5974
▁অয়ন	-11.5975
▁কম্পন	-11.5975
▁মাউন্ট	-11.5977
▁উদ্	-11.5978
৮১	-11.5979
▁দেখ	-11.5981
▁আমন্ত্রণে	-11.5985
▁১৭টি	-11.5985
▁শিলিগুড়ি	-11.5985
▁আবেদনে	-11.5988
অর	-11.5993
▁ইন্	-11.5993
▁কবিতার	-11.5994
▁কাগজে	-11.5994
▁আসাদুল	-11.5994
▁বিন্দু	-11.5996
▁কলম্বিয়া	-11.5997
▁দেশী	-11.5997
▁যাত্রীকে	-11.5998
▁দিবা	-11.5999
▁সাহেবের	-11.6
▁রেন	-11.6
▁নানাভাবে	-11.6002
▁বসানোর	-11.6002
▁ভয়ানক	-11.6003
হক	-11.6004
▁বয়সসীমা	-11.6004
▁স্রোত	-11.6004
▁উঠিয়ে	-11.6005
▁প্রান্তিকে	-11.6005
▁ইঞ্জিনিয়ার্স	-11.6007
▁বসবাসকারী	-11.6009
▁শামীমা	-11.6018
▁আলুর	-11.6019
▁কাব্য	-11.602
▁ভরাট	-11.602
▁দেশবাসী	-11.6026
▁রাজস্থানের	-11.6027
▁হবেনা	-11.6027
মৃত	-11.6028
▁আধিকারিকরা	-11.6029
বন্দি	-11.6031
▁সহবাস	-11.6033
▁সপ্তাহেই	-11.6039
▁করন	-11.6041
▁প্রভাত	-11.6041
▁এ্যাডভোকেট	-11.6041
▁শৈত্যপ্রবাহ	-11.6041
▁প্রকাশনী	-11.6041
অন	-11.6042
▁কর্ণধার	-11.6042
▁লাইনচ্যুত	-11.6042
▁খোলামেলা	-11.6043
▁বর্ষীয়া	-11.6043
▁টাটা	-11.6044
▁বাপ্পি	-11.6044
▁অনুরাগী	-11.6045
▁জলাবদ্ধতা	-11.6046
▁রাও	-11.6046
▁মহারাজ	-11.6047
ল্লি	-11.6048
▁অভ্যুত্থান	-11.6049
▁৬ষ্ঠ	-11.6053
▁ভাগে	-11.6053
▁মঞ্জুরুল	-11.6056
▁সুই	-11.6057
▁ইয়ে	-11.6059
▁গেটে	-11.6067
▁ব্যাগে	-11.6069
▁কথাগুলো	-11.6075
▁ধৈর্য	-11.6076
▁কেএম	-11.6077
▁রীতিমত	-11.6077
▁ইনজুরিতে	-11.6078
ন্দর	-11.6078
▁ক্যাট	-11.6079
▁হাউসের	-11.6079
▁কতিপয়	-11.608
▁কার্যকারিতা	-11.608
▁সোচ্চার	-11.608
▁উকিল	-11.608
▁জলপাইগুড়ি	-11.608
▁বন্যপ্রাণী	-11.608
▁আদিত্য	-11.608
▁জুনাইদ	-11.608
▁ব্যাবসায়ী	-11.608
▁অনুব্রত	-11.608
▁নৌপরিবহন	-11.608
▁পুরস্কারের	-11.6082
দেশের	-11.6083
▁অর্থসংবাদ	-11.6083
▁বিনয়	-11.6083
▁ক্যান্সারে	-11.6085
স্কা	-11.6086
▁উচ্চতর	-11.6086
▁আন্ডার	-11.6087
▁পিছন	-11.6089
খুলনা	-11.609
▁সেটিংস	-11.6091
ব্যাক	-11.6091
দুই	-11.6091
ান্তর	-11.6092
▁সুরা	-11.6097
▁কলহের	-11.6099
▁বহুবার	-11.6099
▁পিটিআই	-11.6101
▁বইমেলা	-11.6103
▁লেনদেনে	-11.6104
▁শব্দে	-11.6104
▁ছাপিয়ে	-11.6107
▁দীপিকার	-11.6108
▁দিতেন	-11.6108
▁ত্রিশ	-11.6116
▁মুশফিকের	-11.6117
দাস	-11.6117
▁ইয়াছিন	-11.6119
▁চীফ	-11.6119
▁নিখিল	-11.612
▁ভেজে	-11.6121
▁শিবলী	-11.6121
▁শামিম	-11.6121
▁করতাম	-11.6122
রেট	-11.6122
▁ব্রণ	-11.6125
▁জমিয়ে	-11.6126
সাহিত্য	-11.6127
গাঁ	-11.6128
▁যাত্রার	-11.613
▁সমকাল	-11.613
▁ক্লিপ	-11.6133
ন্ডে	-11.6133
▁মুজিবনগর	-11.6135
▁গেমসে	-11.6136
▁টপকে	-11.6137
▁ব্যাচ	-11.6143
▁ঝাঁপ	-11.6147
▁মোকাররম	-11.6151
▁মনজুর	-11.6152
এতে	-11.6152
▁ইলা	-11.6156
▁খৃস্টাব্দ	-11.6158
টুয়েন্টি	-11.6158
▁গাবতলী	-11.6158
▁আলোয়	-11.6159
▁নির্ভরশীল	-11.6159
▁কুইজ	-11.6159
▁স্কিম	-11.616
▁সেকেন্ডের	-11.6161
▁সিলভা	-11.6161
▁ফোল্ডার	-11.6161
▁তাহ	-11.6162
▁পানছড়ি	-11.6162
▁কয়েকশ	-11.6166
▁মার্কা	-11.6167
▁পড়ি	-11.6168
▁ছোটো	-11.6168
▁ভূত	-11.6171
▁মোটেই	-11.6173
▁আশঙ্কায়	-11.6174
▁শ্রেনীর	-11.6174
াং	-11.6175
▁বেত	-11.6176
▁মাওয়া	-11.6178
▁৫নং	-11.6179
▁গ্র	-11.6181
▁পরীক্ষার্থীর	-11.6182
▁প্লেন	-11.6182
▁মোড়ল	-11.6183
▁দুল	-11.6184
▁সখীপুরে	-11.6186
▁মহারাষ্ট্রের	-11.619
▁ট্যাঙ্ক	-11.6191
▁নিলো	-11.6191
▁জালিয়াতি	-11.6193
▁জঙ্গলে	-11.6193
▁৩শ	-11.6196
দিঘী	-11.6197
▁আনলিমিটেড	-11.6197
▁দেবাশীষ	-11.6197
▁সার্জেন্ট	-11.6197
▁খেলুন	-11.6198
▁গুণী	-11.6198
▁পারতেন	-11.6199
ক্সি	-11.62
তুন	-11.62
▁আবহে	-11.6202
▁বিটিভি	-11.6202
লিয়ে	-11.6203
▁জেলের	-11.6206
▁১৯৯০	-11.6208
অপারেশন	-11.6208
▁বলছিলেন	-11.6208
সেহরি	-11.6208
▁ঘুর	-11.6209
চালক	-11.6209
উদ	-11.6211
▁শিগগির	-11.6211
▁নাগরিককে	-11.6211
▁আমরাও	-11.6213
▁৯০০	-11.6216
▁বলেননি	-11.6217
▁স্টুডিও	-11.6217
▁বিক্রয়ের	-11.6218
▁সহকারে	-11.6218
▁রাষ্ট্রপক্ষে	-11.6222
▁এয়ারপোর্ট	-11.6223
▁বাঘের	-11.6224
▁অবসরের	-11.6225
▁মম	-11.6226
্যান্ড	-11.6227
▁প্রিয়াঙ্কার	-11.6227
▁মণি	-11.6229
াঙ্ক	-11.623
▁মানসিকতা	-11.623
▁দিয়েও	-11.6231
▁ইনু	-11.6234
▁উচ্ছ্বাস	-11.6236
▁জমকালো	-11.6236
▁অমানবিক	-11.6236
▁খেলাধূলা	-11.6236
▁ধেয়ে	-11.6236
▁বেনজীর	-11.6236
▁হ্রদ	-11.6236
▁তুঙ্গে	-11.6236
▁এমবি	-11.6239
এনবি	-11.6241
▁আয়রন	-11.6241
▁ধরেছে	-11.6244
▁প্রিন্টার	-11.6245
▁দুর্গাপুরে	-11.6247
▁সিনহার	-11.6247
ঘু	-11.6249
▁আধ	-11.625
লিপি	-11.6252
▁জামাতে	-11.6256
প্রচার	-11.6257
বলি	-11.6258
▁দেওয়াল	-11.6258
৯৯৯	-11.6259
▁দলগুলো	-11.6262
▁হেনা	-11.6263
▁এনেছেন	-11.6264
▁রহিমা	-11.6266
কিমি	-11.6267
▁ওয়েলস	-11.6267
নারী	-11.6268
▁অশ্বিন	-11.6269
▁কর্তা	-11.6272
▁নী	-11.6272
▁লালপুর	-11.6272
▁রিচার্ড	-11.6274
▁আশ্বস্ত	-11.6275
▁বাজেয়াপ্ত	-11.6275
▁ব্যানার্জি	-11.6275
▁সরফরাজ	-11.6275
▁উয়েফা	-11.6275
▁সিন্ধু	-11.6275
▁চৌদ্দগ্রাম	-11.6275
▁আক্রমন	-11.6275
মাই	-11.6277
▁লালমোহন	-11.6277
▁মোমিন	-11.6277
▁বোরহান	-11.6278
▁ইজতেমার	-11.6279
▁হাঁটু	-11.6279
▁জোয়া	-11.6292
▁রামগড়	-11.6293
▁হত্যাকারীদের	-11.6294
গম	-11.6295
স্যা	-11.6296
▁একতা	-11.6298
কৌশল	-11.6299
▁পোষাক	-11.6299
▁লক্ষী	-11.6301
▁হবিগঞ্জে	-11.6302
▁রয়টার্সের	-11.6304
▁পটিয়া	-11.6304
ভাগে	-11.6305
▁শান্তিতে	-11.6307
াকা	-11.6307
▁ঝুঁকির	-11.6307
▁আলমকে	-11.6308
গ্ৰ	-11.6309
▁ভাইরাসটিতে	-11.6311
▁টিএফ	-11.6311
▁পিরিয়ড	-11.6315
▁মাহাথির	-11.6315
▁আশিকুর	-11.6318
▁মাইনুল	-11.6319
▁নিরসন	-11.632
▁১৯৯৮	-11.6322
▁এমরান	-11.6324
▁বিচিত্র	-11.6326
▁দেখবে	-11.6327
▁বনি	-11.6329
▁চুন	-11.6332
▁নিজেরা	-11.6332
▁সুশান্তের	-11.6333
▁ইয়ো	-11.6333
▁রূপগঞ্জে	-11.6334
▁কর্তন	-11.6335
▁শাহী	-11.6336
▁আইপিও	-11.6339
▁রাস	-11.6339
নবী	-11.634
▁থেরাপি	-11.6343
▁নায়েব	-11.6344
▁হাসতে	-11.6345
▁মৌলভীবাজারে	-11.6346
▁বন্ধনে	-11.6348
▁গ্রেট	-11.6349
▁উচ্চতায়	-11.635
▁অবসরে	-11.635
▁কমিশনে	-11.6354
▁আত্মসাৎ	-11.6355
▁ইনজেকশন	-11.6355
▁প্রাচীর	-11.6355
▁স্বনামধন্য	-11.6355
▁সংক্রমন	-11.6355
▁অনুগ্রহ	-11.6355
▁কলাবাগান	-11.6355
▁লঙ্কা	-11.6355
ব্ব	-11.6356
ক্ব	-11.6356
▁ছাত্রনেতা	-11.6357
▁বরিস	-11.6357
▁খালে	-11.6358
ভূ	-11.6362
▁আইনজীবীদের	-11.6363
▁রাজনীতিক	-11.6364
▁সমীর	-11.6364
▁ভাসতে	-11.6367
দৈনিক	-11.6368
▁সাধ	-11.6369
▁ফেলবে	-11.6369
▁এমনি	-11.6369
▁দুইটা	-11.637
▁অগ্নিকাণ্ড	-11.6372
▁দণ্ডপ্রাপ্ত	-11.6373
▁দৃষ্টিতে	-11.6374
▁সারাবিশ্বে	-11.6378
▁বেধে	-11.6378
▁কুসুম	-11.638
▁বেল্ট	-11.6383
বোন	-11.6384
▁তানোর	-11.6385
সংখ্যা	-11.6388
▁ফাইভ	-11.6389
ফিন	-11.6389
পিএল	-11.639
▁ধ্বনি	-11.639
▁তোর	-11.6391
▁ভেজা	-11.6393
▁অব্যহত	-11.6394
▁খতিব	-11.6394
▁শবনম	-11.6394
▁হইচই	-11.6394
▁আল্লাহ্	-11.6394
▁জাস্টিন	-11.6395
▁শিহাব	-11.6395
▁শিল্পীরা	-11.6395
▁মিঃ	-11.6396
▁বাচ্চার	-11.6398
▁লিখেছিলেন	-11.6398
▁শঙ্কর	-11.6398
▁সূচকে	-11.64
▁আফসার	-11.64
সংবাদ	-11.6402
খেলা	-11.6402
▁রুদ্র	-11.6403
▁বরেণ্য	-11.6404
▁হাজীগঞ্জ	-11.6406
▁খনি	-11.6407
তালিকা	-11.6409
▁দৃশ্যটি	-11.6409
▁পৃষ্ঠার	-11.641
▁ব্যস্ততা	-11.641
▁মঞ্জু	-11.6413
▁গলার	-11.6415
ভের	-11.6418
ূল	-11.642
▁সাঁ	-11.642
▁হয়না	-11.6422
▁ফজল	-11.6422
▁মং	-11.6424
▁ধানমন্ডির	-11.6424
দ্বার	-11.6426
▁শিল	-11.6427
▁হত্যাকান্ডের	-11.643
তত্ত্ব	-11.643
শ্চ	-11.6431
রেখা	-11.6432
▁ডকুমেন্ট	-11.6434
▁সাধু	-11.6434
▁ইয়াকুব	-11.6434
▁জুনায়েদ	-11.6434
▁ডায়মন্ড	-11.6434
▁হায়দ্রাবাদ	-11.6434
▁যথাযোগ্য	-11.6435
▁প্রাইমারি	-11.6435
যুদ্ধ	-11.6436
আস	-11.6436
▁উইল	-11.6437
▁ঠিকমতো	-11.6439
▁পেলাম	-11.6439
মুর	-11.6439
▁ঠাকুরের	-11.6442
▁অযোগ্য	-11.6444
▁ট্রাই	-11.6445
▁কাটবে	-11.6447
ফিজ	-11.6447
▁বাগেরহাটে	-11.6447
▁পৌঁছা	-11.6448
▁বাধ	-11.6448
▁উত্তেজনার	-11.6451
▁থে	-11.6453
▁কাস্টমার	-11.6455
▁চিন্তায়	-11.6456
▁কোস্টগার্ড	-11.6456
▁আয়না	-11.6457
▁সংলাপে	-11.646
▁স্টুডেন্ট	-11.646
▁প্লাজা	-11.6461
▁দশটা	-11.6464
সিপি	-11.6464
▁জুলাইয়ের	-11.6464
▁শরীফের	-11.6465
▁মুদ্রায়	-11.6467
▁টুকু	-11.6467
াগার	-11.647
▁খোয়া	-11.6474
▁হিমশিম	-11.6475
▁লস্কর	-11.6475
▁ডুবুরি	-11.6475
▁শাহাবুদ্দিন	-11.6475
▁রাইফেল	-11.6475
▁সবকিছুই	-11.6475
প্রেমী	-11.6475
▁কাউসার	-11.6476
▁১টায়	-11.6476
ইজ	-11.6477
▁পুরোহিত	-11.6477
▁পণ্যবাহী	-11.648
▁হ্যাপি	-11.6481
▁তুচ্ছ	-11.6482
▁আরিফুর	-11.6483
▁ঐক্যের	-11.6483
....	-11.6483
▁বর্ষার	-11.6483
▁এরপরও	-11.6487
▁নাস্তা	-11.6489
▁জার	-11.6489
ডাল	-11.649
হন	-11.6493
▁মেরু	-11.6495
▁ঘাড়ে	-11.6497
▁অনন্যা	-11.6497
▁ভিয়েতনাম	-11.6497
▁উম্মে	-11.65
িক্যাল	-11.6502
▁গেলেই	-11.6504
▁খাজা	-11.6507
▁স্লিপ	-11.6507
▁তর্ক	-11.651
ন্থ	-11.6511
▁রঙ্গ	-11.6512
▁উঠার	-11.6514
▁প্রত্যাশিত	-11.6515
▁অবকাশ	-11.6516
▁শস্য	-11.6516
▁জাদু	-11.6517
▁মূলধন	-11.6517
▁ঘটেছিল	-11.6518
▁জালালাবাদ	-11.6519
▁কবুল	-11.6519
▁ফৌজদার	-11.6521
▁রোকন	-11.6522
▁উইন্ডো	-11.6522
ঠি	-11.6523
▁শটে	-11.6523
স্ট্রি	-11.6524
▁মেটাল	-11.6527
তাকে	-11.6528
▁সেপ্ট	-11.6529
▁একাত্তরের	-11.6532
▁রেখেছিল	-11.6533
▁হেল্প	-11.6533
▁সাপোর্টে	-11.6533
জাম	-11.6533
▁বাঁচানোর	-11.6537
▁চরিত্রটি	-11.6541
▁পৃষ্ঠ	-11.6542
৩০০	-11.6542
▁নগরে	-11.6544
▁বাংলাদেশিরা	-11.6546
▁অ্যাপার্টমেন্ট	-11.6547
▁গোড়া	-11.6549
মানব	-11.6549
▁শেল	-11.655
▁জরিমানার	-11.6551
▁জুলফিকার	-11.6555
▁বুদ্ধিমত্তা	-11.6555
▁মুফতী	-11.6555
▁সাইক্লোন	-11.6555
▁সিংগাইর	-11.6555
▁ডিসকাউন্ট	-11.6555
▁বড়সড়	-11.6556
▁গফুর	-11.6556
উজ	-11.6556
▁ফিলিপ	-11.6557
▁সিঁড়ি	-11.6557
▁জমায়েত	-11.6558
▁সীমাবদ্ধ	-11.656
▁পাঁচটা	-11.656
▁এটাও	-11.6561
▁রেখেছি	-11.6563
▁নদিয়া	-11.6563
▁প্যারিসে	-11.6564
▁প্রবাসে	-11.6565
▁হান	-11.6566
▁বঙ্গবন্ধুকে	-11.6566
▁আহলে	-11.6567
▁রুনা	-11.6571
▁ডাক্তারি	-11.6573
▁চোটে	-11.6575
▁২জন	-11.6576
▁উইলিয়ামসন	-11.6577
শালী	-11.6579
▁ডিভাইসে	-11.6579
▁তিনটার	-11.6581
▁মৌসুমি	-11.6581
ক্রান্ত	-11.6584
▁পার্কিং	-11.6585
▁জিয়ারত	-11.6585
লাখ	-11.6588
▁মিশরের	-11.6591
▁এপ	-11.6591
▁কয়েকটা	-11.6595
▁জানাবে	-11.6595
▁অনুপ্রাণিত	-11.6596
▁তরমুজ	-11.6596
▁সোলায়মান	-11.6596
▁আদনান	-11.6596
▁অভিজাত	-11.6597
▁উপরোক্ত	-11.6597
▁হিন্দুস্তান	-11.6598
▁শামি	-11.6602
▁ক্রোয়েশিয়া	-11.6603
▁উন্নয়নশীল	-11.6604
▁মোল্যা	-11.6604
▁ডেঙ্গুতে	-11.6607
▁নিয়মিতভাবে	-11.661
▁পরনে	-11.6611
ুলিয়া	-11.6614
▁সুইজারল্যান্ড	-11.662
▁কর্মক্ষেত্রে	-11.6621
▁নাগরিকরা	-11.6622
▁জটিলতায়	-11.6623
জায়	-11.6624
▁বাইকটি	-11.6624
▁গজারিয়া	-11.6625
▁ভবিষ্যতের	-11.6625
▁ক্লাবটি	-11.6627
ক্লো	-11.6632
▁নিচু	-11.6632
▁জগ	-11.6632
[...]
